{
  "version": "1.0",
  "truncation": null,
  "padding": null,
  "added_tokens": [
  {"id":50259,"special":true,"content":"<s>","single_word":false,"lstrip":false,"rstrip":false,"normalized":true},
  {"id":50256,"special":true,"content":"<pad>","single_word":false,"lstrip":false,"rstrip":false,"normalized":true},
  {"id":50260,"special":true,"content":"</s>","single_word":false,"lstrip":false,"rstrip":false,"normalized":true},
  {"id":50258,"special":true,"content":"<unk>","single_word":false,"lstrip":false,"rstrip":false,"normalized":true},
  {"id":50257,"special":true,"content":"<mask>","single_word":false,"lstrip":true,"rstrip":false,"normalized":true}],

	
  "normalizer": null,
  "pre_tokenizer": {
    "type": "ByteLevel",
    "add_prefix_space": true,
    "trim_offsets": true
  },
  "post_processor": {
    "type": "ByteLevel",
    "add_prefix_space": true,
    "trim_offsets": true
  },
  "decoder": {
    "type": "ByteLevel",
    "add_prefix_space": true,
    "trim_offsets": true
  },
  "model": {
    "type": "BPE",
    "dropout": null,
    "unk_token": null,
    "continuing_subword_prefix": null,
    "end_of_word_suffix": null,
    "fuse_unk": false,
    "vocab": {
      "!": 0,
      "\"": 1,
      "#": 2,
      "$": 3,
      "%": 4,
      "&": 5,
      "'": 6,
      "(": 7,
      ")": 8,
      "*": 9,
      "+": 10,
      ",": 11,
      "-": 12,
      ".": 13,
      "/": 14,
      "0": 15,
      "1": 16,
      "2": 17,
      "3": 18,
      "4": 19,
      "5": 20,
      "6": 21,
      "7": 22,
      "8": 23,
      "9": 24,
      ":": 25,
      ";": 26,
      "<": 27,
      "=": 28,
      ">": 29,
      "?": 30,
      "@": 31,
      "A": 32,
      "B": 33,
      "C": 34,
      "D": 35,
      "E": 36,
      "F": 37,
      "G": 38,
      "H": 39,
      "I": 40,
      "J": 41,
      "K": 42,
      "L": 43,
      "M": 44,
      "N": 45,
      "O": 46,
      "P": 47,
      "Q": 48,
      "R": 49,
      "S": 50,
      "T": 51,
      "U": 52,
      "V": 53,
      "W": 54,
      "X": 55,
      "Y": 56,
      "Z": 57,
      "[": 58,
      "\\": 59,
      "]": 60,
      "^": 61,
      "_": 62,
      "`": 63,
      "a": 64,
      "b": 65,
      "c": 66,
      "d": 67,
      "e": 68,
      "f": 69,
      "g": 70,
      "h": 71,
      "i": 72,
      "j": 73,
      "k": 74,
      "l": 75,
      "m": 76,
      "n": 77,
      "o": 78,
      "p": 79,
      "q": 80,
      "r": 81,
      "s": 82,
      "t": 83,
      "u": 84,
      "v": 85,
      "w": 86,
      "x": 87,
      "y": 88,
      "z": 89,
      "{": 90,
      "|": 91,
      "}": 92,
      "~": 93,
      "¡": 94,
      "¢": 95,
      "£": 96,
      "¤": 97,
      "¥": 98,
      "¦": 99,
      "§": 100,
      "¨": 101,
      "©": 102,
      "ª": 103,
      "«": 104,
      "¬": 105,
      "®": 106,
      "¯": 107,
      "°": 108,
      "±": 109,
      "²": 110,
      "³": 111,
      "´": 112,
      "µ": 113,
      "¶": 114,
      "·": 115,
      "¸": 116,
      "¹": 117,
      "º": 118,
      "»": 119,
      "¼": 120,
      "½": 121,
      "¾": 122,
      "¿": 123,
      "À": 124,
      "Á": 125,
      "Â": 126,
      "Ã": 127,
      "Ä": 128,
      "Å": 129,
      "Æ": 130,
      "Ç": 131,
      "È": 132,
      "É": 133,
      "Ê": 134,
      "Ë": 135,
      "Ì": 136,
      "Í": 137,
      "Î": 138,
      "Ï": 139,
      "Ð": 140,
      "Ñ": 141,
      "Ò": 142,
      "Ó": 143,
      "Ô": 144,
      "Õ": 145,
      "Ö": 146,
      "×": 147,
      "Ø": 148,
      "Ù": 149,
      "Ú": 150,
      "Û": 151,
      "Ü": 152,
      "Ý": 153,
      "Þ": 154,
      "ß": 155,
      "à": 156,
      "á": 157,
      "â": 158,
      "ã": 159,
      "ä": 160,
      "å": 161,
      "æ": 162,
      "ç": 163,
      "è": 164,
      "é": 165,
      "ê": 166,
      "ë": 167,
      "ì": 168,
      "í": 169,
      "î": 170,
      "ï": 171,
      "ð": 172,
      "ñ": 173,
      "ò": 174,
      "ó": 175,
      "ô": 176,
      "õ": 177,
      "ö": 178,
      "÷": 179,
      "ø": 180,
      "ù": 181,
      "ú": 182,
      "û": 183,
      "ü": 184,
      "ý": 185,
      "þ": 186,
      "ÿ": 187,
      "Ā": 188,
      "ā": 189,
      "Ă": 190,
      "ă": 191,
      "Ą": 192,
      "ą": 193,
      "Ć": 194,
      "ć": 195,
      "Ĉ": 196,
      "ĉ": 197,
      "Ċ": 198,
      "ċ": 199,
      "Č": 200,
      "č": 201,
      "Ď": 202,
      "ď": 203,
      "Đ": 204,
      "đ": 205,
      "Ē": 206,
      "ē": 207,
      "Ĕ": 208,
      "ĕ": 209,
      "Ė": 210,
      "ė": 211,
      "Ę": 212,
      "ę": 213,
      "Ě": 214,
      "ě": 215,
      "Ĝ": 216,
      "ĝ": 217,
      "Ğ": 218,
      "ğ": 219,
      "Ġ": 220,
      "ġ": 221,
      "Ģ": 222,
      "ģ": 223,
      "Ĥ": 224,
      "ĥ": 225,
      "Ħ": 226,
      "ħ": 227,
      "Ĩ": 228,
      "ĩ": 229,
      "Ī": 230,
      "ī": 231,
      "Ĭ": 232,
      "ĭ": 233,
      "Į": 234,
      "į": 235,
      "İ": 236,
      "ı": 237,
      "Ĳ": 238,
      "ĳ": 239,
      "Ĵ": 240,
      "ĵ": 241,
      "Ķ": 242,
      "ķ": 243,
      "ĸ": 244,
      "Ĺ": 245,
      "ĺ": 246,
      "Ļ": 247,
      "ļ": 248,
      "Ľ": 249,
      "ľ": 250,
      "Ŀ": 251,
      "ŀ": 252,
      "Ł": 253,
      "ł": 254,
      "Ń": 255,
      "je": 256,
      "Ġs": 257,
      "Ġp": 258,
      "na": 259,
      "Ġi": 260,
      "ra": 261,
      "ni": 262,
      "ko": 263,
      "Ġd": 264,
      "Ġo": 265,
      "no": 266,
      "Ġu": 267,
      "re": 268,
      "st": 269,
      "Å¡": 270,
      "Äį": 271,
      "Ġje": 272,
      "ne": 273,
      "li": 274,
      "ja": 275,
      "va": 276,
      "ka": 277,
      "la": 278,
      "ma": 279,
      "Ġna": 280,
      "Ġpo": 281,
      "ri": 282,
      "ta": 283,
      "ti": 284,
      "ve": 285,
      "vi": 286,
      "Äĩ": 287,
      "ro": 288,
      "vo": 289,
      "za": 290,
      "Å¾": 291,
      "Ġda": 292,
      "ju": 293,
      "Ġb": 294,
      "to": 295,
      "Ġm": 296,
      "lo": 297,
      "Ġse": 298,
      "di": 299,
      "ji": 300,
      "Ġko": 301,
      "te": 302,
      "ci": 303,
      "da": 304,
      "Ġza": 305,
      "go": 306,
      "le": 307,
      "Ġsa": 308,
      "me": 309,
      "Ġod": 310,
      "nje": 311,
      "Ġa": 312,
      "Ġne": 313,
      "ru": 314,
      "ki": 315,
      "ĠS": 316,
      "Ġiz": 317,
      "Ġsu": 318,
      "ku": 319,
      "mo": 320,
      "ĠP": 321,
      "Ġka": 322,
      "Ġdo": 323,
      "sta": 324,
      "de": 325,
      "ga": 326,
      "Ġpre": 327,
      "ke": 328,
      "Äĳ": 329,
      "Ġbi": 330,
      "se": 331,
      "nu": 332,
      "sti": 333,
      "zi": 334,
      "Ġpro": 335,
      "si": 336,
      "Äįe": 337,
      "Ġra": 338,
      "Äįi": 339,
      "Ġ1": 340,
      "ĠM": 341,
      "Äĩe": 342,
      "ĠN": 343,
      "bi": 344,
      "nja": 345,
      "Ġ(": 346,
      "tu": 347,
      "Ġg": 348,
      "ĠK": 349,
      "lje": 350,
      "po": 351,
      "mi": 352,
      "sko": 353,
      "ce": 354,
      "Ġre": 355,
      "Ġpri": 356,
      "Å¾e": 357,
      "pa": 358,
      "lu": 359,
      "Ġgo": 360,
      "ĠÅ¡": 361,
      "Ġmo": 362,
      "Ġk": 363,
      "ĠB": 364,
      "sa": 365,
      "Å¾i": 366,
      "Ġz": 367,
      "ba": 368,
      "Ġt": 369,
      "Ġ\"": 370,
      "Ġ2": 371,
      "Ġni": 372,
      "ca": 373,
      "Ġto": 374,
      "--": 375,
      "Å¡e": 376,
      "Ġve": 377,
      "ĠD": 378,
      "Äįa": 379,
      "ski": 380,
      "ĠA": 381,
      "Ġde": 382,
      "sto": 383,
      "ĠT": 384,
      "Ġme": 385,
      "du": 386,
      "ĠO": 387,
      "Å¾a": 388,
      "lja": 389,
      "Ġv": 390,
      "Ġkoji": 391,
      "Ġsta": 392,
      "bo": 393,
      "nog": 394,
      "âĢ": 395,
      "Ġ-": 396,
      "ĠI": 397,
      "Äĩi": 398,
      "do": 399,
      "pi": 400,
      "Ġgodi": 401,
      "nom": 402,
      "Ġf": 403,
      "ĠU": 404,
      "vni": 405,
      "Ġvi": 406,
      "be": 407,
      "ĠV": 408,
      "00": 409,
      "Ġta": 410,
      "jo": 411,
      "nji": 412,
      "Ġte": 413,
      "lju": 414,
      "ĠR": 415,
      "Ġma": 416,
      "Ġe": 417,
      "gu": 418,
      "nih": 419,
      "gra": 420,
      "pe": 421,
      "tra": 422,
      "Äĳe": 423,
      "Äĩa": 424,
      "Ġpa": 425,
      "gi": 426,
      "Ġmi": 427,
      "ĠNa": 428,
      "Ġsve": 429,
      "vu": 430,
      "so": 431,
      "Ġkao": 432,
      "Ġgodine": 433,
      "su": 434,
      "ske": 435,
      "cija": 436,
      "dni": 437,
      "Å¡a": 438,
      "Å¡i": 439,
      "pu": 440,
      "ĠJ": 441,
      "nju": 442,
      "rÅ¾a": 443,
      "ĠG": 444,
      "ĠâĢ": 445,
      "Ġob": 446,
      "ĠÅ¡to": 447,
      "ĠPo": 448,
      "ĠZ": 449,
      "ĠL": 450,
      "ho": 451,
      "ze": 452,
      "Ġli": 453,
      "Ġraz": 454,
      "or": 455,
      "dno": 456,
      "Ġno": 457,
      "Å¡ti": 458,
      "Ġdru": 459,
      "vr": 460,
      "ĠÄĩe": 461,
      "Äĳu": 462,
      "Ġsvo": 463,
      "Ġpred": 464,
      "ĠE": 465,
      "cije": 466,
      "nim": 467,
      "Ġpos": 468,
      "Ġnje": 469,
      "----": 470,
      "Ġima": 471,
      "Ġpra": 472,
      "ĠÅ¾i": 473,
      "ĠSr": 474,
      "ska": 475,
      "Ġsi": 476,
      "mu": 477,
      "Ġin": 478,
      "viÄĩ": 479,
      "ĠKa": 480,
      "ĠH": 481,
      "kom": 482,
      "Ġvo": 483,
      "Ġop": 484,
      "Ġnije": 485,
      "sno": 486,
      "Ġ19": 487,
      "ste": 488,
      "ge": 489,
      "zo": 490,
      "Ġkoje": 491,
      "Ġili": 492,
      "Ġnase": 493,
      "Ġh": 494,
      "lji": 495,
      "Ġgra": 496,
      "red": 497,
      "ĠKo": 498,
      "lj": 499,
      "an": 500,
      "noj": 501,
      "Ġja": 502,
      "Ġnaj": 503,
      "ĠÄį": 504,
      "ĠMi": 505,
      "ĠdrÅ¾a": 506,
      "..": 507,
      "lazi": 508,
      "Ġdi": 509,
      "ran": 510,
      "Ġpu": 511,
      "Ġbe": 512,
      "zu": 513,
      "Ġstano": 514,
      "ĠÄ": 515,
      "ĠSrbi": 516,
      "skog": 517,
      "Ġ20": 518,
      "Ġpod": 519,
      "skoj": 520,
      "nosti": 521,
      "Ġpe": 522,
      "ĠMa": 523,
      "Äįki": 524,
      "Ġ3": 525,
      "Ġstanovni": 526,
      "ona": 527,
      "ĠÅ": 528,
      "ĠF": 529,
      "Ġsamo": 530,
      "govo": 531,
      "sni": 532,
      "ĠMe": 533,
      "vlja": 534,
      "Ġali": 535,
      "Ġbo": 536,
      "fi": 537,
      "Ġzna": 538,
      "Ġtre": 539,
      "Ġva": 540,
      "Äĳa": 541,
      "zna": 542,
      "Ġpr": 543,
      "Å¡ta": 544,
      "reme": 545,
      "Ġmu": 546,
      "cu": 547,
      "vanje": 548,
      "ĠPre": 549,
      "Ġkoja": 550,
      "Ġpi": 551,
      "Ġku": 552,
      "ĠÄįi": 553,
      "Ġus": 554,
      "Ġst": 555,
      "cima": 556,
      "ĠZa": 557,
      "Ġis": 558,
      "\",": 559,
      "liko": 560,
      "Ġstra": 561,
      "ĠÄįe": 562,
      "tiv": 563,
      "Ġkon": 564,
      "pra": 565,
      "stu": 566,
      "Ġti": 567,
      "ĠBe": 568,
      "Ġbio": 569,
      "Ġga": 570,
      "ĠSa": 571,
      "pre": 572,
      "bra": 573,
      "Ġstanovnika": 574,
      "Ġbu": 575,
      "Ġnad": 576,
      "Ġpot": 577,
      "bu": 578,
      "Ġ201": 579,
      "nta": 580,
      "rija": 581,
      "Ġdu": 582,
      "Ġ4": 583,
      "lan": 584,
      "vom": 585,
      "Ġjed": 586,
      "skih": 587,
      "Ġvla": 588,
      "nost": 589,
      "Äĩu": 590,
      "ĠNe": 591,
      "Å¡te": 592,
      "Ġnji": 593,
      "liti": 594,
      "Ġfi": 595,
      "Ġnalazi": 596,
      "Ġsam": 597,
      "Ġjo": 598,
      "Ġle": 599,
      "Ġba": 600,
      "Ġtako": 601,
      "ĠviÅ¡e": 602,
      "Äįu": 603,
      "vanja": 604,
      "vez": 605,
      "ĠÄĮ": 606,
      "vog": 607,
      "ĠÅł": 608,
      "Äįko": 609,
      "ĠC": 610,
      "ĠmoÅ¾e": 611,
      "skom": 612,
      "Ġdana": 613,
      "dan": 614,
      "Ġkra": 615,
      "ĠopÅ¡ti": 616,
      "Å¡t": 617,
      "ksi": 618,
      "Ġce": 619,
      "gle": 620,
      "ĠPa": 621,
      "ha": 622,
      "ĠPrema": 623,
      "Ġkako": 624,
      "Ġtu": 625,
      "fe": 626,
      "),": 627,
      "ĠTa": 628,
      "Ġ5": 629,
      "nije": 630,
      "Ġlju": 631,
      "Ġon": 632,
      "Ġgla": 633,
      "Ġju": 634,
      "nt": 635,
      "Ġot": 636,
      "nti": 637,
      "Ġru": 638,
      "vim": 639,
      "Äįno": 640,
      "vlje": 641,
      "--------": 642,
      "Ġnaselje": 643,
      "Ġposle": 644,
      "}-": 645,
      "Ġbro": 646,
      "stra": 647,
      "vih": 648,
      "Ġpla": 649,
      "Ġze": 650,
      "ĠTo": 651,
      "ĠÅ¾ive": 652,
      "Ġosta": 653,
      "mor": 654,
      "Ġ200": 655,
      "gla": 656,
      "stva": 657,
      "Ġpoda": 658,
      "vima": 659,
      "\".": 660,
      "Ġ()": 661,
      "rije": 662,
      "Å¡to": 663,
      "Ġbilo": 664,
      "stvo": 665,
      "Ġslu": 666,
      "Äįke": 667,
      "sku": 668,
      "ĠRa": 669,
      "Ġok": 670,
      "ogra": 671,
      ").": 672,
      "bli": 673,
      "Ġvr": 674,
      "Ġro": 675,
      "Ġsva": 676,
      "Ġmogu": 677,
      "on": 678,
      "tni": 679,
      "ĠDa": 680,
      "Ġvisi": 681,
      "ciju": 682,
      "sla": 683,
      "ĠÅ¾e": 684,
      "juÄĩi": 685,
      "ĠjoÅ¡": 686,
      "ĠRe": 687,
      "Ġisto": 688,
      "ĠBo": 689,
      "Ġodno": 690,
      "Ġvreme": 691,
      "Ġspo": 692,
      "jom": 693,
      "rt": 694,
      "vno": 695,
      "Ġor": 696,
      "Ġoko": 697,
      "ï¿": 698,
      "ï¿½": 699,
      "Ġbiti": 700,
      "Ġ6": 701,
      "ĠveÄĩ": 702,
      "vro": 703,
      "Ġtra": 704,
      "ĠVe": 705,
      "Ġveli": 706,
      "tno": 707,
      "Ġc": 708,
      "Ġbez": 709,
      "ĠâĢŀ": 710,
      "ĠÅ¾ivelo": 711,
      "kao": 712,
      "skim": 713,
      "bog": 714,
      "spo": 715,
      "tro": 716,
      "Ġkada": 717,
      "Ġpoliti": 718,
      "ĠNi": 719,
      "rti": 720,
      "vara": 721,
      "tim": 722,
      "Ġvisini": 723,
      "Ġjer": 724,
      "Ġuz": 725,
      "Ġnadmor": 726,
      "Ġsavez": 727,
      "ĠBa": 728,
      "ĠSrbije": 729,
      "Ġsr": 730,
      "ĠmeÄĳu": 731,
      "vali": 732,
      "000": 733,
      "lni": 734,
      "vati": 735,
      "vao": 736,
      "Ġnadmorskoj": 737,
      "lek": 738,
      "Ġnaselju": 739,
      "rni": 740,
      "Ġtreba": 741,
      "Ġposta": 742,
      "ĠJe": 743,
      "tak": 744,
      "ven": 745,
      "Ġkri": 746,
      "ĠdrÅ¾avi": 747,
      "rom": 748,
      "selje": 749,
      "Ġnjego": 750,
      "ciona": 751,
      "Ġzem": 752,
      "Ġlo": 753,
      "ĠDo": 754,
      "kra": 755,
      "joj": 756,
      "rio": 757,
      "Ġso": 758,
      "Ġmora": 759,
      "sle": 760,
      "zvo": 761,
      "Ġorga": 762,
      "van": 763,
      "dio": 764,
      "Ġoba": 765,
      "kla": 766,
      "Ġbila": 767,
      "Ġgodina": 768,
      "ĠPe": 769,
      "kon": 770,
      "Ġ2010": 771,
      "Ġdrugi": 772,
      "Ġneko": 773,
      "kto": 774,
      "pro": 775,
      "Ġkori": 776,
      "ĠÄįa": 777,
      "ĠopÅ¡tini": 778,
      "hi": 779,
      "voj": 780,
      "sedni": 781,
      "njem": 782,
      "nica": 783,
      "nika": 784,
      "ĠNaselje": 785,
      "kre": 786,
      "kup": 787,
      "rod": 788,
      "Ġsaveznoj": 789,
      "Ġpodacima": 790,
      "ĠÅ¾ivo": 791,
      "ĠâĢĵ": 792,
      "ĠMo": 793,
      "Ġnema": 794,
      "Ġzbog": 795,
      "Å¾u": 796,
      "Ġos": 797,
      "ĠBeogra": 798,
      "tom": 799,
      "Ġinte": 800,
      "meri": 801,
      "ĠpoÄįe": 802,
      "Ġ7": 803,
      "ĠVi": 804,
      "pri": 805,
      "ciji": 806,
      "man": 807,
      "rva": 808,
      "Äįka": 809,
      "Ġova": 810,
      "âĢľ": 811,
      "Ġtri": 812,
      "Å¡ko": 813,
      "Ġdobi": 814,
      "nija": 815,
      "Ġpredsta": 816,
      "Ġsrp": 817,
      "vio": 818,
      "lne": 819,
      "ver": 820,
      "sli": 821,
      "Ġ-{": 822,
      "...": 823,
      "Ġprema": 824,
      "Ġnego": 825,
      "Ġkod": 826,
      "bro": 827,
      "Ġla": 828,
      "ĠâĢĶ": 829,
      "ĠBi": 830,
      "Ġdva": 831,
      "ĠGo": 832,
      "Ġizme": 833,
      "Ġproce": 834,
      "ĠÅ¡ta": 835,
      "Ġfa": 836,
      "niji": 837,
      "ĠDe": 838,
      "Ġprime": 839,
      "Ġsmo": 840,
      "lno": 841,
      "Ġpita": 842,
      "rno": 843,
      "lija": 844,
      "pisa": 845,
      "Ġosno": 846,
      "dra": 847,
      "Ġslo": 848,
      "Ġjedan": 849,
      "Ġkom": 850,
      "Ġnjiho": 851,
      "for": 852,
      "nima": 853,
      "ĠLa": 854,
      "ĠMeksi": 855,
      "Ġ18": 856,
      "Ġ8": 857,
      "Ġposto": 858,
      "ĠÄįla": 859,
      "ĠJu": 860,
      "vaju": 861,
      "Ġdok": 862,
      "klju": 863,
      "Ġtr": 864,
      "ĠSe": 865,
      "Ġau": 866,
      "ĠNo": 867,
      "Ġci": 868,
      "lom": 869,
      "Ġona": 870,
      "vori": 871,
      "Ġnasta": 872,
      "Ġak": 873,
      "redi": 874,
      "Ġpose": 875,
      "nda": 876,
      "Ġradi": 877,
      "ĠMeksiku": 878,
      "nista": 879,
      "Ġvoj": 880,
      "jem": 881,
      "ĠTe": 882,
      "Ġjedi": 883,
      "Ġsvoje": 884,
      "rne": 885,
      "Ġbroj": 886,
      "Ġnisu": 887,
      "Ġako": 888,
      "ĠRu": 889,
      "ĠJa": 890,
      "Ġorgani": 891,
      "ren": 892,
      "Ġih": 893,
      "Ġproi": 894,
      "matra": 895,
      "Ġtak": 896,
      "Ġljudi": 897,
      "Ġgde": 898,
      "ĠEvro": 899,
      "Ġtoga": 900,
      "cio": 901,
      "dom": 902,
      "Ġiza": 903,
      "un": 904,
      "Ġprotiv": 905,
      "Ġsto": 906,
      "Ġknji": 907,
      "in": 908,
      "Ġpredsedni": 909,
      "ĠVa": 910,
      "om": 911,
      "Ġ9": 912,
      "Ġsada": 913,
      "Ġ10": 914,
      "Ġodlu": 915,
      "rati": 916,
      "Ġgru": 917,
      "ĠkaÅ¾e": 918,
      "Ġigra": 919,
      "ĠnaÄįi": 920,
      "nice": 921,
      "Ġge": 922,
      "Ġsvet": 923,
      "hva": 924,
      "log": 925,
      "rna": 926,
      "vek": 927,
      "tre": 928,
      "Ġobe": 929,
      "op": 930,
      "nski": 931,
      "lika": 932,
      "Å¡Äĩe": 933,
      "ĠHa": 934,
      "Ġste": 935,
      "ĠizmeÄĳu": 936,
      "Ġkad": 937,
      "rima": 938,
      "Ġrekao": 939,
      "Äĳi": 940,
      "ĠuÄįe": 941,
      "ĠSve": 942,
      "Ġobja": 943,
      "rk": 944,
      "Äįni": 945,
      "kri": 946,
      "Ġovog": 947,
      "Ġdrugo": 948,
      "ĠOd": 949,
      "vrÅ¡i": 950,
      "publi": 951,
      "Ġide": 952,
      "Ġpove": 953,
      "Äįkog": 954,
      "Ġregi": 955,
      "ĠÄįu": 956,
      "Ġzaje": 957,
      "Ġtaj": 958,
      "ĠPro": 959,
      "Ġbude": 960,
      "vne": 961,
      "lova": 962,
      "nosi": 963,
      "pada": 964,
      "Äįne": 965,
      "ĠÅ¡e": 966,
      "ĠsluÄįa": 967,
      "he": 968,
      "ĠÅ½": 969,
      "gao": 970,
      "Ġime": 971,
      "ĠPri": 972,
      "Ġpret": 973,
      "Ġim": 974,
      "Ġzako": 975,
      "reÄĳe": 976,
      "nistar": 977,
      "fa": 978,
      "----------------": 979,
      "Ġsna": 980,
      "Ġupo": 981,
      "Ġauto": 982,
      "Ġproizvo": 983,
      "Å¡u": 984,
      "Äįkih": 985,
      "vije": 986,
      "Ġ0": 987,
      "stvu": 988,
      "Ġsiste": 989,
      "Å¡nje": 990,
      "viÄĩa": 991,
      "nera": 992,
      "noviÄĩ": 993,
      "rak": 994,
      "Ġpotre": 995,
      "nici": 996,
      "Å¡tva": 997,
      "Ġstva": 998,
      "Ġokru": 999,
      "jedi": 1000,
      "vina": 1001,
      "Ġupra": 1002,
      "vreme": 1003,
      "tvr": 1004,
      "ng": 1005,
      "ĠÄĲ": 1006,
      "Ġsme": 1007,
      "Ġnas": 1008,
      "Ġsvoji": 1009,
      "Ġove": 1010,
      "Ġhi": 1011,
      "Ġ15": 1012,
      "Ġbili": 1013,
      "vnog": 1014,
      "Å¡ao": 1015,
      "vala": 1016,
      "rta": 1017,
      "dne": 1018,
      "Ġume": 1019,
      "Ġ12": 1020,
      "ble": 1021,
      "ĠJo": 1022,
      "vodi": 1023,
      "Ġmno": 1024,
      "Ġpomo": 1025,
      "Ġsti": 1026,
      "ladi": 1027,
      "ĠRo": 1028,
      "koviÄĩ": 1029,
      "Å¡nji": 1030,
      "Ġ199": 1031,
      "menta": 1032,
      "Ġkoju": 1033,
      "ĠSi": 1034,
      "Ġizbo": 1035,
      "Ġfor": 1036,
      "pla": 1037,
      "Ġho": 1038,
      "Ġtome": 1039,
      "Ġobra": 1040,
      "Ġsred": 1041,
      "vore": 1042,
      "vani": 1043,
      "ĠBu": 1044,
      "vede": 1045,
      "jek": 1046,
      "redno": 1047,
      "ks": 1048,
      "gleda": 1049,
      "men": 1050,
      "Ġjezi": 1051,
      "lta": 1052,
      "kle": 1053,
      "Ġuspe": 1054,
      "gre": 1055,
      "ĠVo": 1056,
      "kaza": 1057,
      "Ġsvi": 1058,
      "ĠIz": 1059,
      "Ġdve": 1060,
      "Ġneki": 1061,
      "Ġrazli": 1062,
      "nik": 1063,
      "Ġjedno": 1064,
      "Ġsad": 1065,
      "Ġki": 1066,
      "ner": 1067,
      "tka": 1068,
      "Å¡ki": 1069,
      "Ġodgovo": 1070,
      "Ġpozna": 1071,
      "teta": 1072,
      "Ġisti": 1073,
      "Ġpreko": 1074,
      "stru": 1075,
      "lna": 1076,
      "ĠAli": 1077,
      "bno": 1078,
      "Ġtek": 1079,
      "ltu": 1080,
      "mije": 1081,
      "lim": 1082,
      "vra": 1083,
      "Ġkre": 1084,
      "lnog": 1085,
      "Ġkojima": 1086,
      "Ġpravo": 1087,
      "pak": 1088,
      "vla": 1089,
      "Ġoni": 1090,
      "dna": 1091,
      "Ġnaro": 1092,
      "ĠTu": 1093,
      "Ġstru": 1094,
      "Ġono": 1095,
      "ĠLi": 1096,
      "Ġbr": 1097,
      "ĠÅ¡ko": 1098,
      "ndi": 1099,
      "nd": 1100,
      "liza": 1101,
      "Ġizra": 1102,
      "vnih": 1103,
      "Ġgrad": 1104,
      "-{": 1105,
      "volj": 1106,
      "ĠÅ¡i": 1107,
      "tar": 1108,
      "ĠÄįo": 1109,
      "Ġnekoliko": 1110,
      "Ġdeo": 1111,
      "Ġpoja": 1112,
      "Ġsla": 1113,
      "ar": 1114,
      "Ġmnogo": 1115,
      "govara": 1116,
      "Ġgu": 1117,
      "Ġ11": 1118,
      "nske": 1119,
      "Äįkoj": 1120,
      "ĠreÄįi": 1121,
      "rve": 1122,
      "klo": 1123,
      "Ġusta": 1124,
      "rvat": 1125,
      "Ġdanas": 1126,
      "tet": 1127,
      "stve": 1128,
      "mena": 1129,
      "Ġdoda": 1130,
      "ĠnaÄįin": 1131,
      "nova": 1132,
      "ĠLe": 1133,
      "ĠSan": 1134,
      "Ġbra": 1135,
      "Ġstu": 1136,
      "ĠSrbiji": 1137,
      "Ġstrane": 1138,
      "âĢĿ": 1139,
      "slo": 1140,
      "vre": 1141,
      "Äįna": 1142,
      "tara": 1143,
      "rij": 1144,
      "vnom": 1145,
      "rad": 1146,
      "Ġfina": 1147,
      "rka": 1148,
      "plo": 1149,
      "riji": 1150,
      "Å¡ka": 1151,
      "tne": 1152,
      "vanju": 1153,
      "ĠRepubli": 1154,
      "Ġdobro": 1155,
      "tali": 1156,
      "Ġodnosno": 1157,
      "Ġnika": 1158,
      "er": 1159,
      "roz": 1160,
      "nci": 1161,
      "Ġproble": 1162,
      "vine": 1163,
      "bri": 1164,
      "rodi": 1165,
      "nsi": 1166,
      "godi": 1167,
      "Ġneka": 1168,
      "sam": 1169,
      "Ġjedna": 1170,
      "Ġnaciona": 1171,
      "uze": 1172,
      "Ġovo": 1173,
      "ĠKoso": 1174,
      "Ġzah": 1175,
      "Ġ13": 1176,
      "Ġpobe": 1177,
      "Ġbudu": 1178,
      "pisu": 1179,
      "voji": 1180,
      "ĠDi": 1181,
      "Ġfil": 1182,
      "Ġprosto": 1183,
      "ĠKu": 1184,
      "ĠveÄĩi": 1185,
      "ĠDu": 1186,
      "Ġpoli": 1187,
      "mira": 1188,
      "Äįaj": 1189,
      "Ġri": 1190,
      "Ġrad": 1191,
      "Ġ17": 1192,
      "ĠMeÄĳu": 1193,
      "Ġsle": 1194,
      "rancu": 1195,
      "lnih": 1196,
      "vna": 1197,
      "Ġ14": 1198,
      "Ġsmatra": 1199,
      "vana": 1200,
      "ako": 1201,
      "Ġprvi": 1202,
      "nte": 1203,
      "ĠTi": 1204,
      "Ġzapo": 1205,
      "Ġope": 1206,
      "vila": 1207,
      "tan": 1208,
      "dija": 1209,
      "Ġveliki": 1210,
      "nio": 1211,
      "stup": 1212,
      "nzi": 1213,
      "ĠSo": 1214,
      "Ġras": 1215,
      "Ġnjegovo": 1216,
      "Ġonda": 1217,
      "Ġmili": 1218,
      "ĠzaÅ¡ti": 1219,
      "Ġsasta": 1220,
      "Ġeko": 1221,
      "ĠneÄĩe": 1222,
      "Ġput": 1223,
      "Ġkultu": 1224,
      "Ġnepo": 1225,
      "viÅ¡e": 1226,
      "ĠneÅ¡to": 1227,
      "spe": 1228,
      "tku": 1229,
      "ĠSu": 1230,
      "Ġposled": 1231,
      "oma": 1232,
      "vje": 1233,
      "Ġnau": 1234,
      "vÅ¡i": 1235,
      "hu": 1236,
      "tua": 1237,
      "Ġtom": 1238,
      "Ġar": 1239,
      "rova": 1240,
      "Ġvlada": 1241,
      "ĠnaÅ¡e": 1242,
      "Ġtro": 1243,
      "**": 1244,
      "}-.": 1245,
      "tri": 1246,
      "ĠJugo": 1247,
      "sao": 1248,
      "vija": 1249,
      "Ġameri": 1250,
      "ĠOn": 1251,
      "Ġsli": 1252,
      "smo": 1253,
      "Ġpono": 1254,
      "Ġal": 1255,
      "set": 1256,
      "Ġ16": 1257,
      "Ġzajedni": 1258,
      "love": 1259,
      "ĠuÄįi": 1260,
      "Ġdruge": 1261,
      "Ġorganiza": 1262,
      "Ġkome": 1263,
      "Ġuti": 1264,
      "Äįkom": 1265,
      "ĠVu": 1266,
      "Ġmate": 1267,
      "Ġrea": 1268,
      "tna": 1269,
      "Ġdece": 1270,
      "Å¡tu": 1271,
      "Ġkojoj": 1272,
      "19": 1273,
      "Ġobi": 1274,
      "Ġizja": 1275,
      "vac": 1276,
      "bar": 1277,
      "Ġsvoj": 1278,
      "Ġzahte": 1279,
      "tih": 1280,
      "Ġfe": 1281,
      "unk": 1282,
      "gli": 1283,
      "nskog": 1284,
      "vde": 1285,
      "Ġmesto": 1286,
      "Ġpredstavlja": 1287,
      "ĠproÅ¡": 1288,
      "sije": 1289,
      "Ġpozi": 1290,
      "Ġdoma": 1291,
      "Ġdela": 1292,
      "ĠAl": 1293,
      "ĠdruÅ¡t": 1294,
      "Ġistra": 1295,
      "ĠKi": 1296,
      "ĠodrÅ¾a": 1297,
      "20": 1298,
      "Ġmalo": 1299,
      "Ġobave": 1300,
      "Ġtrenu": 1301,
      "tor": 1302,
      "Äįan": 1303,
      "Ġizda": 1304,
      "Ġdire": 1305,
      "Ġprija": 1306,
      "risti": 1307,
      "Ġimaju": 1308,
      "Ġnjih": 1309,
      "Äĳen": 1310,
      "Ġmese": 1311,
      "Ġnajve": 1312,
      "Ġneza": 1313,
      "ĠÄįak": 1314,
      "slu": 1315,
      "forma": 1316,
      "zulta": 1317,
      "rko": 1318,
      "ĠOva": 1319,
      "Ġdalje": 1320,
      "mbra": 1321,
      "Ġpredu": 1322,
      "ĠRi": 1323,
      "Ġvide": 1324,
      "zima": 1325,
      "Ġdr": 1326,
      "Ġspre": 1327,
      "Ġprava": 1328,
      "Ġn": 1329,
      "Ġkroz": 1330,
      "vrÅ¡e": 1331,
      "logi": 1332,
      "Äįenja": 1333,
      "ĠSta": 1334,
      "Ġizve": 1335,
      "Ġnam": 1336,
      "Å¾be": 1337,
      "ĠtakoÄĳe": 1338,
      "Ġfunk": 1339,
      "Ġputa": 1340,
      "nama": 1341,
      "Ġtim": 1342,
      "snije": 1343,
      "ĠBeogradu": 1344,
      "razu": 1345,
      "ĠgraÄĳa": 1346,
      "zuje": 1347,
      "ĠLu": 1348,
      "mokra": 1349,
      "Ġtokom": 1350,
      "sne": 1351,
      "rske": 1352,
      "ntra": 1353,
      "Å¾no": 1354,
      "Ġkr": 1355,
      "Ġtada": 1356,
      "ĠreÄįe": 1357,
      "Ġovaj": 1358,
      "Ġ2011": 1359,
      "Ġoso": 1360,
      "Äįku": 1361,
      "ĠÅ¡a": 1362,
      "ĠTako": 1363,
      "dova": 1364,
      "nka": 1365,
      "tima": 1366,
      "riju": 1367,
      "Ġobla": 1368,
      "Ġnakon": 1369,
      "viti": 1370,
      "Ġvlasti": 1371,
      "Ġovom": 1372,
      "Äįkim": 1373,
      "Ġvredno": 1374,
      "Å¡nja": 1375,
      "telj": 1376,
      "Ġnove": 1377,
      "Ġtvr": 1378,
      "Ġdina": 1379,
      "Ġprome": 1380,
      "Ġprili": 1381,
      "Ġiznosi": 1382,
      "laze": 1383,
      "ter": 1384,
      "AD": 1385,
      "fo": 1386,
      "ĠKra": 1387,
      "vnim": 1388,
      "kli": 1389,
      "Ġslobo": 1390,
      "Ġvra": 1391,
      "ĠDru": 1392,
      "Ġcrk": 1393,
      "ĠPi": 1394,
      "sija": 1395,
      "Ġprogra": 1396,
      "Ġposla": 1397,
      "vrop": 1398,
      "AN": 1399,
      "Ġsvoju": 1400,
      "ktu": 1401,
      "Ġuda": 1402,
      "Å¾da": 1403,
      "Ġsud": 1404,
      "tera": 1405,
      "Ġubi": 1406,
      "novi": 1407,
      "pita": 1408,
      "ĠMilo": 1409,
      "Ġpoku": 1410,
      "Ġname": 1411,
      "Ġpopu": 1412,
      "seÄĩa": 1413,
      "mina": 1414,
      "Ġsvako": 1415,
      "Ġnajbo": 1416,
      "Ġca": 1417,
      "ĠJugosla": 1418,
      "Å¡ke": 1419,
      "lima": 1420,
      "bora": 1421,
      "stitu": 1422,
      "Ġpotpu": 1423,
      "fika": 1424,
      "Ġporodi": 1425,
      "ranje": 1426,
      "ĠdrÅ¾ave": 1427,
      "kti": 1428,
      "Ġsre": 1429,
      "Ġuvek": 1430,
      "ĠGa": 1431,
      "Ġrezulta": 1432,
      "Ġbor": 1433,
      "Äĩem": 1434,
      "Ġsvih": 1435,
      "Ġzdra": 1436,
      "Ġizvo": 1437,
      "Ġpar": 1438,
      "Ġgovori": 1439,
      "Ġsvojim": 1440,
      "Ġpolo": 1441,
      "Ġjednom": 1442,
      "Ġokrugu": 1443,
      "dnim": 1444,
      "ĠEl": 1445,
      "ĠÄįita": 1446,
      "Ġpokre": 1447,
      "sna": 1448,
      "ĠAko": 1449,
      "ĠoÄįe": 1450,
      "Ġmnog": 1451,
      "Ġpore": 1452,
      "Ġzlo": 1453,
      "Ġveoma": 1454,
      "jan": 1455,
      "Ġtrebalo": 1456,
      "ĠPr": 1457,
      "pred": 1458,
      "Ġuni": 1459,
      "Ġbri": 1460,
      "Ġzat": 1461,
      "kav": 1462,
      "zbe": 1463,
      "ĠLo": 1464,
      "Ġparti": 1465,
      "ĠNaj": 1466,
      "ktor": 1467,
      "cijama": 1468,
      "Ġkoristi": 1469,
      "loga": 1470,
      "ĠVla": 1471,
      "Ġjoj": 1472,
      "ĠÄĮe": 1473,
      "ĠDra": 1474,
      "Ġtran": 1475,
      "Å¾io": 1476,
      "ljo": 1477,
      "ĠPred": 1478,
      "Ġmisli": 1479,
      "ĠNema": 1480,
      "Ġfinansi": 1481,
      "Ġ194": 1482,
      "Ġha": 1483,
      "Ġzemlje": 1484,
      "zma": 1485,
      "Ġnjega": 1486,
      "Ġmiliona": 1487,
      "mini": 1488,
      "ĠSrbija": 1489,
      "ĠÄĮi": 1490,
      "ĠmeÄĳuna": 1491,
      "Ġmedi": 1492,
      "Ġutvr": 1493,
      "Ġnazi": 1494,
      "Ġzapa": 1495,
      "Ġodsto": 1496,
      "Ġone": 1497,
      "san": 1498,
      "Ġpostoji": 1499,
      "Ġperio": 1500,
      "tiri": 1501,
      "Äįnih": 1502,
      "Ġhe": 1503,
      "vet": 1504,
      "Ġsm": 1505,
      "blje": 1506,
      "mogu": 1507,
      "ĠÄįlana": 1508,
      "ljivo": 1509,
      "ĠraÄįu": 1510,
      "ĠFi": 1511,
      "onu": 1512,
      "Ġtele": 1513,
      "Ġneo": 1514,
      "dru": 1515,
      "Åł": 1516,
      "Ġviso": 1517,
      "Ġsredi": 1518,
      "Ġloka": 1519,
      "lije": 1520,
      "ĠBeograd": 1521,
      "tio": 1522,
      "ndar": 1523,
      "ĠHo": 1524,
      "Ġ25": 1525,
      "bru": 1526,
      "zni": 1527,
      "Ġosi": 1528,
      "Ġad": 1529,
      "ĠdrÅ¾ava": 1530,
      "ĠÄĮlan": 1531,
      "mati": 1532,
      "kupÅ¡ti": 1533,
      "gen": 1534,
      "Ġkla": 1535,
      "Ġmanje": 1536,
      "Å¡ava": 1537,
      "Ġ30": 1538,
      "ĠnaÅ¡": 1539,
      "Ġproda": 1540,
      "ĠNiko": 1541,
      "mpa": 1542,
      "Ġimao": 1543,
      "Ġvidi": 1544,
      "dnika": 1545,
      "ĠoÄįi": 1546,
      "ĠPosle": 1547,
      "ĠreÅ¡e": 1548,
      "ĠpoÅ¡to": 1549,
      "oto": 1550,
      "Ġzato": 1551,
      "Ġugovo": 1552,
      "lnim": 1553,
      "ĠSrp": 1554,
      "jske": 1555,
      "Ġteh": 1556,
      "Ġjednog": 1557,
      "Ġ[": 1558,
      "Ġunu": 1559,
      "nke": 1560,
      "ĠodreÄĳe": 1561,
      "Ġpojedi": 1562,
      "rani": 1563,
      "ĠniÅ¡ta": 1564,
      "Ġpredsednik": 1565,
      "rito": 1566,
      "leda": 1567,
      "ara": 1568,
      "Ġveka": 1569,
      "Äįnog": 1570,
      "Ġpitanje": 1571,
      "Ġevrop": 1572,
      "rma": 1573,
      "tko": 1574,
      "Ġdelu": 1575,
      "Ġministar": 1576,
      "ĠrazliÄįi": 1577,
      "10": 1578,
      "Ġug": 1579,
      "vesti": 1580,
      "ĠHrvat": 1581,
      "sre": 1582,
      "lnom": 1583,
      "Ġ--": 1584,
      "Ġvode": 1585,
      "Ġklu": 1586,
      "Ġskla": 1587,
      "Ġrata": 1588,
      "Äįio": 1589,
      "lih": 1590,
      "ĠMinistar": 1591,
      "Ġspe": 1592,
      "voje": 1593,
      "Ġslede": 1594,
      "Ġpet": 1595,
      "stro": 1596,
      "Ġmode": 1597,
      "ĠAmeri": 1598,
      "ÄĮ": 1599,
      "jski": 1600,
      "Äĳenje": 1601,
      "manje": 1602,
      "jeka": 1603,
      "laga": 1604,
      "Äĳuje": 1605,
      "Äįar": 1606,
      "som": 1607,
      "ĠItali": 1608,
      "Ġpreduze": 1609,
      "ĠÅ¾ivot": 1610,
      "stupa": 1611,
      "posta": 1612,
      "nska": 1613,
      "Ġdone": 1614,
      "lnu": 1615,
      "ĠEvrop": 1616,
      "Ġbli": 1617,
      "Ġgenera": 1618,
      "njima": 1619,
      "rÅ¾i": 1620,
      "dÅ¾e": 1621,
      "gnu": 1622,
      "Ġmogao": 1623,
      "ĠÄįetiri": 1624,
      "Ġposlo": 1625,
      "kul": 1626,
      "stava": 1627,
      "Ġdrugih": 1628,
      "Ġvodi": 1629,
      "Ġdelo": 1630,
      "__": 1631,
      "kva": 1632,
      "hvati": 1633,
      "lobo": 1634,
      "bre": 1635,
      "liÄĩ": 1636,
      "Ġlu": 1637,
      "Ġintere": 1638,
      "zije": 1639,
      "Ġkoliko": 1640,
      "rao": 1641,
      "vljeno": 1642,
      "Ġspa": 1643,
      "nskih": 1644,
      "Ġobli": 1645,
      "ud": 1646,
      "nce": 1647,
      "ĠreÄį": 1648,
      "obra": 1649,
      "Å¡Äĩu": 1650,
      "ĠstanovniÅ¡tva": 1651,
      "Ġnovina": 1652,
      "Ġeks": 1653,
      "Ġkru": 1654,
      "ĠâĢľ": 1655,
      "ĠznaÄįi": 1656,
      "kova": 1657,
      "Ġban": 1658,
      "mom": 1659,
      "Ġvremena": 1660,
      "Ġpopisu": 1661,
      "ĠÄįini": 1662,
      "Ġregionu": 1663,
      "ĠmoguÄĩ": 1664,
      "nde": 1665,
      "Ġmaterija": 1666,
      "zija": 1667,
      "Ġprofe": 1668,
      "Ġostva": 1669,
      "ĠAu": 1670,
      "Ġpravi": 1671,
      "lac": 1672,
      "Ġuslo": 1673,
      "bija": 1674,
      "rana": 1675,
      "Ġupotre": 1676,
      "ĠsluÄįaju": 1677,
      "vca": 1678,
      "sio": 1679,
      "opÅ¡te": 1680,
      "Ġmla": 1681,
      "Äįenje": 1682,
      "Ġosnovu": 1683,
      "Ġkontro": 1684,
      "Ġstvari": 1685,
      "Ġzakona": 1686,
      "Ġobu": 1687,
      "kama": 1688,
      "Ġzemlji": 1689,
      "ĠFrancu": 1690,
      "ruÄį": 1691,
      "Ġsmi": 1692,
      "met": 1693,
      "gaÄĳa": 1694,
      "ĠMeÄĳutim": 1695,
      "Ġgospo": 1696,
      "Ġsvega": 1697,
      "Ġobezbe": 1698,
      "ĠPu": 1699,
      "Ġplani": 1700,
      "Ġkasnije": 1701,
      "Ġtog": 1702,
      "glo": 1703,
      "Ġuve": 1704,
      "ĠKako": 1705,
      "Ġprizna": 1706,
      "koliko": 1707,
      "200": 1708,
      "Ġkvali": 1709,
      "Ġvrati": 1710,
      "vaja": 1711,
      "Ġopa": 1712,
      "kuje": 1713,
      "Ġuklju": 1714,
      "ĠHe": 1715,
      "Ġprote": 1716,
      "Ġdugo": 1717,
      "ĠOp": 1718,
      "Ġterito": 1719,
      "ĠpomoÄĩ": 1720,
      "Ġ,": 1721,
      "Ġdruga": 1722,
      "Ġodgovara": 1723,
      "Ġ198": 1724,
      "Ġkraju": 1725,
      "tog": 1726,
      "ĠFe": 1727,
      "menu": 1728,
      "oj": 1729,
      "Ġprven": 1730,
      "tovo": 1731,
      "Ġ21": 1732,
      "ĠGe": 1733,
      "Ġmesta": 1734,
      "Ġoblasti": 1735,
      "Å¡lje": 1736,
      "Ġsocija": 1737,
      "ĠKada": 1738,
      "com": 1739,
      "ĠNje": 1740,
      "Ġipak": 1741,
      "gne": 1742,
      "Ġmaj": 1743,
      "dam": 1744,
      "....": 1745,
      "Ġproizvod": 1746,
      "tke": 1747,
      "Ġgleda": 1748,
      "Ġbezbe": 1749,
      "grad": 1750,
      "Ġrazu": 1751,
      "cijom": 1752,
      "Äĩeg": 1753,
      "Ġvrlo": 1754,
      "Ġpored": 1755,
      "Ġsko": 1756,
      "raju": 1757,
      "Ġana": 1758,
      "Ġutica": 1759,
      "Äįnim": 1760,
      "tivno": 1761,
      "Ġdinara": 1762,
      "Ġkojih": 1763,
      "Ġekonom": 1764,
      "Ġoce": 1765,
      "taka": 1766,
      "lnosti": 1767,
      "Ġnjima": 1768,
      "vili": 1769,
      "mah": 1770,
      "Ġ24": 1771,
      "Ġdvo": 1772,
      "Ġpretho": 1773,
      "ĠdomaÄĩi": 1774,
      "Ġgrada": 1775,
      "ĠznaÄįaj": 1776,
      "Ġista": 1777,
      "Ġnu": 1778,
      "tske": 1779,
      "Ġoda": 1780,
      "Po": 1781,
      "pusti": 1782,
      "udba": 1783,
      "Ġener": 1784,
      "ĠCe": 1785,
      "loÅ¾e": 1786,
      "hvata": 1787,
      "Ġinforma": 1788,
      "Ġnarod": 1789,
      "Ġprvo": 1790,
      "Ġnivo": 1791,
      "vanjem": 1792,
      "Ġraspo": 1793,
      "ranja": 1794,
      "Ġelek": 1795,
      "Ġpoka": 1796,
      "Ġpredstavni": 1797,
      "ĠRepublike": 1798,
      "ĠÄįlan": 1799,
      "Ġprimer": 1800,
      "Ġdola": 1801,
      "Ġkonce": 1802,
      "Ġispo": 1803,
      "Ġposti": 1804,
      "ĠÅ¾ele": 1805,
      "sme": 1806,
      "Ġpara": 1807,
      "ĠÄįesto": 1808,
      "Ġpru": 1809,
      "ĠZe": 1810,
      "Ġtrgo": 1811,
      "ĠistraÅ¾i": 1812,
      "Ġstvara": 1813,
      "Ġljud": 1814,
      "Ġmnogi": 1815,
      "ĠÅ¾a": 1816,
      "nata": 1817,
      "zenta": 1818,
      "lka": 1819,
      "Ġpisa": 1820,
      "ĠTre": 1821,
      "Ġneu": 1822,
      "ĠmoÅ¾da": 1823,
      "kr": 1824,
      "nto": 1825,
      "Ġdra": 1826,
      "Ġponovo": 1827,
      "Ġsistema": 1828,
      "Äįina": 1829,
      "ĠMu": 1830,
      "Ġ22": 1831,
      "Äĳena": 1832,
      "ĠÅ¾ivota": 1833,
      "takmi": 1834,
      "leÅ¾": 1835,
      "Ġobjek": 1836,
      "pli": 1837,
      "Ġmuzi": 1838,
      "Ġbole": 1839,
      "rtu": 1840,
      "ĠknjiÅ¾e": 1841,
      "vremeno": 1842,
      "Ġnovi": 1843,
      "cama": 1844,
      "ĠKao": 1845,
      "rska": 1846,
      "Ġevra": 1847,
      "ĠdoÅ¡": 1848,
      "Ġtakmi": 1849,
      "ĠpodruÄį": 1850,
      "Ġdemokra": 1851,
      "ĠpokuÅ¡a": 1852,
      "II": 1853,
      "tnih": 1854,
      "Ġdoku": 1855,
      "Ġhra": 1856,
      "tin": 1857,
      "Ġzaklju": 1858,
      "ĠEU": 1859,
      "Ġsveta": 1860,
      "Ġdozvo": 1861,
      "sima": 1862,
      "ĠMar": 1863,
      "Ġnjegov": 1864,
      "Ġsvetu": 1865,
      "Ġkraj": 1866,
      "Ġnedo": 1867,
      "nuo": 1868,
      "Ġsave": 1869,
      "12": 1870,
      "tnosti": 1871,
      "Ġuli": 1872,
      "Ġsebe": 1873,
      "snika": 1874,
      "ĠpovrÅ¡i": 1875,
      "ĠSto": 1876,
      "ĠÅ¾": 1877,
      "Ġ...": 1878,
      "ĠpoveÄĩa": 1879,
      "Äĳenja": 1880,
      "Ġovde": 1881,
      "Ġ23": 1882,
      "Ġkojim": 1883,
      "Ġbezbedno": 1884,
      "rski": 1885,
      "Ġobzi": 1886,
      "vod": 1887,
      "Ġsitua": 1888,
      "Ġsigu": 1889,
      "Ġpostoje": 1890,
      "AT": 1891,
      "ĠtrÅ¾i": 1892,
      "ĠdogaÄĳa": 1893,
      "dila": 1894,
      "ÄįiÄĩ": 1895,
      "tski": 1896,
      "ĠÄĩu": 1897,
      "Ġneke": 1898,
      "dnik": 1899,
      "Ġrada": 1900,
      "Ġzavi": 1901,
      "drÅ¾a": 1902,
      "voljno": 1903,
      "listi": 1904,
      "Ġjednu": 1905,
      "lnoj": 1906,
      "Ġproceni": 1907,
      "Ġulo": 1908,
      "ĠSte": 1909,
      "Ġdrugim": 1910,
      "veo": 1911,
      ".\"": 1912,
      "ĠjuÄįe": 1913,
      "ĠSAD": 1914,
      "Ġdan": 1915,
      "Ġnapo": 1916,
      "Ġodre": 1917,
      "18": 1918,
      "snosti": 1919,
      "ĠItaliji": 1920,
      "Ġsvim": 1921,
      "delje": 1922,
      "Ġmetara": 1923,
      "verzi": 1924,
      "telji": 1925,
      "Å¡tvo": 1926,
      "prezenta": 1927,
      "mir": 1928,
      "ĠAlek": 1929,
      "Ġzatim": 1930,
      "vnosti": 1931,
      "dnici": 1932,
      "Ġzi": 1933,
      "Ġopo": 1934,
      "Ġam": 1935,
      "Ġinstitu": 1936,
      "Ġoptu": 1937,
      "Ġutakmi": 1938,
      "ĠpoÄįi": 1939,
      "ĠoseÄĩa": 1940,
      "Ġodgovor": 1941,
      "Ġnjemu": 1942,
      "Å¡tina": 1943,
      "Ġposebno": 1944,
      "ĠÄįove": 1945,
      "tora": 1946,
      "Ġpreda": 1947,
      "Ġsvog": 1948,
      "ĠteÅ¡ko": 1949,
      "Ġdosta": 1950,
      "Ġzame": 1951,
      "pte": 1952,
      "Å¡lja": 1953,
      "sova": 1954,
      "Ġpredsednika": 1955,
      "Ġtamo": 1956,
      "tetu": 1957,
      "Ġzemlja": 1958,
      "mp": 1959,
      "ĠBri": 1960,
      "Ġokvi": 1961,
      "ĠnaÅ¡i": 1962,
      "Ġjugo": 1963,
      "Ġpona": 1964,
      "Ġodbra": 1965,
      "kve": 1966,
      "dije": 1967,
      "Ġkomu": 1968,
      "Ġpokaza": 1969,
      "gije": 1970,
      "ĠAr": 1971,
      "Ġprisu": 1972,
      "snik": 1973,
      "tina": 1974,
      "Ġsezo": 1975,
      "Å¾an": 1976,
      "zbi": 1977,
      "Ġpripada": 1978,
      "diti": 1979,
      "dnom": 1980,
      "Ġgr": 1981,
      "Ġgrupe": 1982,
      "Ġglu": 1983,
      "Ġbile": 1984,
      "Ġskladu": 1985,
      "naÄįe": 1986,
      "Ġure": 1987,
      "Äįnom": 1988,
      "niti": 1989,
      "Ġmestu": 1990,
      "Ġsarad": 1991,
      "Äįnu": 1992,
      "Ġpotvr": 1993,
      "Ġveliko": 1994,
      "bja": 1995,
      "kta": 1996,
      "Ġpogo": 1997,
      "dine": 1998,
      "Ġobo": 1999,
      "Ġode": 2000,
      "Ġovih": 2001,
      "nskom": 2002,
      "Ġminu": 2003,
      "zova": 2004,
      "ktora": 2005,
      "Ġjuna": 2006,
      "50": 2007,
      "Ġnapa": 2008,
      "dovi": 2009,
      "GC": 2010,
      "Ġozna": 2011,
      "ment": 2012,
      "Å¡ku": 2013,
      "nad": 2014,
      "dro": 2015,
      "Ġstatu": 2016,
      "Ġjedne": 2017,
      "Ġgovo": 2018,
      "ĠÄįovek": 2019,
      "Ġnapra": 2020,
      "vljen": 2021,
      "ĠÄĮa": 2022,
      "Ġcentra": 2023,
      "ngle": 2024,
      "Ġdefi": 2025,
      "gom": 2026,
      "Ġstav": 2027,
      "nicu": 2028,
      "Ġpolu": 2029,
      "Ġkompa": 2030,
      "Ġomogu": 2031,
      "Ġvrednosti": 2032,
      "telja": 2033,
      "ĠJugoslavije": 2034,
      "--------------------------------": 2035,
      "osta": 2036,
      "Ġ197": 2037,
      "vnu": 2038,
      "bom": 2039,
      "br": 2040,
      "Ġsvaki": 2041,
      "Ġtoliko": 2042,
      "mpe": 2043,
      "âĢĶ": 2044,
      "Ġnaja": 2045,
      "Å¡Äĩa": 2046,
      "iz": 2047,
      "rke": 2048,
      "sloven": 2049,
      "Ġosvoji": 2050,
      "stri": 2051,
      "Ġiako": 2052,
      "Ġ50": 2053,
      "ĠÅ½i": 2054,
      "Ġsvom": 2055,
      "Ġlice": 2056,
      "Ġzvani": 2057,
      "ravno": 2058,
      "zdu": 2059,
      "Å¾ila": 2060,
      "Ġniko": 2061,
      "zan": 2062,
      "ĠpriÄįa": 2063,
      "ĠKe": 2064,
      "ĠbaÅ¡": 2065,
      "ĠOvo": 2066,
      "vlju": 2067,
      "Äįito": 2068,
      "tkom": 2069,
      "ĠHi": 2070,
      "Ġpremije": 2071,
      "tivni": 2072,
      "ĠmeÄĳunarod": 2073,
      "Ġfilm": 2074,
      "Ġkarak": 2075,
      "Ġodmah": 2076,
      "bor": 2077,
      "Ġreprezenta": 2078,
      "cioni": 2079,
      "Ġizgu": 2080,
      "ĠraÄįuna": 2081,
      "km": 2082,
      "11": 2083,
      "kar": 2084,
      "Ġupu": 2085,
      "dera": 2086,
      "ĠÄįinje": 2087,
      "zam": 2088,
      "Ġnjegove": 2089,
      "Ġpomi": 2090,
      "snost": 2091,
      "Ġugla": 2092,
      "Ġnagra": 2093,
      "Ġpora": 2094,
      "Ġpotpuno": 2095,
      "ĠbiÄĩe": 2096,
      "Ġfudba": 2097,
      "ĠduÅ¾": 2098,
      "ĠVoj": 2099,
      "uz": 2100,
      "Ġpote": 2101,
      "rem": 2102,
      "nga": 2103,
      "Ġgradu": 2104,
      "Ġizne": 2105,
      "Ġgrupa": 2106,
      "Ġnezavi": 2107,
      "Ġpodi": 2108,
      "kraji": 2109,
      "Ġspro": 2110,
      "Ġlica": 2111,
      "Ġ27": 2112,
      "ĠÅłta": 2113,
      "Ġunutra": 2114,
      "ĠÅ¡u": 2115,
      "Äįen": 2116,
      "svim": 2117,
      "tnu": 2118,
      "Ġjeste": 2119,
      "loÅ¡ki": 2120,
      "Ġzo": 2121,
      "Ġzajedno": 2122,
      "mpi": 2123,
      "Ġsistem": 2124,
      "jskog": 2125,
      "Ġ=": 2126,
      "Ġsebi": 2127,
      "Ġkomi": 2128,
      "Ġple": 2129,
      "Ġzado": 2130,
      "ĠopÅ¡tine": 2131,
      "nove": 2132,
      "Ġkriti": 2133,
      "Ġogra": 2134,
      "Ġkojem": 2135,
      "bio": 2136,
      "laÅ¾e": 2137,
      "jeva": 2138,
      "Ġvlade": 2139,
      "feren": 2140,
      "Ġkrivi": 2141,
      "Ġmladi": 2142,
      "Ġosu": 2143,
      "Ġvas": 2144,
      "ĠÄįiji": 2145,
      "rena": 2146,
      "ĠIn": 2147,
      "Ġotkri": 2148,
      "njih": 2149,
      "ĠsluÅ¾be": 2150,
      "ĠPra": 2151,
      "rnog": 2152,
      "ĠmeÄĳutim": 2153,
      "Ġzaposle": 2154,
      "sci": 2155,
      "Ġum": 2156,
      "renje": 2157,
      "obraÄĩa": 2158,
      "tova": 2159,
      "Ġ26": 2160,
      "gled": 2161,
      "Ġovim": 2162,
      "Ġ28": 2163,
      "Ġpripa": 2164,
      "ĠdruÅ¡tve": 2165,
      "Ġboga": 2166,
      "jima": 2167,
      "Ġotvore": 2168,
      "Ġhilja": 2169,
      "Ġgre": 2170,
      "rnu": 2171,
      "ĠLju": 2172,
      "dili": 2173,
      "Ġopet": 2174,
      "ĠOna": 2175,
      "Ġkraja": 2176,
      "den": 2177,
      "Ġstrana": 2178,
      "Ġdolazi": 2179,
      "Â²": 2180,
      "blja": 2181,
      "al": 2182,
      "Ġokto": 2183,
      "dese": 2184,
      "Ġporu": 2185,
      "ple": 2186,
      "ĠÄįetvr": 2187,
      "Äĳeno": 2188,
      "Ġprojek": 2189,
      "Ġpoz": 2190,
      "kovi": 2191,
      "dar": 2192,
      "Ġ2000": 2193,
      "Ġsce": 2194,
      "Ġ40": 2195,
      "Ġ196": 2196,
      "Ġodu": 2197,
      "zuju": 2198,
      "ĠSave": 2199,
      "ĠKad": 2200,
      "renja": 2201,
      "Äįara": 2202,
      "ĠKon": 2203,
      "Ġkoga": 2204,
      "Ġizgleda": 2205,
      "Ġispu": 2206,
      "Äįo": 2207,
      "Ġgro": 2208,
      "dnog": 2209,
      "Ġ.": 2210,
      "Ġcrkve": 2211,
      "deset": 2212,
      "pan": 2213,
      "Ġpriro": 2214,
      "el": 2215,
      "kvi": 2216,
      "IK": 2217,
      "Ġukup": 2218,
      "ĠreÄįima": 2219,
      "slav": 2220,
      "talija": 2221,
      "lago": 2222,
      "Ġprepo": 2223,
      "Ġnjegova": 2224,
      "zori": 2225,
      "Ġbih": 2226,
      "pis": 2227,
      "kcije": 2228,
      "niju": 2229,
      "Ġsporazu": 2230,
      "Ġdija": 2231,
      "ministra": 2232,
      "Ġradio": 2233,
      "Ġruko": 2234,
      "ĠHer": 2235,
      "Ġsasvim": 2236,
      "Ġpostup": 2237,
      "Ġnovo": 2238,
      "Å¡enje": 2239,
      "Å¡no": 2240,
      "is": 2241,
      "Ġpute": 2242,
      "Ġobavlja": 2243,
      "Ġizuze": 2244,
      "Ġobrazo": 2245,
      "Ġljuba": 2246,
      "Ġgotovo": 2247,
      "laz": 2248,
      "Ġsvojih": 2249,
      "Ġbolje": 2250,
      "Ġdobija": 2251,
      "kedo": 2252,
      "Ġsepte": 2253,
      "EN": 2254,
      "Ġanti": 2255,
      "ban": 2256,
      "ĠÅ¾ivi": 2257,
      "Ġupravo": 2258,
      "Ġslika": 2259,
      "ĠzavrÅ¡i": 2260,
      "ĠvaÅ¾": 2261,
      "Ġsum": 2262,
      "ĠFa": 2263,
      "rovatno": 2264,
      "Äįine": 2265,
      "Ġpodr": 2266,
      "ĠizveÅ¡ta": 2267,
      "laza": 2268,
      "Ġpostoja": 2269,
      "14": 2270,
      "nos": 2271,
      "tnog": 2272,
      "kro": 2273,
      "rd": 2274,
      "vini": 2275,
      "bama": 2276,
      "Ġstvar": 2277,
      "ĠDÅ¾": 2278,
      "ĠtraÅ¾i": 2279,
      "Ġrazgovo": 2280,
      "ĠÅ¾ena": 2281,
      "Ġprva": 2282,
      "ĠNakon": 2283,
      "ista": 2284,
      "mija": 2285,
      "ĠNije": 2286,
      "tle": 2287,
      "ĠsaobraÄĩa": 2288,
      "***": 2289,
      "lina": 2290,
      "Ġrazvo": 2291,
      "ĠIma": 2292,
      "Ġpredvi": 2293,
      "Ġovoj": 2294,
      "vgu": 2295,
      "Ġvazdu": 2296,
      "ber": 2297,
      "Ġformira": 2298,
      "ĠÅ¡est": 2299,
      "ĠÅłe": 2300,
      "njuje": 2301,
      "ĠnajviÅ¡e": 2302,
      "ĠBeograda": 2303,
      "ĠskupÅ¡ti": 2304,
      "Ġparla": 2305,
      "nak": 2306,
      "risa": 2307,
      "Ġponu": 2308,
      "Ġura": 2309,
      "ton": 2310,
      "13": 2311,
      "bili": 2312,
      "tine": 2313,
      "vljena": 2314,
      "15": 2315,
      "Ġplo": 2316,
      "ĠKar": 2317,
      "vcu": 2318,
      "ĠSvet": 2319,
      "ali": 2320,
      "tori": 2321,
      "Ġgodinu": 2322,
      "kiÄĩ": 2323,
      "ĠGr": 2324,
      "Ġprona": 2325,
      "njen": 2326,
      "leko": 2327,
      "sje": 2328,
      "Ġele": 2329,
      "Ġtih": 2330,
      "ĠIsto": 2331,
      "ĠkuÄĩe": 2332,
      "ime": 2333,
      "Äĳeni": 2334,
      "Ġpoe": 2335,
      "njo": 2336,
      "Ġsami": 2337,
      "17": 2338,
      "Ġozbi": 2339,
      "Ġvezi": 2340,
      "Ġodnosu": 2341,
      "obja": 2342,
      "ograd": 2343,
      "Ġzema": 2344,
      "njoj": 2345,
      "Ġpripre": 2346,
      "ĠBra": 2347,
      "rmi": 2348,
      "dina": 2349,
      "Ġuglavnom": 2350,
      "Ġ(\"": 2351,
      "ĠbudÅ¾e": 2352,
      "lini": 2353,
      "Ġdefini": 2354,
      "pravo": 2355,
      "ĠÄįega": 2356,
      "Ġposeb": 2357,
      "Ġonih": 2358,
      "Ġzau": 2359,
      "ĠGra": 2360,
      "kade": 2361,
      "IJ": 2362,
      "ĠnajveÄĩi": 2363,
      "Ġvlast": 2364,
      "ĠÄĩemo": 2365,
      "Ġprodu": 2366,
      "rvi": 2367,
      "Ġzvez": 2368,
      "bina": 2369,
      "OV": 2370,
      "Ġvozi": 2371,
      "ĠpoloÅ¾a": 2372,
      "piti": 2373,
      "Ġvrsta": 2374,
      "Ġ2005": 2375,
      "mana": 2376,
      "Ġ29": 2377,
      "Ġpitanja": 2378,
      "RA": 2379,
      "ĠVeli": 2380,
      "Ġproblem": 2381,
      "Ġdiplo": 2382,
      "Ġ193": 2383,
      "Ġnisam": 2384,
      "Ġvrste": 2385,
      "Ġumetni": 2386,
      "ĠnadleÅ¾": 2387,
      "Ġisku": 2388,
      ".,": 2389,
      "Ġtru": 2390,
      "ĠmiÅ¡lje": 2391,
      "objavljeno": 2392,
      "Äĳan": 2393,
      "ĠOvaj": 2394,
      "stan": 2395,
      "Ġposledi": 2396,
      "ruÅ¾": 2397,
      "Ġpone": 2398,
      "Ġaktiv": 2399,
      "kcija": 2400,
      "ĠZo": 2401,
      "Ġmini": 2402,
      "Ġsvojoj": 2403,
      "ST": 2404,
      "prija": 2405,
      "vnik": 2406,
      "Ġvan": 2407,
      "limpi": 2408,
      "Ġimali": 2409,
      "âĢľ,": 2410,
      "ĠkoriÅ¡Äĩe": 2411,
      "nac": 2412,
      "menti": 2413,
      "roi": 2414,
      "Ġjanu": 2415,
      "ĠÅła": 2416,
      "Äįnosti": 2417,
      "Ġsuda": 2418,
      "Ġimala": 2419,
      "jedinje": 2420,
      "Ġdrugom": 2421,
      "jskih": 2422,
      "Ġpodne": 2423,
      "Ġdobio": 2424,
      "Ġpola": 2425,
      "ĠreÅ¾i": 2426,
      "rali": 2427,
      "Ġzgra": 2428,
      "ĠOni": 2429,
      "Ġjasno": 2430,
      "Ġnagla": 2431,
      "Ġposlova": 2432,
      "vda": 2433,
      "Ġzakon": 2434,
      "Ġstranke": 2435,
      "Ġ100": 2436,
      "ĠOpÅ¡tina": 2437,
      "Å¡njeg": 2438,
      "Ġrazume": 2439,
      "Ġadministra": 2440,
      "lio": 2441,
      "bije": 2442,
      "raka": 2443,
      "ĠÄįemu": 2444,
      "ĠVr": 2445,
      "Å¡iÄĩ": 2446,
      "diÄĩ": 2447,
      "Ġsrpske": 2448,
      "rnih": 2449,
      "Ġteo": 2450,
      "Ġeki": 2451,
      "losti": 2452,
      "Ġposao": 2453,
      "Ġprofeso": 2454,
      "snu": 2455,
      "ĠKosova": 2456,
      "Ġnaroda": 2457,
      "sob": 2458,
      "Ġregiona": 2459,
      "sak": 2460,
      "ĠÅ¾u": 2461,
      "ĠmoguÄĩe": 2462,
      "Ġpostao": 2463,
      "loviÄĩ": 2464,
      "zne": 2465,
      "Ġarhi": 2466,
      "ĠpaÅ¾": 2467,
      "lost": 2468,
      "Ġsedam": 2469,
      "Ġavgu": 2470,
      "Ġ+": 2471,
      "Ġrazvoj": 2472,
      "dust": 2473,
      "opho": 2474,
      "mbo": 2475,
      "Ġkva": 2476,
      "Ġkoman": 2477,
      "ĠX": 2478,
      "ĠIako": 2479,
      "stima": 2480,
      "ĠSR": 2481,
      "lega": 2482,
      "kna": 2483,
      "Ġuo": 2484,
      "Äįiti": 2485,
      "Å¡enja": 2486,
      "ĠzavrÅ¡e": 2487,
      "ĠZbog": 2488,
      "Ġmje": 2489,
      "Ġovu": 2490,
      "Ġizjavio": 2491,
      "Ġdovoljno": 2492,
      "vski": 2493,
      "ĠSva": 2494,
      "ote": 2495,
      "Ġzla": 2496,
      "Ġniti": 2497,
      "der": 2498,
      "Ġveza": 2499,
      "Ġtradi": 2500,
      "Ġopera": 2501,
      "Ġdoba": 2502,
      "Ġ000": 2503,
      "ĠgraÄĳana": 2504,
      "str": 2505,
      "sve": 2506,
      "Ġpriti": 2507,
      "ĠsluÄįaj": 2508,
      "Ġinvesti": 2509,
      "ĠÄĲu": 2510,
      "Ġ'": 2511,
      "valo": 2512,
      "Ġmogli": 2513,
      "nasti": 2514,
      "ĠuÄįestvo": 2515,
      "Ġdoka": 2516,
      "Ġzdrav": 2517,
      "Ġstaro": 2518,
      "Ġzemalja": 2519,
      "Ġmogla": 2520,
      "IN": 2521,
      "Ġosam": 2522,
      "Ġokviru": 2523,
      "Ġranije": 2524,
      "Ġkilo": 2525,
      "Ġinter": 2526,
      "Ġnavodi": 2527,
      "jemo": 2528,
      "dima": 2529,
      "âĢľ.": 2530,
      "ncija": 2531,
      "ĠnaroÄįito": 2532,
      "riti": 2533,
      "Ġnosi": 2534,
      "Ġapri": 2535,
      "Ġopre": 2536,
      "Ġvelike": 2537,
      "Ġprilikom": 2538,
      "Ġupravlja": 2539,
      "Ġprose": 2540,
      "Ġkandi": 2541,
      "vica": 2542,
      "âĢĻ": 2543,
      "Ġkoriste": 2544,
      "Ġmene": 2545,
      "\")": 2546,
      "Ġveru": 2547,
      "jska": 2548,
      "Ġstepe": 2549,
      "ksa": 2550,
      "Ġsedi": 2551,
      "Ġfakul": 2552,
      "Ġrat": 2553,
      "Ġsazna": 2554,
      "gan": 2555,
      "Ġkolo": 2556,
      "zom": 2557,
      "Ġdopri": 2558,
      "rina": 2559,
      "ĠÅ½e": 2560,
      "Ġvam": 2561,
      "Ġsiro": 2562,
      "Ġredo": 2563,
      "Ġtere": 2564,
      "Ġzara": 2565,
      "Ġozbilj": 2566,
      "rica": 2567,
      "pisao": 2568,
      "rava": 2569,
      "Ġizbe": 2570,
      "Ġper": 2571,
      "ĠukljuÄįu": 2572,
      "ĠMiloÅ¡e": 2573,
      "mlje": 2574,
      "Ġfizi": 2575,
      "Ġfrancu": 2576,
      "Ġkona": 2577,
      "ĠGla": 2578,
      "Ġsvaka": 2579,
      "ĠopÅ¡tina": 2580,
      "ĠParti": 2581,
      "tvo": 2582,
      "vode": 2583,
      "fu": 2584,
      "Ġisklju": 2585,
      "Ġkoli": 2586,
      "ĠHu": 2587,
      "Ġsku": 2588,
      "Ġstava": 2589,
      "mbar": 2590,
      "laca": 2591,
      "Ġjezika": 2592,
      "Ġglasa": 2593,
      "kog": 2594,
      "ĠÂ": 2595,
      "Ġosim": 2596,
      "titi": 2597,
      "Ġmanji": 2598,
      "Ġpotom": 2599,
      "Ġimati": 2600,
      "dnoj": 2601,
      "Ġzada": 2602,
      "Ġemi": 2603,
      "nin": 2604,
      "Ġnared": 2605,
      "bila": 2606,
      "Ġhrvat": 2607,
      "Ġodnosi": 2608,
      "cego": 2609,
      "Ġfoto": 2610,
      "naca": 2611,
      "Ġzatvo": 2612,
      "Ġoti": 2613,
      "Ġtehni": 2614,
      "movi": 2615,
      "Ġmre": 2616,
      "Ġkonku": 2617,
      "Ġbibli": 2618,
      "Ġneopho": 2619,
      "plje": 2620,
      "30": 2621,
      "Å¡kog": 2622,
      "Ġap": 2623,
      "vale": 2624,
      "ĠAn": 2625,
      "Ġsuko": 2626,
      "Ġprogla": 2627,
      "ĠÅ¾eli": 2628,
      "ĠVladi": 2629,
      "Ġsrpski": 2630,
      "Å¡li": 2631,
      "16": 2632,
      "jih": 2633,
      "Ġdolara": 2634,
      "Ġog": 2635,
      "Ġrepubli": 2636,
      "vlji": 2637,
      "Ġuslu": 2638,
      "Ġknjiga": 2639,
      "Ġmeta": 2640,
      "Äĳuju": 2641,
      "co": 2642,
      "jn": 2643,
      "tivne": 2644,
      "Ġnikada": 2645,
      "rte": 2646,
      "Ġpotrebno": 2647,
      "vrÅ¡": 2648,
      "jekata": 2649,
      "gija": 2650,
      "Ġisko": 2651,
      "ĠsadrÅ¾i": 2652,
      "Ġperiodu": 2653,
      "sednik": 2654,
      "Äĩen": 2655,
      "Ġbrzo": 2656,
      "volu": 2657,
      "nsko": 2658,
      "Ġograni": 2659,
      "Ġsop": 2660,
      "zor": 2661,
      "sma": 2662,
      "ĠEvrope": 2663,
      "ĠdruÅ¡tva": 2664,
      "bine": 2665,
      "vaj": 2666,
      "Äįari": 2667,
      "ĠzaÅ¡to": 2668,
      "ĠÄįeka": 2669,
      "stvom": 2670,
      "Ġsupro": 2671,
      "Ġmeto": 2672,
      "knu": 2673,
      "stoji": 2674,
      "Ġnajbolji": 2675,
      "Ġstandar": 2676,
      "riÄĩ": 2677,
      "Äįnja": 2678,
      "Ġindust": 2679,
      "stina": 2680,
      "Å¾enje": 2681,
      "din": 2682,
      "ĠDÅ¾e": 2683,
      "Ġmenja": 2684,
      "Ġtoj": 2685,
      "Ġosni": 2686,
      "son": 2687,
      "vljaju": 2688,
      "Ġmoraju": 2689,
      "Ġzabra": 2690,
      "Ġizgrad": 2691,
      "Ġepi": 2692,
      "jni": 2693,
      "dnih": 2694,
      "Ġdubo": 2695,
      "Ġpotro": 2696,
      "ĠMiha": 2697,
      "ĠsadrÅ¾a": 2698,
      "Ġdne": 2699,
      "Ġtoku": 2700,
      "Ġjezik": 2701,
      "Ġsup": 2702,
      "kad": 2703,
      "Ġfo": 2704,
      "ĠmoÄĩi": 2705,
      "Ġspecija": 2706,
      "Ġuna": 2707,
      "Ġpodataka": 2708,
      "Ġrado": 2709,
      "Ġsopstve": 2710,
      "ĠoÄįeki": 2711,
      "Ġposve": 2712,
      "Äįava": 2713,
      "rskoj": 2714,
      "Ġstruktu": 2715,
      "Ġdeset": 2716,
      "Ġdakle": 2717,
      "Ġkandida": 2718,
      "Ġnaseljeno": 2719,
      "EZ": 2720,
      "vnost": 2721,
      "lijar": 2722,
      "vanoviÄĩ": 2723,
      "ĠAleksa": 2724,
      "Ġidenti": 2725,
      "Ġbiv": 2726,
      "pisi": 2727,
      "dana": 2728,
      "ĠBiH": 2729,
      "ĠPod": 2730,
      "jskim": 2731,
      "Ġformu": 2732,
      "od": 2733,
      "Ġverovatno": 2734,
      "bla": 2735,
      "Ġtrenutku": 2736,
      "teo": 2737,
      "Ġkarakte": 2738,
      "ĠuopÅ¡te": 2739,
      "tija": 2740,
      "ĠvrÅ¡i": 2741,
      "bur": 2742,
      "Ġpoma": 2743,
      "meta": 2744,
      "Ġsvedo": 2745,
      "Ġpotreb": 2746,
      "ĠveÄįe": 2747,
      "Ġ195": 2748,
      "lisa": 2749,
      "puÅ¡ta": 2750,
      "Ġbroja": 2751,
      "Ġiste": 2752,
      "Ġrekla": 2753,
      "tnom": 2754,
      "Ġukoliko": 2755,
      "Ġdogovo": 2756,
      "Ġdrugog": 2757,
      "Ġmoglo": 2758,
      "Ġstude": 2759,
      "SS": 2760,
      "Ġnalaze": 2761,
      "Ġver": 2762,
      "rin": 2763,
      "tere": 2764,
      "ĠNjego": 2765,
      "kan": 2766,
      "ĠreÄĩi": 2767,
      "Ġistorij": 2768,
      "Ġpsi": 2769,
      "Ġskoro": 2770,
      "tru": 2771,
      "Ġnjegovog": 2772,
      "Ġprima": 2773,
      "reni": 2774,
      "Ġnajbolje": 2775,
      "ĠDana": 2776,
      "25": 2777,
      "dnu": 2778,
      "ĠUN": 2779,
      "ĠUni": 2780,
      "ĠpreduzeÄĩa": 2781,
      "per": 2782,
      "lin": 2783,
      "Ġnasi": 2784,
      "miÅ¡lja": 2785,
      "Ġneprija": 2786,
      "Ġosigu": 2787,
      "ĠkuÄĩi": 2788,
      "Ġmilijar": 2789,
      "Ġcar": 2790,
      "Ġlako": 2791,
      "Ġzaista": 2792,
      "ĠDrÅ¾a": 2793,
      "Ġ60": 2794,
      "rci": 2795,
      "nila": 2796,
      "Ġpriva": 2797,
      "Å¡en": 2798,
      "Ġsmrti": 2799,
      "Ġelektro": 2800,
      "Ġek": 2801,
      "ĠÄĨ": 2802,
      "Ġradu": 2803,
      "Ġ2002": 2804,
      "Ġnekada": 2805,
      "volja": 2806,
      "Ġkulture": 2807,
      "ĠBio": 2808,
      "vano": 2809,
      "tnim": 2810,
      "ziju": 2811,
      "Ġpozori": 2812,
      "Ġprvom": 2813,
      "Ġuvo": 2814,
      "Ġsnaga": 2815,
      "ĠponaÅ¡a": 2816,
      "ĠZato": 2817,
      "Ġbar": 2818,
      "nijih": 2819,
      "Å¡kom": 2820,
      "ntar": 2821,
      "Ġpoput": 2822,
      "Ġoktobra": 2823,
      "Ġbes": 2824,
      "Ġglavni": 2825,
      "ĠHercego": 2826,
      "rili": 2827,
      "rac": 2828,
      "SK": 2829,
      "Ġnede": 2830,
      "Äįnoj": 2831,
      "Ġvelika": 2832,
      "njeg": 2833,
      "ĠMakedo": 2834,
      "vama": 2835,
      "Ġsnage": 2836,
      "Ġsara": 2837,
      "Å¾en": 2838,
      "Ġpopula": 2839,
      "ĠSrbiju": 2840,
      "ĠSlobo": 2841,
      "Äįak": 2842,
      "oni": 2843,
      "Ġpode": 2844,
      "line": 2845,
      "ĠRado": 2846,
      "lnost": 2847,
      "Äįena": 2848,
      "Ġnesta": 2849,
      "Ġinost": 2850,
      "ĠPla": 2851,
      "Ġlepo": 2852,
      "kim": 2853,
      "stre": 2854,
      "Ġpat": 2855,
      "dÅ¾i": 2856,
      "Å¡njih": 2857,
      "Ġsmislu": 2858,
      "lozo": 2859,
      "rala": 2860,
      "ksu": 2861,
      "ĠplaÄĩa": 2862,
      "Ġpubli": 2863,
      "ĠÅ¾ene": 2864,
      "Ġoslobo": 2865,
      "lena": 2866,
      "Ġmere": 2867,
      "pr": 2868,
      "vka": 2869,
      "Ġrazloga": 2870,
      "OR": 2871,
      "sfe": 2872,
      "ĠPrvi": 2873,
      "vred": 2874,
      "Ġnavede": 2875,
      "ĠNarod": 2876,
      "ĠNovi": 2877,
      "Å¡la": 2878,
      "Ġgubi": 2879,
      "ris": 2880,
      "Ġstari": 2881,
      "Ġpovra": 2882,
      "Å¾enja": 2883,
      "loba": 2884,
      "Ġjugosloven": 2885,
      "ĠnaÅ¡eg": 2886,
      "tskog": 2887,
      "ĠZna": 2888,
      "ĠSrba": 2889,
      "40": 2890,
      "ĠmuÅ¡ka": 2891,
      "Ġproblema": 2892,
      "Ġseptembra": 2893,
      "ĠznaÄįenja": 2894,
      "gni": 2895,
      "ĠSkupÅ¡ti": 2896,
      "ĠdoÄĳe": 2897,
      "Ġfon": 2898,
      "tuda": 2899,
      "ĠpiÅ¡e": 2900,
      "Ġneda": 2901,
      "vajuÄĩi": 2902,
      "Ġnekim": 2903,
      "21": 2904,
      "Ġrizi": 2905,
      "Ġpenzi": 2906,
      "rku": 2907,
      "ĠPetro": 2908,
      "jte": 2909,
      "Ġjedin": 2910,
      "Ġdirektor": 2911,
      "mon": 2912,
      "Ġseve": 2913,
      "grafi": 2914,
      "Ġmeseci": 2915,
      "jna": 2916,
      "dama": 2917,
      "Ġklju": 2918,
      "kuplja": 2919,
      "Ġtelevi": 2920,
      "Ġfebru": 2921,
      "rme": 2922,
      "Ġoku": 2923,
      "ĠtroÅ¡ko": 2924,
      "Ġbezbednosti": 2925,
      ".)": 2926,
      "Ġsklo": 2927,
      "Ġpreki": 2928,
      "ld": 2929,
      "Ġkredi": 2930,
      "zao": 2931,
      "rane": 2932,
      "nisti": 2933,
      "vnoj": 2934,
      "Ġknjige": 2935,
      "nicama": 2936,
      "tije": 2937,
      "ĠmoguÄĩnost": 2938,
      "Ġputu": 2939,
      "siona": 2940,
      "stoja": 2941,
      "gor": 2942,
      "Ġgi": 2943,
      "ĠInte": 2944,
      "tivi": 2945,
      "Ġnovog": 2946,
      "Ġsekre": 2947,
      "Ġugro": 2948,
      "ĠpolitiÄįke": 2949,
      "Ġkak": 2950,
      "rama": 2951,
      "Ġnjihove": 2952,
      "jeni": 2953,
      "Ġobjekta": 2954,
      "Ġsrpskog": 2955,
      "dri": 2956,
      "ĠII": 2957,
      "Ġbroju": 2958,
      "Ġispod": 2959,
      "Ġspolj": 2960,
      "ĠTri": 2961,
      "ĠAlba": 2962,
      "nskim": 2963,
      "ĠRumu": 2964,
      "Ġprvog": 2965,
      "ĠpoÄįeo": 2966,
      "Ġklasi": 2967,
      "ĠFran": 2968,
      "Ġprivre": 2969,
      "ĠÄįoveka": 2970,
      "Ġsma": 2971,
      "Ġkola": 2972,
      "dor": 2973,
      "Å¾ni": 2974,
      "ĠproÅ¡le": 2975,
      "ĠÅ¾rt": 2976,
      "Ġpresu": 2977,
      "Ġkomp": 2978,
      "Ġmaja": 2979,
      "Å¡an": 2980,
      "Ġmanasti": 2981,
      "ĠTokom": 2982,
      "Ġzdravstve": 2983,
      "pio": 2984,
      "Ġdese": 2985,
      "ĠkuÄĩa": 2986,
      "ĠStra": 2987,
      "ĠSamo": 2988,
      "Ġpada": 2989,
      "Ġizbora": 2990,
      "Äĩih": 2991,
      "ĠSla": 2992,
      "Ġodo": 2993,
      "menata": 2994,
      "nov": 2995,
      "Ġtehno": 2996,
      "tiÄĩ": 2997,
      "Ġdirek": 2998,
      "mima": 2999,
      "ĠdoÅ¾i": 3000,
      "Politi": 3001,
      "Ġcilj": 3002,
      "Ġtraja": 3003,
      "Ġrazliku": 3004,
      "Ne": 3005,
      "Ġpogle": 3006,
      "Ġagen": 3007,
      "Ġekono": 3008,
      "tac": 3009,
      "Ġdaje": 3010,
      "Ġzahteva": 3011,
      "riÅ¡Äĩa": 3012,
      "Å¾o": 3013,
      "ĠodluÄįi": 3014,
      "mer": 3015,
      "Ġsin": 3016,
      "Ġtime": 3017,
      "teli": 3018,
      "ĠpodrÅ¾a": 3019,
      "Ġnjoj": 3020,
      "ĠSrpske": 3021,
      "tskih": 3022,
      "ĠSlove": 3023,
      "Ġusposta": 3024,
      "gde": 3025,
      "Ġsaop": 3026,
      "ĠgraÄĳe": 3027,
      "ĠOr": 3028,
      "jne": 3029,
      "Äįeni": 3030,
      "ĠkaÅ¾u": 3031,
      "Ġnasle": 3032,
      "ÄįeÅ¡Äĩe": 3033,
      "Ġstrani": 3034,
      "Ġbeograd": 3035,
      "Ġposmatra": 3036,
      "Ġuze": 3037,
      "Ġkojom": 3038,
      "Ġnapada": 3039,
      "vane": 3040,
      "ĠEvropi": 3041,
      "Ġblo": 3042,
      "Ġsela": 3043,
      "Ġposlu": 3044,
      "ĠKosovu": 3045,
      "Ġ\"-{": 3046,
      "Ġpolitike": 3047,
      "ĠznaÄįa": 3048,
      "Ġznam": 3049,
      "Ġnovih": 3050,
      "AR": 3051,
      "Ġsusre": 3052,
      "Å¡o": 3053,
      "ĠBer": 3054,
      "kata": 3055,
      "ĠameriÄįkoj": 3056,
      "jka": 3057,
      "Ġprevo": 3058,
      "tska": 3059,
      "mna": 3060,
      "ler": 3061,
      "rila": 3062,
      "Ġvrata": 3063,
      "Ġzakonom": 3064,
      "jim": 3065,
      "Ġpitanju": 3066,
      "Ġkate": 3067,
      "fri": 3068,
      "Ġonaj": 3069,
      "Å¾bi": 3070,
      "Ġ2008": 3071,
      "Ġokre": 3072,
      "Ġsever": 3073,
      "Ġprogram": 3074,
      "uma": 3075,
      "Ġbrzi": 3076,
      "Ġprihvati": 3077,
      "rnim": 3078,
      "Ġrodi": 3079,
      "Ġcent": 3080,
      "ĠmoÅ¾emo": 3081,
      "Äĩemo": 3082,
      "ĠobiÄįno": 3083,
      "Ġjula": 3084,
      "Ġpostu": 3085,
      "Ġsavreme": 3086,
      "vci": 3087,
      "formi": 3088,
      "Ġodi": 3089,
      "meni": 3090,
      "Ġispra": 3091,
      "ĠIpak": 3092,
      "Ġavgusta": 3093,
      "lama": 3094,
      "njuju": 3095,
      "snog": 3096,
      "orÄĳe": 3097,
      "ĠKralje": 3098,
      "Ġgodini": 3099,
      "22": 3100,
      "Ġotvara": 3101,
      "Ġstrate": 3102,
      "60": 3103,
      "Ġlisti": 3104,
      "Ġotpo": 3105,
      "Ġmarta": 3106,
      "ziji": 3107,
      "Ġdevoj": 3108,
      "Ġbibliote": 3109,
      "zacije": 3110,
      "Ġzahva": 3111,
      "ĠÄįlanova": 3112,
      "ĠÅ¡kole": 3113,
      "siji": 3114,
      "Äĳene": 3115,
      "snih": 3116,
      "ĠSre": 3117,
      "isto": 3118,
      "njena": 3119,
      "logije": 3120,
      "sen": 3121,
      "njom": 3122,
      "Ġrade": 3123,
      "Ġvideo": 3124,
      "tr": 3125,
      "Ġpresta": 3126,
      "dlji": 3127,
      "Ma": 3128,
      "Ġtela": 3129,
      "raz": 3130,
      "Ġuka": 3131,
      "Ġorganizacije": 3132,
      "Ġgod": 3133,
      "Na": 3134,
      "Ġprinci": 3135,
      "len": 3136,
      "Ko": 3137,
      "Ġsvr": 3138,
      "pom": 3139,
      "ĠÄįine": 3140,
      "Å¾ne": 3141,
      "ĠvraÄĩa": 3142,
      "Ġanali": 3143,
      "rnoj": 3144,
      "Ġprve": 3145,
      "Ġminuta": 3146,
      "Ġreci": 3147,
      "ĠSpo": 3148,
      "ĠPored": 3149,
      "ĠBalka": 3150,
      "Ġtvrdi": 3151,
      "Ġnov": 3152,
      "Ġjavnosti": 3153,
      "veli": 3154,
      "stoje": 3155,
      "Be": 3156,
      "vena": 3157,
      "ĠGor": 3158,
      "ĠÅ¡te": 3159,
      "23": 3160,
      "ĠTakoÄĳe": 3161,
      "ster": 3162,
      "Ġdecembra": 3163,
      "ĠbuduÄĩ": 3164,
      "bele": 3165,
      "pira": 3166,
      "Ġstanju": 3167,
      "Ġulogu": 3168,
      "Ġnjen": 3169,
      "ĠdoÅ¡lo": 3170,
      "Ġjedino": 3171,
      "mbe": 3172,
      "Ġnjegovim": 3173,
      "ĠUsta": 3174,
      "ĠRan": 3175,
      "vnika": 3176,
      "ĠGodine": 3177,
      "Ġsmanje": 3178,
      "Ġteme": 3179,
      "Ġzabora": 3180,
      "jekat": 3181,
      "Ġjednosta": 3182,
      "jedno": 3183,
      "Ġpromene": 3184,
      "80": 3185,
      "ĠpolitiÄįki": 3186,
      "Mi": 3187,
      "Ġnajmanje": 3188,
      "ĠpruÅ¾a": 3189,
      "ĠSvi": 3190,
      "ĠzaÅ¡tite": 3191,
      "ĠCrve": 3192,
      "lica": 3193,
      "Ġizd": 3194,
      "Ġzapravo": 3195,
      "Ġforma": 3196,
      "viÄĩe": 3197,
      "ĠpoÄįinje": 3198,
      "Ġjanuara": 3199,
      "ĠPR": 3200,
      "Ġmeseca": 3201,
      "Ġeksplo": 3202,
      "tnika": 3203,
      "Ġaktivnosti": 3204,
      "Ġodnose": 3205,
      "Ġ2009": 3206,
      "Ġautomo": 3207,
      "fina": 3208,
      "Ġdokumenta": 3209,
      "ĠdoÅ¡ao": 3210,
      "Ġprograma": 3211,
      "%)": 3212,
      "tanje": 3213,
      "ĠGu": 3214,
      "Ġnovac": 3215,
      "Ġstabi": 3216,
      "lti": 3217,
      "Ġiznena": 3218,
      "Ġsvetskog": 3219,
      "Ġvrednost": 3220,
      "Ġkapi": 3221,
      "baci": 3222,
      "metara": 3223,
      "ĠsaopÅ¡te": 3224,
      "Ġmr": 3225,
      "Ġakade": 3226,
      "Ġostali": 3227,
      "ĠnaÄįe": 3228,
      "Ġpravosla": 3229,
      "Ġindi": 3230,
      "nike": 3231,
      "tivnog": 3232,
      "Ġamba": 3233,
      "Ġkompo": 3234,
      "Ġporodice": 3235,
      "duje": 3236,
      "Pa": 3237,
      "ĠreÅ¡enje": 3238,
      "ljopri": 3239,
      "ĠmeÄĳunaro": 3240,
      "ĠmoguÄĩnosti": 3241,
      "Ġuniverzi": 3242,
      "vljeni": 3243,
      "Äįuje": 3244,
      "Ġodred": 3245,
      "vaÄį": 3246,
      "dje": 3247,
      "Ġsport": 3248,
      "Äĩena": 3249,
      "Ġmoj": 3250,
      "res": 3251,
      "ĠpoÄįetka": 3252,
      "ĠoruÅ¾": 3253,
      "Äįnost": 3254,
      "Ġjeziku": 3255,
      "Ġ35": 3256,
      "ĠTaj": 3257,
      "sim": 3258,
      "Ġig": 3259,
      "ĠNikola": 3260,
      "Å¾ena": 3261,
      "ĠUz": 3262,
      "ĠNju": 3263,
      "Ġumesto": 3264,
      "jedna": 3265,
      "ĠizvrÅ¡e": 3266,
      "Å¾iti": 3267,
      "Ġsvakom": 3268,
      "Ġputem": 3269,
      "ĠdomaÄĩin": 3270,
      "Å¾eni": 3271,
      "ATO": 3272,
      "jskom": 3273,
      "Å½": 3274,
      "Ġreze": 3275,
      "ruÅ¾a": 3276,
      "Ġobjasni": 3277,
      "Ġnju": 3278,
      "Ġsigurno": 3279,
      "dak": 3280,
      "roviÄĩ": 3281,
      "05": 3282,
      "Ġruke": 3283,
      "pti": 3284,
      "Å¾na": 3285,
      "Ġpredlo": 3286,
      "Äįije": 3287,
      "nÄįa": 3288,
      "ĠveÄĩa": 3289,
      "ON": 3290,
      "Ġosoba": 3291,
      "Ġubr": 3292,
      "nili": 3293,
      "Ġistakao": 3294,
      "Ġpoznat": 3295,
      "ksima": 3296,
      "ĠizvrÅ¡i": 3297,
      "Ġmedici": 3298,
      "sada": 3299,
      "nose": 3300,
      "rnom": 3301,
      "ĠzaÅ¡titu": 3302,
      "Ġraspra": 3303,
      "Ġopozi": 3304,
      "Ġbora": 3305,
      "gna": 3306,
      "ĠÅ¡ampi": 3307,
      "ĠSP": 3308,
      "jno": 3309,
      "ĠpoÄįetku": 3310,
      "ruz": 3311,
      "ĠduÅ¾i": 3312,
      "vice": 3313,
      "ĠGore": 3314,
      "ĠW": 3315,
      "Ġpretposta": 3316,
      "Ġtranspo": 3317,
      ");": 3318,
      "ĠCi": 3319,
      "Ġorganizo": 3320,
      "ĠÅłpa": 3321,
      "Ġaprila": 3322,
      "stom": 3323,
      "Ġstanje": 3324,
      "ĠDrugo": 3325,
      "Ġavi": 3326,
      "Ġcilje": 3327,
      "ĠSara": 3328,
      "pas": 3329,
      "est": 3330,
      "lazak": 3331,
      "Ġengle": 3332,
      "Ġnedosta": 3333,
      "Ġnaravno": 3334,
      "Ġdaleko": 3335,
      "kih": 3336,
      "ĠVojvodi": 3337,
      "Ġjednoj": 3338,
      "Ġdogodi": 3339,
      "deo": 3340,
      "snici": 3341,
      "ĠAnd": 3342,
      "ĠJedan": 3343,
      "Ġhiljada": 3344,
      "tlan": 3345,
      "Ġsimbo": 3346,
      "Ġzbi": 3347,
      "Ġrela": 3348,
      "Ġprimi": 3349,
      "Ġnova": 3350,
      "ĠSada": 3351,
      "rkos": 3352,
      "tnik": 3353,
      "Ġnapre": 3354,
      "ĠVlada": 3355,
      "ĠÅ¡iro": 3356,
      "ĠKri": 3357,
      "Å¾ava": 3358,
      "tila": 3359,
      "Da": 3360,
      "Ġpolicije": 3361,
      "gori": 3362,
      "Ġnjegovom": 3363,
      "Ġnorma": 3364,
      "amp": 3365,
      "Ġzahtev": 3366,
      "ET": 3367,
      "24": 3368,
      "Ġprista": 3369,
      "mera": 3370,
      "Ġdel": 3371,
      "ĠTra": 3372,
      "nca": 3373,
      "Ġcivi": 3374,
      "Ġobjekata": 3375,
      "Ġcelo": 3376,
      "ĠobeÄĩa": 3377,
      "vske": 3378,
      "mno": 3379,
      "Ġdete": 3380,
      "ĠPav": 3381,
      "ĠoÄįekuje": 3382,
      "ĠukljuÄįujuÄĩi": 3383,
      "Ġproces": 3384,
      "ĠinaÄįe": 3385,
      "ĠCrne": 3386,
      "Ġruku": 3387,
      "Ġpomenu": 3388,
      "Ġredu": 3389,
      "tica": 3390,
      "ĠJer": 3391,
      "misli": 3392,
      "Ġpostaje": 3393,
      "Ġ2006": 3394,
      "Ġmeda": 3395,
      "Ġnovembra": 3396,
      "ĠhoÄĩe": 3397,
      "vinu": 3398,
      "Za": 3399,
      "ĠOsta": 3400,
      "Ġumetnosti": 3401,
      "ĠNATO": 3402,
      "Ġizgra": 3403,
      "Ġispred": 3404,
      "Ġ2007": 3405,
      "ĠobjaÅ¡nja": 3406,
      "}-,": 3407,
      "Ġodli": 3408,
      "Ġuslovima": 3409,
      "Ġzemlju": 3410,
      "ĠMila": 3411,
      "ljujuÄĩi": 3412,
      "Ġorganizacija": 3413,
      "Ġkata": 3414,
      "ĠsaopÅ¡ti": 3415,
      "Ġodigra": 3416,
      "Ġpregovo": 3417,
      "ĠKosovo": 3418,
      "Ġkarije": 3419,
      "Ġtrans": 3420,
      "Ġimamo": 3421,
      "ĠPari": 3422,
      "Ġbolesti": 3423,
      "Äĩim": 3424,
      "Ġparlamenta": 3425,
      "âĢĿ,": 3426,
      "LA": 3427,
      "ĠGru": 3428,
      "Ġ31": 3429,
      "Ġradika": 3430,
      "olo": 3431,
      "Ġkne": 3432,
      "rs": 3433,
      "vljanje": 3434,
      "Ġzemljama": 3435,
      "logija": 3436,
      "niÄĩ": 3437,
      "Ġpropisa": 3438,
      "ĠLos": 3439,
      "Ġodluke": 3440,
      "ĠpomoÄĩi": 3441,
      "Ġvu": 3442,
      "ĠdruÅ¡tvo": 3443,
      "ĠBrita": 3444,
      "hani": 3445,
      "Ġfudbal": 3446,
      "ĠÅ¾ivoti": 3447,
      "âĢ¦": 3448,
      "vodom": 3449,
      "rskog": 3450,
      "Å¡ten": 3451,
      "ĠveÄĩe": 3452,
      "bera": 3453,
      "Ġstre": 3454,
      "Ġsredstva": 3455,
      "zad": 3456,
      "ĠuÅ¾i": 3457,
      "Ġnesre": 3458,
      "ĠMeto": 3459,
      "Ġit": 3460,
      "ĠbivÅ¡e": 3461,
      "Ġdeli": 3462,
      "Ġsmrt": 3463,
      "tnost": 3464,
      "Ġborbe": 3465,
      "Ġbira": 3466,
      "Ġusle": 3467,
      "ÂŃ": 3468,
      "Foto": 3469,
      "Ġmali": 3470,
      "Ġbanke": 3471,
      "Ġkapita": 3472,
      "âĢĿ.": 3473,
      "Ġnama": 3474,
      "Ġiznad": 3475,
      "ĠmaÅ¡i": 3476,
      "tili": 3477,
      "Å¾ili": 3478,
      "Ġrazgovara": 3479,
      "Ġ1991": 3480,
      "nicija": 3481,
      "Ġprika": 3482,
      "ĠÄįije": 3483,
      "hap": 3484,
      "Ġkonferen": 3485,
      "leo": 3486,
      "gani": 3487,
      "Ġpoljopri": 3488,
      "gina": 3489,
      "Ġmeri": 3490,
      "OS": 3491,
      "Ġhla": 3492,
      "nat": 3493,
      "ED": 3494,
      "Ka": 3495,
      "Ġkrimina": 3496,
      "ĠKr": 3497,
      "Ġjedini": 3498,
      "graf": 3499,
      "ĠLon": 3500,
      "ĠJan": 3501,
      "ĠGrad": 3502,
      "Ġpartije": 3503,
      "Ġgrado": 3504,
      "ĠZapa": 3505,
      "ĠZako": 3506,
      "IC": 3507,
      "Ġreko": 3508,
      "Ġregu": 3509,
      "Ġkli": 3510,
      "vlada": 3511,
      "Ġkm": 3512,
      "26": 3513,
      "viji": 3514,
      "ĠAna": 3515,
      "Ġnjim": 3516,
      "zana": 3517,
      "Ġski": 3518,
      "ĠbivÅ¡i": 3519,
      "prkos": 3520,
      "Ġnada": 3521,
      "Ġpokraji": 3522,
      "Ġsvakog": 3523,
      "Ġprakti": 3524,
      "ture": 3525,
      "Äįeno": 3526,
      "Ġsezone": 3527,
      "ĠzadrÅ¾a": 3528,
      "Å¡njem": 3529,
      "ER": 3530,
      "dnost": 3531,
      "um": 3532,
      "net": 3533,
      "Ġmaterijala": 3534,
      "Ġturni": 3535,
      "njeno": 3536,
      "vlaÅ¡Äĩe": 3537,
      "Ġrezultat": 3538,
      "jevima": 3539,
      "Ġsamom": 3540,
      "Ġimena": 3541,
      "Ġnikad": 3542,
      "Ġnekog": 3543,
      "Ġnjihov": 3544,
      "Ġkoali": 3545,
      "Ġ90": 3546,
      "Ġselek": 3547,
      "Ġjeze": 3548,
      "Ġkarakteristi": 3549,
      "Äĳivanje": 3550,
      "tura": 3551,
      "Ġpovre": 3552,
      "Ġizaz": 3553,
      "ĠVlade": 3554,
      "ljen": 3555,
      "Ġpart": 3556,
      "rba": 3557,
      "Ġdobije": 3558,
      "ĠMan": 3559,
      "Ġpromena": 3560,
      "ĠBuga": 3561,
      "kat": 3562,
      "vaÅ¾": 3563,
      "ĠMeÄĳuna": 3564,
      "Ġ-{\"": 3565,
      "Ġvozila": 3566,
      "ÄĨ": 3567,
      "Ġobele": 3568,
      "Ġposlednjih": 3569,
      "Ġpuno": 3570,
      "rek": 3571,
      "Ġravno": 3572,
      "Ġodnosa": 3573,
      "jum": 3574,
      "ĠRepublika": 3575,
      "Ġbolni": 3576,
      "Ġ80": 3577,
      "ĠRaz": 3578,
      "ĠreÅ¡enja": 3579,
      "mova": 3580,
      "Ġprikaza": 3581,
      "Ġroku": 3582,
      "fici": 3583,
      "vela": 3584,
      "rov": 3585,
      "ĠMaÄĳa": 3586,
      "Ġzajednice": 3587,
      "Ġnivou": 3588,
      "Ġ33": 3589,
      "nuti": 3590,
      "ĠnaÅ¡a": 3591,
      "ĠpodrÅ¡ku": 3592,
      "Ġniz": 3593,
      "Ġbismo": 3594,
      "Ġitd": 3595,
      "Ġsamou": 3596,
      "voda": 3597,
      "Ġpodno": 3598,
      "guje": 3599,
      "OM": 3600,
      "lov": 3601,
      "ĠstruÄįnja": 3602,
      "Ġcentar": 3603,
      "Ġtero": 3604,
      "razume": 3605,
      "Ġpogleda": 3606,
      "gnituda": 3607,
      "Äįuna": 3608,
      "Ġrevolu": 3609,
      "siju": 3610,
      "Ġefe": 3611,
      "ĠomoguÄĩi": 3612,
      "ĠMilan": 3613,
      "Ġnepos": 3614,
      "Ġdeta": 3615,
      "Ġvre": 3616,
      "ĠÅ¾ivje": 3617,
      "........": 3618,
      "ĠgraÄĳani": 3619,
      "Ġproizvoda": 3620,
      "rp": 3621,
      "Äįili": 3622,
      "ĠtreÄĩi": 3623,
      "vaÄįi": 3624,
      "Ġkralje": 3625,
      "Ġudru": 3626,
      "hom": 3627,
      "ĠÄįaso": 3628,
      "Ġispla": 3629,
      "Ġpotrebe": 3630,
      "Ġnaz": 3631,
      "rhi": 3632,
      "tiva": 3633,
      "Ġreke": 3634,
      "Ġnovca": 3635,
      "Ġposlove": 3636,
      "Ġvladi": 3637,
      "Ġfilozo": 3638,
      "Ġpropa": 3639,
      "Ġsan": 3640,
      "Äįin": 3641,
      "ĠzapoÄįe": 3642,
      "Ġneku": 3643,
      "jana": 3644,
      "ĠistraÅ¾ivanja": 3645,
      "Ġsredstava": 3646,
      "Ġitalija": 3647,
      "ĠAleksandar": 3648,
      "ĠPoÅ¡to": 3649,
      "dÅ¾a": 3650,
      "Ġodbora": 3651,
      "ĠÅłi": 3652,
      "ĠDrugi": 3653,
      "Ġodluku": 3654,
      "Ġcrno": 3655,
      "Ġvojske": 3656,
      "Ġ__": 3657,
      "mpera": 3658,
      "Ġtitu": 3659,
      "ĠhriÅ¡Äĩa": 3660,
      "ĠPan": 3661,
      "Ġrazvoja": 3662,
      "Ġ70": 3663,
      "ĠmoÄĩ": 3664,
      "Å¡Äįa": 3665,
      "ĠÅ¾ivotu": 3666,
      "Ġof": 3667,
      "ĠistiÄįe": 3668,
      "Ġpotra": 3669,
      "Ġmani": 3670,
      "dnosti": 3671,
      "ĠÅłto": 3672,
      "vaÄįa": 3673,
      "ĠproÅ¡i": 3674,
      "Ġuzro": 3675,
      "ĠÄįija": 3676,
      "reno": 3677,
      "Ġpriho": 3678,
      "Ġkolek": 3679,
      "Vi": 3680,
      "Ġprostor": 3681,
      "70": 3682,
      "Ġdonosi": 3683,
      "Ġputo": 3684,
      "ĠMla": 3685,
      "Ġplan": 3686,
      "Ġdao": 3687,
      "Ġ45": 3688,
      "Ġizlo": 3689,
      "Ġpreci": 3690,
      "ĠnajÄįeÅ¡Äĩe": 3691,
      "Ġmoje": 3692,
      "Ġdodao": 3693,
      "Ġ--------------------------------": 3694,
      "Ġfabri": 3695,
      "tivna": 3696,
      "Ġodluka": 3697,
      "Ġpovu": 3698,
      "Äįila": 3699,
      "Ġ190": 3700,
      "Ġzvu": 3701,
      "ÄįeviÄĩ": 3702,
      "Ġinf": 3703,
      "Ġotac": 3704,
      "tinu": 3705,
      "Ġnjegovu": 3706,
      "Ġmada": 3707,
      "Ġreda": 3708,
      "Ġleka": 3709,
      "klu": 3710,
      "Ġuzima": 3711,
      "miÄĩ": 3712,
      "Ġnekih": 3713,
      "Ġizrazi": 3714,
      "ĠÄĮu": 3715,
      "Ġveku": 3716,
      "Ġsposob": 3717,
      "Äįenju": 3718,
      "Ġjedinica": 3719,
      "Ġosvojio": 3720,
      "manu": 3721,
      "Ġfesti": 3722,
      "Ġljude": 3723,
      "OG": 3724,
      "28": 3725,
      "Ġnakna": 3726,
      "Å¾ba": 3727,
      "Ġpreva": 3728,
      "Ġcrve": 3729,
      "Ġizabra": 3730,
      "Ġpostupak": 3731,
      "ĠpoÄįetkom": 3732,
      "Ġhemi": 3733,
      "ten": 3734,
      "Ġvelikim": 3735,
      "Ġeli": 3736,
      "Ġorgana": 3737,
      "Ġzausta": 3738,
      "Ġsama": 3739,
      "Ġalbu": 3740,
      "ĠopÅ¡te": 3741,
      "lt": 3742,
      "Ġmnoge": 3743,
      "buna": 3744,
      "Ġsutra": 3745,
      "Ġopra": 3746,
      "cione": 3747,
      "29": 3748,
      "ĠiskljuÄįi": 3749,
      "rto": 3750,
      "Ġpribli": 3751,
      "zno": 3752,
      "ĠveÄĩina": 3753,
      "Ta": 3754,
      "Ġsub": 3755,
      "ĠIli": 3756,
      "Ġblago": 3757,
      "Ġprije": 3758,
      "Ġpresto": 3759,
      "Ġradnika": 3760,
      "KN": 3761,
      "ĠFo": 3762,
      "Ġmislim": 3763,
      "BEZ": 3764,
      "pisuje": 3765,
      "snim": 3766,
      "vilo": 3767,
      "Ġnepre": 3768,
      "Ġratu": 3769,
      "mni": 3770,
      "jsku": 3771,
      "seda": 3772,
      "kov": 3773,
      "Ġpoti": 3774,
      "Ġradni": 3775,
      "godiÅ¡nji": 3776,
      "Ġogrom": 3777,
      "Ġodgovaraju": 3778,
      "ĠPopo": 3779,
      "Ġdrugoj": 3780,
      "var": 3781,
      "ĠnoÄĩi": 3782,
      "Ġtuma": 3783,
      "Ġveze": 3784,
      "Ġimalo": 3785,
      "Ġnaselja": 3786,
      "27": 3787,
      "Ġke": 3788,
      "boj": 3789,
      "Ġprofesiona": 3790,
      "Ġljudima": 3791,
      "ĠBran": 3792,
      "Ġnapusti": 3793,
      "Ġefika": 3794,
      "IV": 3795,
      "Ġsvake": 3796,
      "Ġnemaju": 3797,
      "Ġkupo": 3798,
      "vljuje": 3799,
      "ĠÅ¾ivjelo": 3800,
      "Ġanga": 3801,
      "Ġnjene": 3802,
      "dnja": 3803,
      "Ġpogi": 3804,
      "lice": 3805,
      "ĠHrvatske": 3806,
      "ĠZagre": 3807,
      "rup": 3808,
      "Te": 3809,
      "kula": 3810,
      "njeni": 3811,
      "Ġkor": 3812,
      "Ġmeni": 3813,
      "kada": 3814,
      "Ġgovore": 3815,
      "ĠFrancuskoj": 3816,
      "Ġkrajem": 3817,
      "ue": 3818,
      "Ġpredlog": 3819,
      "rijar": 3820,
      "Ġistovremeno": 3821,
      "tanja": 3822,
      "Ġodbrane": 3823,
      "Ġelektri": 3824,
      "mit": 3825,
      "Ġodra": 3826,
      "njenje": 3827,
      "ĠÄįvr": 3828,
      "kove": 3829,
      "Ġuki": 3830,
      "Ġdrve": 3831,
      "Ġispiti": 3832,
      "ĠtaÄįno": 3833,
      "ĠÅ¡kola": 3834,
      "deÄĩi": 3835,
      "nula": 3836,
      "Ġobzira": 3837,
      "ĠDok": 3838,
      "ntu": 3839,
      "BEZKN": 3840,
      "Ġcena": 3841,
      "Ġkole": 3842,
      "Äĩeni": 3843,
      "mje": 3844,
      "cifi": 3845,
      "ĠsaobraÄĩaj": 3846,
      "ĠUniverzi": 3847,
      "Ġprove": 3848,
      "EÅł": 3849,
      "Ġdiploma": 3850,
      "ĠRusije": 3851,
      "ĠMos": 3852,
      "ĠpoÄįela": 3853,
      "Ġgor": 3854,
      "mora": 3855,
      "Å¡ne": 3856,
      "Ġkana": 3857,
      "ĠEvropske": 3858,
      "vku": 3859,
      "Ġodgovori": 3860,
      "lizacije": 3861,
      "ĠRadi": 3862,
      "mentu": 3863,
      "ĠEngle": 3864,
      "Ġ34": 3865,
      "bran": 3866,
      "Ġprvenstvu": 3867,
      "Ġpogledu": 3868,
      "Ġproc": 3869,
      "Ġplu": 3870,
      "land": 3871,
      "ĠgraÄĳan": 3872,
      "Ġugovor": 3873,
      "Ġprirod": 3874,
      "ĠuÄįestvu": 3875,
      "ĠPredsednik": 3876,
      "ĠMinistarstvo": 3877,
      "Ġpobo": 3878,
      "Ġjavno": 3879,
      "Ġprotivni": 3880,
      "ĠsledeÄĩe": 3881,
      "solu": 3882,
      "Ġreli": 3883,
      "ĠDanas": 3884,
      "noviÄĩa": 3885,
      "Ġostalih": 3886,
      "Ġ39": 3887,
      "ĠJoÅ¡": 3888,
      "ĠMora": 3889,
      "UP": 3890,
      "Ġ36": 3891,
      "mpo": 3892,
      "ĠHrvatskoj": 3893,
      "Ġpodrazume": 3894,
      "Ġprene": 3895,
      "Ġekspe": 3896,
      "Ġpov": 3897,
      "Ġteni": 3898,
      "Ġnaziva": 3899,
      "ĠBog": 3900,
      "ĠKoÅ¡tu": 3901,
      "ĠBro": 3902,
      "tao": 3903,
      "Ġzaslu": 3904,
      "Å¡na": 3905,
      "ĠpodruÄįju": 3906,
      "ĠnaÅ¡ih": 3907,
      "Ġgodinama": 3908,
      "Ġkise": 3909,
      "zora": 3910,
      "ndo": 3911,
      "ĠSad": 3912,
      "Ġpsiho": 3913,
      "Ġsastavu": 3914,
      "Ġtakav": 3915,
      "Ġdesi": 3916,
      "IS": 3917,
      "Ġizborima": 3918,
      "ĠMarija": 3919,
      "Ġdrugu": 3920,
      "kciju": 3921,
      "Å¡io": 3922,
      "Ġnjihova": 3923,
      "ĠNovom": 3924,
      "ĠMetohi": 3925,
      "Ġpotencija": 3926,
      "ĠTada": 3927,
      "Ġvelikog": 3928,
      "paci": 3929,
      "ĠJovanoviÄĩ": 3930,
      "Ġenergije": 3931,
      "kuju": 3932,
      "Ġuza": 3933,
      "ĠrazmiÅ¡lja": 3934,
      "ranih": 3935,
      "Å¾iÄĩ": 3936,
      "Ġzatvore": 3937,
      "Ġuhap": 3938,
      "vid": 3939,
      "Ġobzirom": 3940,
      "Ġstalno": 3941,
      "nsku": 3942,
      "vke": 3943,
      "Ġkatego": 3944,
      "Ġupozna": 3945,
      "Ġuslove": 3946,
      "Me": 3947,
      "rine": 3948,
      "Ġduho": 3949,
      "ĠtraÅ¾e": 3950,
      "Ġfebruara": 3951,
      "Ġmehani": 3952,
      "lizam": 3953,
      "Ġolimpi": 3954,
      "ĠseÄĩa": 3955,
      "hra": 3956,
      "cem": 3957,
      "Ġgustina": 3958,
      "stvima": 3959,
      "Ġdobila": 3960,
      "NA": 3961,
      "Ġteritorija": 3962,
      "Ġnao": 3963,
      "Ġ37": 3964,
      "jiÄĩ": 3965,
      "Ġsnagu": 3966,
      "ĠCa": 3967,
      "ĠrazliÄįitih": 3968,
      "Ġprostora": 3969,
      "Ġtempera": 3970,
      "OD": 3971,
      "2009": 3972,
      "Ġjavnog": 3973,
      "nku": 3974,
      "ĠLondo": 3975,
      "koviÄĩa": 3976,
      "Ġnepri": 3977,
      "ĠZA": 3978,
      "Ġnekom": 3979,
      "Ġudalje": 3980,
      "riÅ¡e": 3981,
      "ĠTadiÄĩ": 3982,
      "Ġveliku": 3983,
      "pove": 3984,
      "slava": 3985,
      "Ġformula": 3986,
      "Ġnjegovih": 3987,
      "Ġstranka": 3988,
      "Ġzadu": 3989,
      "Ġsudija": 3990,
      "Ġpokazuje": 3991,
      "dÅ¾": 3992,
      "scipli": 3993,
      "Ġnajpo": 3994,
      "ĠMon": 3995,
      "Ġkampa": 3996,
      "Ġsagla": 3997,
      "Ġinteresa": 3998,
      "tuje": 3999,
      "Ġministra": 4000,
      "Ġodnos": 4001,
      "Ġsati": 4002,
      "Ġube": 4003,
      "Ġpoklo": 4004,
      "skoro": 4005,
      "spa": 4006,
      "rano": 4007,
      "Ġvidu": 4008,
      "Ġshvati": 4009,
      "zapa": 4010,
      "ĠDan": 4011,
      "Ġkoma": 4012,
      "ĠpolitiÄįkih": 4013,
      "Ġpostala": 4014,
      "Ġprepozna": 4015,
      "Ġprofesor": 4016,
      "rene": 4017,
      "kru": 4018,
      "ĠAust": 4019,
      "ĠÅ¡an": 4020,
      "Ġznatno": 4021,
      "Ġoblik": 4022,
      "Ġugovora": 4023,
      "Ġambasa": 4024,
      "Äĳenju": 4025,
      "biÄįa": 4026,
      "blji": 4027,
      "Ġostale": 4028,
      "ljenja": 4029,
      "Ġzavisi": 4030,
      "Ġsvojom": 4031,
      "ĠMarko": 4032,
      "ĠuÄįini": 4033,
      "ĠKara": 4034,
      "Ġnedelje": 4035,
      "}-\"": 4036,
      "tla": 4037,
      "Ġinstru": 4038,
      "Ġglavu": 4039,
      "Ġpolicija": 4040,
      "Ġmanda": 4041,
      "ĠDakle": 4042,
      "ĠÄĳa": 4043,
      "ĠIndi": 4044,
      "Äįima": 4045,
      "ĠAmerika": 4046,
      "tskim": 4047,
      "kt": 4048,
      "Ġprete": 4049,
      "Ġosvaja": 4050,
      "Ġukupno": 4051,
      "ranju": 4052,
      "Ġvelikih": 4053,
      "Ġ48": 4054,
      "Ġstoji": 4055,
      "Ġsed": 4056,
      "San": 4057,
      "Ġnaziv": 4058,
      "Äĩeno": 4059,
      "Ġ38": 4060,
      "zmu": 4061,
      "Ġizvan": 4062,
      "ĠIII": 4063,
      "Ġsrpskih": 4064,
      "tlji": 4065,
      "rskih": 4066,
      "Ġselu": 4067,
      "Ġprihva": 4068,
      "Ġovak": 4069,
      "Ġradova": 4070,
      "Ġvoda": 4071,
      "Ġposlednji": 4072,
      "Ġrazvije": 4073,
      "kin": 4074,
      "90": 4075,
      "ĠKomi": 4076,
      "ĠOsno": 4077,
      "AL": 4078,
      "2008": 4079,
      "ĠÄįime": 4080,
      "ĠUpra": 4081,
      "vljene": 4082,
      "Ġinicija": 4083,
      "Äĩuje": 4084,
      "Ġtrenutno": 4085,
      "ĠNGC": 4086,
      "Ġsmatraju": 4087,
      "Å¾nja": 4088,
      "ĠoÅ¡te": 4089,
      "mene": 4090,
      "Ġ500": 4091,
      "Ġmar": 4092,
      "Ġkratko": 4093,
      "ĠNova": 4094,
      "Ġcene": 4095,
      "Ġostaje": 4096,
      "Ġposledica": 4097,
      "Ġose": 4098,
      "ĠteÅ¾i": 4099,
      "Ġistoriji": 4100,
      "Ġsredine": 4101,
      "Ġdopu": 4102,
      "Äįene": 4103,
      "Ġprijatelj": 4104,
      "ĠMinistarstva": 4105,
      "laska": 4106,
      "Ġnismo": 4107,
      "ĠreÅ¡a": 4108,
      "Ġkompanije": 4109,
      "Ġostao": 4110,
      "lnik": 4111,
      "ÄĮAN": 4112,
      "Ġarhite": 4113,
      "Sa": 4114,
      "Ġosobe": 4115,
      "ĠdrÅ¾avne": 4116,
      "nosa": 4117,
      "Ġteritoriji": 4118,
      "jk": 4119,
      "il": 4120,
      "Ġrazvija": 4121,
      "ĠsaÄįu": 4122,
      "put": 4123,
      "kse": 4124,
      "/-{": 4125,
      "vskog": 4126,
      "Ġpotpisa": 4127,
      "ĠKod": 4128,
      "Ġpremijer": 4129,
      "Å¡ni": 4130,
      "Ġobliku": 4131,
      "Ġlan": 4132,
      "Ġobuhvata": 4133,
      "raca": 4134,
      "Ġdosti": 4135,
      "ved": 4136,
      "Ġsvu": 4137,
      "Ġizuzetno": 4138,
      "Ġstare": 4139,
      "ĠJedno": 4140,
      "Ġpokri": 4141,
      "Ġkojeg": 4142,
      "strva": 4143,
      "Ġovako": 4144,
      "Ġhote": 4145,
      "ncela": 4146,
      "rata": 4147,
      "Ġkonstru": 4148,
      "Ġtj": 4149,
      "vile": 4150,
      "ĠkaÅ¾em": 4151,
      "Ġpravila": 4152,
      "Ġpojedina": 4153,
      "Ġinostran": 4154,
      "ĠKor": 4155,
      "Ġsaj": 4156,
      "Ġsamosta": 4157,
      "kte": 4158,
      "Ġigre": 4159,
      "Ġ00": 4160,
      "sanje": 4161,
      "Ġprese": 4162,
      "sce": 4163,
      "Ġostalo": 4164,
      "Ġposlednje": 4165,
      "rla": 4166,
      "Ġuspeo": 4167,
      "Ġvero": 4168,
      "Ġdati": 4169,
      "Ġpovla": 4170,
      "Ġtelo": 4171,
      "Ġkonsta": 4172,
      "Ġpovodom": 4173,
      "ĠkonaÄįno": 4174,
      "Ġska": 4175,
      "Å¡tvu": 4176,
      "Ġvlasni": 4177,
      "Ġklub": 4178,
      "ĠIzra": 4179,
      "Ġideja": 4180,
      "kne": 4181,
      "ĠOsim": 4182,
      "Ġiska": 4183,
      "mba": 4184,
      "ĠÅ¡tampa": 4185,
      "ĠBilo": 4186,
      "ĠÄĲorÄĳe": 4187,
      "ljeni": 4188,
      "Ġspome": 4189,
      "ch": 4190,
      "nskoj": 4191,
      "Ġenerge": 4192,
      "Ġmole": 4193,
      "ĠtiÄįe": 4194,
      "rsa": 4195,
      "Ġbriga": 4196,
      "Ġdobar": 4197,
      "Ġotvori": 4198,
      "ĠÄįlanovi": 4199,
      "Ġlak": 4200,
      "Ġstr": 4201,
      "Ġpogre": 4202,
      "Ġseo": 4203,
      "Ġblizi": 4204,
      "Äįini": 4205,
      "Ġnaf": 4206,
      "Ġubije": 4207,
      "Ġkrize": 4208,
      "Ġsupru": 4209,
      "Ġpoveza": 4210,
      "Ġfilma": 4211,
      "Ġsvakako": 4212,
      "jm": 4213,
      "Äĩom": 4214,
      "Ġdelom": 4215,
      "Ġdje": 4216,
      "Ġuticaj": 4217,
      "ĠOno": 4218,
      "Ġidu": 4219,
      "ljena": 4220,
      "ĠÄįasova": 4221,
      "Ġpreuze": 4222,
      "Ġmera": 4223,
      "Äĩima": 4224,
      "rista": 4225,
      "ĠkoÅ¡a": 4226,
      "vremenu": 4227,
      "Ġnjihovih": 4228,
      "Ġcentru": 4229,
      "Ġperiod": 4230,
      "Ġkupa": 4231,
      "Ġprocjeni": 4232,
      "ĠPoliti": 4233,
      "stepe": 4234,
      "Ġnedavno": 4235,
      "Ġkapaci": 4236,
      "IT": 4237,
      "deli": 4238,
      "poli": 4239,
      "Ġzasta": 4240,
      "DP": 4241,
      "zama": 4242,
      "rakruz": 4243,
      "val": 4244,
      "Ġgranice": 4245,
      "Å¡ing": 4246,
      "Ġ2012": 4247,
      "jao": 4248,
      "ĠÄĮo": 4249,
      "ĠSko": 4250,
      "44": 4251,
      "Ġgloba": 4252,
      "Ġsiroma": 4253,
      "ana": 4254,
      "Ġuspo": 4255,
      "lak": 4256,
      "vajca": 4257,
      "Ġdobili": 4258,
      "Ġkomenta": 4259,
      "Ġmuze": 4260,
      "Ġdis": 4261,
      "Ġunutar": 4262,
      "us": 4263,
      "ĠdoÄĩi": 4264,
      "ĠMoÅ¾da": 4265,
      "Ġmilijardi": 4266,
      "ĠSanta": 4267,
      "OJ": 4268,
      "ĠKla": 4269,
      "Ġtradiciona": 4270,
      "Ġkazao": 4271,
      "Ġsvemu": 4272,
      "Ġimo": 4273,
      "Ġtakve": 4274,
      "ĠovlaÅ¡Äĩe": 4275,
      "mila": 4276,
      "ĠÅ¡ampiona": 4277,
      "Ġpredstavljaju": 4278,
      "Ġ2004": 4279,
      "Pe": 4280,
      "Ġpodu": 4281,
      "Äĳo": 4282,
      "âĢĶâĢĶ": 4283,
      "desetih": 4284,
      "Ġpriprema": 4285,
      "jevi": 4286,
      "Ġdokaza": 4287,
      "ĠVerakruz": 4288,
      "ĠDrugog": 4289,
      "ĠNA": 4290,
      "Ġzvezda": 4291,
      "Ġostvari": 4292,
      "cep": 4293,
      "Ġmorao": 4294,
      "Ġostr": 4295,
      "rijski": 4296,
      "ĠOlimpi": 4297,
      "Ġprisustvo": 4298,
      "Ġsvakodne": 4299,
      "ĠobjaÅ¡njava": 4300,
      "ĠNor": 4301,
      "Å¡taj": 4302,
      "miju": 4303,
      "Ġzaposlenih": 4304,
      "Ġbavi": 4305,
      "Ġ2001": 4306,
      "rea": 4307,
      "ĠdoÄįe": 4308,
      "Ġvisoko": 4309,
      "ĠnajvaÅ¾": 4310,
      "ĠzavrÅ¡io": 4311,
      "Ġnovu": 4312,
      "ĠDemokra": 4313,
      "mnji": 4314,
      "nicima": 4315,
      "Ġokruga": 4316,
      "Ġzadovolj": 4317,
      "Ġvje": 4318,
      "ĠIs": 4319,
      "Ġnog": 4320,
      "Ġpodatke": 4321,
      "Ġsja": 4322,
      "Ġsmanji": 4323,
      "Ġkilometara": 4324,
      "zem": 4325,
      "ĠigraÄįa": 4326,
      "ĠLas": 4327,
      "Ġkine": 4328,
      "Ġkame": 4329,
      "Å¾nje": 4330,
      "Ġprivati": 4331,
      "ĠpaÅ¾nju": 4332,
      "rent": 4333,
      "ĠUkoliko": 4334,
      "ili": 4335,
      "ĠiskljuÄįivo": 4336,
      "ĠPEÅł": 4337,
      "Ġprave": 4338,
      "ĠÅ¡kolu": 4339,
      "Ġkluba": 4340,
      "steroi": 4341,
      "Ġpoko": 4342,
      "ĠvaÅ¾no": 4343,
      "Ġovoga": 4344,
      "Ġ2003": 4345,
      "sman": 4346,
      "Ġprocesa": 4347,
      "Ġnega": 4348,
      "Ġokolnosti": 4349,
      "Ġ%)": 4350,
      "ĠSpa": 4351,
      "ĠnaÄĩi": 4352,
      "rskom": 4353,
      "meti": 4354,
      "Ġjedinice": 4355,
      "Äĩoj": 4356,
      "Ġkonkre": 4357,
      "ÄĮANIK": 4358,
      "gledno": 4359,
      "ĠPEÅłÄĮANIK": 4360,
      "Ġkompanija": 4361,
      "Ġnavo": 4362,
      "ĠpriÄįe": 4363,
      "Ġboje": 4364,
      "Ġpolitiku": 4365,
      "linu": 4366,
      "Ġlista": 4367,
      "laganja": 4368,
      "ĠZvez": 4369,
      "Ġutakmice": 4370,
      "ĠpodseÄĩa": 4371,
      "toma": 4372,
      "ĠpodruÄįja": 4373,
      "ĠMitro": 4374,
      "Ġdvoji": 4375,
      "Ġmoja": 4376,
      "sad": 4377,
      "ĠLaza": 4378,
      "Ġkomunika": 4379,
      "ĠÅ¡irom": 4380,
      "ĠÄįesti": 4381,
      "Ġsnima": 4382,
      "posle": 4383,
      "tki": 4384,
      "telje": 4385,
      "gro": 4386,
      "Ve": 4387,
      "Ġvodo": 4388,
      "lici": 4389,
      "ĠBosne": 4390,
      "Ġborbi": 4391,
      "ĠproizvoÄĳa": 4392,
      "Ġvalja": 4393,
      "Ġ2014": 4394,
      "Ġglas": 4395,
      "Ġpolitika": 4396,
      "dela": 4397,
      "ĠEu": 4398,
      "Ġlist": 4399,
      "Ġscena": 4400,
      "ĠtrÅ¾iÅ¡tu": 4401,
      "Ġnjenog": 4402,
      "mske": 4403,
      "Ġseku": 4404,
      "ĠZaÅ¡to": 4405,
      "govorni": 4406,
      "giju": 4407,
      "ĠBan": 4408,
      "Ġpokreta": 4409,
      "Ġr": 4410,
      "Ġminima": 4411,
      "ĠDragan": 4412,
      "âĢĵ": 4413,
      "Ġonoga": 4414,
      "Ġproizvodnje": 4415,
      "Ġjako": 4416,
      "75": 4417,
      "pisima": 4418,
      "Ġlogi": 4419,
      "ĠMisli": 4420,
      "Ġprofi": 4421,
      "ĠAnto": 4422,
      "gri": 4423,
      "Ġzatra": 4424,
      "Ġopravda": 4425,
      "ĠÄįinjenica": 4426,
      "Ġpreu": 4427,
      "snom": 4428,
      "Ġkralja": 4429,
      "Ġpoznato": 4430,
      "ĠNalazi": 4431,
      "ĠPoÄįe": 4432,
      "govor": 4433,
      "Ġpravde": 4434,
      "Ġprostoru": 4435,
      "Ġotvo": 4436,
      "Ġsina": 4437,
      "ĠSavez": 4438,
      "ĠnaÅ¡em": 4439,
      "Ġprekr": 4440,
      "Ġovi": 4441,
      "ĠloÅ¡e": 4442,
      "zacija": 4443,
      "ĠSt": 4444,
      "ograf": 4445,
      "Å¡ena": 4446,
      "Ġpartija": 4447,
      "Ġgrani": 4448,
      "Ġae": 4449,
      "Ġdirektora": 4450,
      "ĠNaciona": 4451,
      "33": 4452,
      "Ġgore": 4453,
      "Ġpoza": 4454,
      "Ġuto": 4455,
      "ĠTV": 4456,
      "ĠbudÅ¾eta": 4457,
      "vin": 4458,
      "jsko": 4459,
      "sila": 4460,
      "Ġstati": 4461,
      "Ġpatrijar": 4462,
      "lski": 4463,
      "ĠomoguÄĩa": 4464,
      "Ġpristup": 4465,
      "Ġkakav": 4466,
      "fija": 4467,
      "Ġnaba": 4468,
      "Ġdeca": 4469,
      "Ġetni": 4470,
      "fon": 4471,
      "rda": 4472,
      "Ġnovim": 4473,
      "Ġpoena": 4474,
      "Ġinformacije": 4475,
      "znu": 4476,
      "rse": 4477,
      "Ġistorije": 4478,
      "99": 4479,
      "45": 4480,
      "ziva": 4481,
      "ĠrazliÄįite": 4482,
      "dnica": 4483,
      "Ġduga": 4484,
      "lacije": 4485,
      "ĠnaÅ¡oj": 4486,
      "ĠdrÅ¾avni": 4487,
      "mio": 4488,
      "moÄĩ": 4489,
      "Ġ1999": 4490,
      "Ġgeo": 4491,
      "Ġnastupa": 4492,
      "Ġ:": 4493,
      "Ġceo": 4494,
      "rmo": 4495,
      "Ġsl": 4496,
      "ĠÅ¡ef": 4497,
      "Ġistom": 4498,
      "ft": 4499,
      "ĠGospo": 4500,
      "Ġâ": 4501,
      "Ġzad": 4502,
      "Ġnai": 4503,
      "Ġtala": 4504,
      "Ġsprovo": 4505,
      "rsku": 4506,
      "ĠameriÄįki": 4507,
      "Ġcrkva": 4508,
      "Ġodredi": 4509,
      "stio": 4510,
      "ĠtuÅ¾ila": 4511,
      "ĠdruÅ¡tvu": 4512,
      "ĠBosni": 4513,
      "ĠFili": 4514,
      "ĠZoran": 4515,
      "ĠdrÅ¾avu": 4516,
      "jeviÄĩ": 4517,
      "Ġzabele": 4518,
      "Ġzaba": 4519,
      "Ġprosti": 4520,
      "fiko": 4521,
      "Ġdiscipli": 4522,
      "Ġsvoga": 4523,
      "ĠnoÄĩ": 4524,
      "Ġpostavlja": 4525,
      "Ġsaz": 4526,
      "ĠRanÄįo": 4527,
      "Ġoblika": 4528,
      "Ġpolici": 4529,
      "ĠOba": 4530,
      "ĠzahvaljujuÄĩi": 4531,
      "smu": 4532,
      "tnije": 4533,
      "Ġmrt": 4534,
      "Ġprvih": 4535,
      "Ġdiza": 4536,
      "Ġstanja": 4537,
      "ĠBor": 4538,
      "ĠÄĲo": 4539,
      "dere": 4540,
      "ĠnovÄįa": 4541,
      "Ġpridru": 4542,
      "Ġimenom": 4543,
      "ĠIvan": 4544,
      "ĠÄįelu": 4545,
      "ĠGori": 4546,
      "Ġzu": 4547,
      "ĠJevre": 4548,
      "ĠureÄĳa": 4549,
      "Ġizbor": 4550,
      "Ġsobom": 4551,
      "Ġupa": 4552,
      "smi": 4553,
      "ĠpoÄįetak": 4554,
      "part": 4555,
      "Ġdepo": 4556,
      "Ġjednim": 4557,
      "Ġtema": 4558,
      "ĠCrk": 4559,
      "Ġkonkuren": 4560,
      "Ġ,,": 4561,
      "Ġ300": 4562,
      "Ġgaran": 4563,
      "ĠsuÅ¡ti": 4564,
      "ĠpoloÅ¾aj": 4565,
      "njug": 4566,
      "gova": 4567,
      "ĠsluÅ¡a": 4568,
      "Ġprojekta": 4569,
      "Ġdej": 4570,
      "Å¡lo": 4571,
      "Ġintegra": 4572,
      "lovi": 4573,
      "Â°": 4574,
      "ĠliÄįnosti": 4575,
      "Ġsrpskom": 4576,
      "spi": 4577,
      "ĠOt": 4578,
      "janje": 4579,
      "Å¾eno": 4580,
      "Ġvoza": 4581,
      "Äįnik": 4582,
      "ĠdÅ¾e": 4583,
      "intere": 4584,
      "Ġneposredno": 4585,
      "Ġprole": 4586,
      "mski": 4587,
      "Ġnjena": 4588,
      "Ġtipa": 4589,
      "Ġvrh": 4590,
      "Ġponekad": 4591,
      "Ġusluga": 4592,
      "ĠVoji": 4593,
      "struktu": 4594,
      "35": 4595,
      "Ġproto": 4596,
      "Ġfotografi": 4597,
      "Ġpredmet": 4598,
      "dove": 4599,
      "nacija": 4600,
      "ruje": 4601,
      "mbru": 4602,
      "Ġdodaje": 4603,
      "vencije": 4604,
      "Ġdobra": 4605,
      "Ġnaveo": 4606,
      "Ġporodica": 4607,
      "Ġmusli": 4608,
      "Ġpobu": 4609,
      "Ġstro": 4610,
      "Ġsporazuma": 4611,
      "veni": 4612,
      "Ra": 4613,
      "ĠNaravno": 4614,
      "nuli": 4615,
      "Ġjedinstve": 4616,
      "ĠtaÄįka": 4617,
      "ĠoÄįu": 4618,
      "Ġgovorio": 4619,
      "ĠPrvo": 4620,
      "roni": 4621,
      "Ġdevet": 4622,
      "ĠkuÄĩu": 4623,
      "Ġsuo": 4624,
      "ĠZla": 4625,
      "Ġzauze": 4626,
      "ori": 4627,
      "Ġbele": 4628,
      "Ġpobolj": 4629,
      "Ġ*": 4630,
      "Ġukra": 4631,
      "los": 4632,
      "Ġkvalitet": 4633,
      "Ġkazne": 4634,
      "ĠSever": 4635,
      "Ġfunkcioni": 4636,
      "Ġblizini": 4637,
      "ĠMiloÅ¡eviÄĩ": 4638,
      "vnici": 4639,
      "potre": 4640,
      "Ġ46": 4641,
      "MA": 4642,
      "ĠÂ»": 4643,
      "Ġznaju": 4644,
      "ĠJovan": 4645,
      "Ġ1941": 4646,
      "Ġnjihovo": 4647,
      "ĠSun": 4648,
      "Ġom": 4649,
      "Ġsvaku": 4650,
      "Å¡koj": 4651,
      "ĠPose": 4652,
      "rice": 4653,
      "ĠznaÄįaja": 4654,
      "Ġupozo": 4655,
      "Ġkoncep": 4656,
      "Ġpreporu": 4657,
      "Ġpostupku": 4658,
      "Ġgrupi": 4659,
      "Ġred": 4660,
      "Äĩeva": 4661,
      "Ju": 4662,
      "ljom": 4663,
      "Ġmaso": 4664,
      "Ġpredstavnici": 4665,
      "Ġspecifi": 4666,
      "ĠZi": 4667,
      "Ġdobri": 4668,
      "zda": 4669,
      "Ġinspe": 4670,
      "Ġznao": 4671,
      "ĠdrÅ¾avlja": 4672,
      "Ġ32": 4673,
      "ĠTro": 4674,
      "Ġpodse": 4675,
      "ĠÄĮija": 4676,
      "ĠPolj": 4677,
      "Å¡kim": 4678,
      "voljan": 4679,
      "ĠMihai": 4680,
      "tmo": 4681,
      "sama": 4682,
      "Ġonako": 4683,
      "ĠMiro": 4684,
      "ĠRusija": 4685,
      "ĠGi": 4686,
      "teriju": 4687,
      "Ġodbo": 4688,
      "ĠGenera": 4689,
      "mar": 4690,
      "ĠgodiÅ¡nje": 4691,
      "pila": 4692,
      "Ġistori": 4693,
      "Ġ/": 4694,
      "Ġvratio": 4695,
      "kali": 4696,
      "ĠRumuniji": 4697,
      "Ġkonte": 4698,
      "Ġpravu": 4699,
      "Ġprivred": 4700,
      "siÄĩ": 4701,
      "ĠSaraje": 4702,
      "Ġoca": 4703,
      "ĠKru": 4704,
      "Ġnepozna": 4705,
      "lon": 4706,
      "Ġaviona": 4707,
      "Å¡njoj": 4708,
      "Ġdecu": 4709,
      "Ġzdravlja": 4710,
      "Ġtera": 4711,
      "ĠreÅ¡i": 4712,
      "ĠSaveta": 4713,
      "Ġdobiti": 4714,
      "ĠItalija": 4715,
      "Ġ44": 4716,
      "Mo": 4717,
      "Ġsata": 4718,
      "lozi": 4719,
      "Ġvojnika": 4720,
      "ĠzloÄįina": 4721,
      "ih": 4722,
      "ĠVeÄĩ": 4723,
      "De": 4724,
      "nita": 4725,
      "ĠdogaÄĳaja": 4726,
      "ĠmiÅ¡ljenje": 4727,
      "Ġstranu": 4728,
      "ĠAfri": 4729,
      "Ġiznosila": 4730,
      "Ġizvede": 4731,
      "sov": 4732,
      "ls": 4733,
      "Ġpak": 4734,
      "Å¡tena": 4735,
      "Ġbilj": 4736,
      "Ġstudi": 4737,
      "timi": 4738,
      "08": 4739,
      "Å¾em": 4740,
      "Ġpremijera": 4741,
      "Ġobno": 4742,
      "Ġsvima": 4743,
      "Ġinformacija": 4744,
      "dnice": 4745,
      "Ġadvo": 4746,
      "ĠleÅ¾i": 4747,
      "Ġnjegovi": 4748,
      "Ġnjihovog": 4749,
      "ĠMarkoviÄĩ": 4750,
      "Ġrecimo": 4751,
      "Ġneobi": 4752,
      "ĠMarti": 4753,
      "Ġnavija": 4754,
      "ĠroÄĳen": 4755,
      "Ġjavlja": 4756,
      "zanti": 4757,
      "EK": 4758,
      "min": 4759,
      "Ġnez": 4760,
      "ĠoÅ¡t": 4761,
      "Ġpoznati": 4762,
      "ĠKali": 4763,
      "ĠNjujo": 4764,
      "Ġobaveze": 4765,
      "ĠViÅ¡e": 4766,
      "Ġ(-{": 4767,
      "Ġnapisao": 4768,
      "Ġprilika": 4769,
      "ĠbuduÄĩi": 4770,
      "78": 4771,
      "Ġglavnog": 4772,
      "Ġnauka": 4773,
      "Ġuskoro": 4774,
      "Ġshvata": 4775,
      "Ġusa": 4776,
      "Ġunapre": 4777,
      "Ġznak": 4778,
      "Ġrazlog": 4779,
      "Ġtima": 4780,
      "ĠObra": 4781,
      "Ġsekretar": 4782,
      "Ġgol": 4783,
      "pija": 4784,
      "Ġnjegovoj": 4785,
      "Ġzove": 4786,
      "Ġasteroi": 4787,
      "Ġmajka": 4788,
      "Ġdaju": 4789,
      "Ġjest": 4790,
      "Ġpismo": 4791,
      "ĠskupÅ¡tine": 4792,
      "Ġ43": 4793,
      "ĠVene": 4794,
      "Å¡kih": 4795,
      "Ġservi": 4796,
      "Ġsrpska": 4797,
      "Ġreka": 4798,
      "Ġstatus": 4799,
      "Ġprati": 4800,
      "Ġprera": 4801,
      "mlja": 4802,
      "star": 4803,
      "03": 4804,
      "IL": 4805,
      "Ġpesme": 4806,
      "Ġizo": 4807,
      "tivnim": 4808,
      "Ġsituacija": 4809,
      "ĠUjedinje": 4810,
      "rÅ¾e": 4811,
      "----------": 4812,
      "ljenje": 4813,
      "Å¡njim": 4814,
      "Å¾ene": 4815,
      "ĠSlobodan": 4816,
      "Ġbolji": 4817,
      "kako": 4818,
      "biti": 4819,
      "ĠRepublici": 4820,
      "ĠTr": 4821,
      "95": 4822,
      "Ġdono": 4823,
      "Ġsoli": 4824,
      "Â«": 4825,
      "Ġhteo": 4826,
      "Ġzao": 4827,
      "ĠjuÅ¾": 4828,
      "Ġrok": 4829,
      "Ġkancela": 4830,
      "ĠFor": 4831,
      "tika": 4832,
      "Ġupita": 4833,
      "ljak": 4834,
      "Ġprvoj": 4835,
      "ĠpovrÅ¡ini": 4836,
      "Ġskup": 4837,
      "toj": 4838,
      "tovi": 4839,
      "Ġostala": 4840,
      "rovi": 4841,
      "Ġobaveza": 4842,
      "?\"": 4843,
      "ĠCentra": 4844,
      "Ġselo": 4845,
      "Ġkontak": 4846,
      "Ġmedija": 4847,
      "Ġtekstu": 4848,
      "Ġofici": 4849,
      "ĠkoÅ¡ta": 4850,
      "pije": 4851,
      "Ġnikak": 4852,
      "Ġinstitucija": 4853,
      "ĠÄĮijapas": 4854,
      "ĠHrvatska": 4855,
      "Ġpodrazumeva": 4856,
      "Å¡nju": 4857,
      "ĠAgen": 4858,
      "Ni": 4859,
      "Ġpodaci": 4860,
      "Ġuslova": 4861,
      "njene": 4862,
      "Ġautori": 4863,
      "ĠVaÅ¡ing": 4864,
      "Ġmlado": 4865,
      "mente": 4866,
      "Ġkape": 4867,
      "ĠRT": 4868,
      "Ġakcija": 4869,
      "Ġsporazum": 4870,
      "!\"": 4871,
      "Ġproiz": 4872,
      "ĠStu": 4873,
      "lektua": 4874,
      "Ġsaradnju": 4875,
      "Ġmagi": 4876,
      "Ġlokalne": 4877,
      "Ġvideti": 4878,
      "Ġponi": 4879,
      "ĠmeÅ¡a": 4880,
      "Ġdivi": 4881,
      "ĠMile": 4882,
      "jer": 4883,
      "ĠproÅ¡losti": 4884,
      "Ġboja": 4885,
      "Ġnaju": 4886,
      "Ġzavr": 4887,
      "Ġunije": 4888,
      "rigina": 4889,
      "jskoj": 4890,
      "Ġpotpred": 4891,
      "jt": 4892,
      "tacije": 4893,
      "milija": 4894,
      "lana": 4895,
      "Ġkolu": 4896,
      "tici": 4897,
      "Ġobavez": 4898,
      "nzija": 4899,
      "ser": 4900,
      "ĠÅ¡o": 4901,
      "Ġpacije": 4902,
      "ljiva": 4903,
      "ĠPartizan": 4904,
      "Ġ55": 4905,
      "Ġnacionalne": 4906,
      "ĠKine": 4907,
      "Ġnajpre": 4908,
      "Ġnaglasio": 4909,
      "Ġpopra": 4910,
      "stao": 4911,
      "ĠNikoliÄĩ": 4912,
      "92": 4913,
      "ĠDuna": 4914,
      "ĠnaÄĳe": 4915,
      "Ġdelova": 4916,
      "Ġfunkcije": 4917,
      "mac": 4918,
      "neo": 4919,
      "rodni": 4920,
      "Ġgori": 4921,
      "nito": 4922,
      "Ġstvori": 4923,
      "04": 4924,
      "Ġnemogu": 4925,
      "Ġispa": 4926,
      "lizo": 4927,
      "Ġonog": 4928,
      "Ġmnogim": 4929,
      "Ġmjesto": 4930,
      "Ġocenio": 4931,
      "ĠKana": 4932,
      "Ġkvalifika": 4933,
      "les": 4934,
      "Ġnare": 4935,
      "kola": 4936,
      "biÄįaje": 4937,
      "Ġvelikom": 4938,
      "NI": 4939,
      "Å¡eni": 4940,
      "OL": 4941,
      "Ġuspeh": 4942,
      "ĠOnda": 4943,
      "Ġupla": 4944,
      "Äįem": 4945,
      "ĠnaÅ¡im": 4946,
      "tira": 4947,
      "Ġuku": 4948,
      "tmosfe": 4949,
      "ĠdeÅ¡ava": 4950,
      "Ġpolju": 4951,
      "rbi": 4952,
      ".âĢľ": 4953,
      "Ġavio": 4954,
      "Ġprvenstvo": 4955,
      "Ġznanja": 4956,
      "Ġnacionalnog": 4957,
      "Ġkomplek": 4958,
      "Ġmale": 4959,
      "ĠpreÅ¾i": 4960,
      "Ġ2013": 4961,
      "Ġakcije": 4962,
      "sena": 4963,
      "janoviÄĩ": 4964,
      "ĠtakmiÄįenja": 4965,
      "IJA": 4966,
      "zv": 4967,
      "ĠNeki": 4968,
      "ras": 4969,
      "mica": 4970,
      "Ġvremenu": 4971,
      "Ġbanka": 4972,
      "Ġnapisa": 4973,
      "ĠTreba": 4974,
      "rnost": 4975,
      "logu": 4976,
      "beli": 4977,
      "Ġfunkciju": 4978,
      "Ġglasi": 4979,
      "Ġhrane": 4980,
      "ĠproÅ¡lo": 4981,
      "tike": 4982,
      "ĠKolo": 4983,
      "Äĩene": 4984,
      "roma": 4985,
      "ĠDrago": 4986,
      "stavlja": 4987,
      "Ġrije": 4988,
      "Ġnaru": 4989,
      "lizacija": 4990,
      "liÅ¡e": 4991,
      "pova": 4992,
      "Ġjavnost": 4993,
      "ÄįiÄĩa": 4994,
      "ĠAle": 4995,
      "Ġsumnje": 4996,
      "Ġneba": 4997,
      "Ġekonomske": 4998,
      "ĠInstitu": 4999,
      "fan": 5000,
      "ĠMeÄĳunarod": 5001,
      "Ġsamog": 5002,
      "Ġiskoristi": 5003,
      "Ġpusti": 5004,
      "Ġuprkos": 5005,
      "like": 5006,
      "Ġaktu": 5007,
      "dite": 5008,
      "Ġpostane": 5009,
      "Si": 5010,
      "ĠVladimir": 5011,
      "Ġdvadeset": 5012,
      "bde": 5013,
      "lacija": 5014,
      "tnici": 5015,
      "Ġ(\"-{": 5016,
      "dilo": 5017,
      "ĠÅ¡kol": 5018,
      "Ġuslovi": 5019,
      "Ġsistemu": 5020,
      "moviÄĩ": 5021,
      "dal": 5022,
      "tona": 5023,
      "Ġintenzi": 5024,
      "ĠsveÄįa": 5025,
      "ĠangaÅ¾o": 5026,
      "Ġhuma": 5027,
      "Ġ188": 5028,
      "jko": 5029,
      "grama": 5030,
      "Ġusled": 5031,
      "ĠCrnoj": 5032,
      "Ġeg": 5033,
      "njim": 5034,
      "ĠNajve": 5035,
      "Äĳivanja": 5036,
      "politi": 5037,
      "Ġostalog": 5038,
      "Ġpostupka": 5039,
      "Ġnukle": 5040,
      "Ġpogled": 5041,
      "Ġbre": 5042,
      "ĠreÄįeno": 5043,
      "01": 5044,
      "Ġkorup": 5045,
      "500": 5046,
      "ĠNji": 5047,
      "Ġkralj": 5048,
      "zira": 5049,
      "Ġsindi": 5050,
      "Ġglago": 5051,
      "Ġdirektno": 5052,
      "Ġblizu": 5053,
      "Ġzatvora": 5054,
      "kci": 5055,
      "ĠsaopÅ¡tenju": 5056,
      "Ġpodsti": 5057,
      "Ġkorak": 5058,
      "zer": 5059,
      "ĠpoboljÅ¡a": 5060,
      "uzda": 5061,
      "Ġrazo": 5062,
      "mr": 5063,
      "Ġprirode": 5064,
      "lep": 5065,
      "Ba": 5066,
      "Äĩenja": 5067,
      "Ġprelazi": 5068,
      "rag": 5069,
      "gore": 5070,
      "miÅ¡lje": 5071,
      "Äĳenih": 5072,
      "Ġknjigu": 5073,
      "Ġfakulteta": 5074,
      "dnje": 5075,
      "Ġslobode": 5076,
      "logiju": 5077,
      "Ja": 5078,
      "Ġl": 5079,
      "Ġpredstavnika": 5080,
      "Ġenzi": 5081,
      "terna": 5082,
      "Ġborbu": 5083,
      "ĠStan": 5084,
      "Ġvojska": 5085,
      "Ġodgovornost": 5086,
      "96": 5087,
      "Ġigrama": 5088,
      "Ġkro": 5089,
      "Bi": 5090,
      "nijim": 5091,
      "Ġobjavio": 5092,
      "jeve": 5093,
      "ĠureÄĳe": 5094,
      "Å¾uje": 5095,
      "Å¡tava": 5096,
      "dora": 5097,
      "ĠâĢ¢": 5098,
      "ĠDej": 5099,
      "zaciju": 5100,
      "ĠBez": 5101,
      "tskom": 5102,
      "stoj": 5103,
      "ĠMladi": 5104,
      "Ġatle": 5105,
      "Ġproizvodi": 5106,
      "Ġ150": 5107,
      "Ġrukama": 5108,
      "ron": 5109,
      "Ġpolica": 5110,
      "Ġapsolu": 5111,
      "stova": 5112,
      "Ġpotpunosti": 5113,
      "ĠveliÄįina": 5114,
      "Ġrazre": 5115,
      "ĠdoÅ¡li": 5116,
      "ger": 5117,
      "toli": 5118,
      "mci": 5119,
      "ĠTek": 5120,
      "Ġkvaliteta": 5121,
      "Ġnjihovim": 5122,
      "Ġmediji": 5123,
      "):": 5124,
      "Ġperioda": 5125,
      "Ġizbore": 5126,
      "Ġbrat": 5127,
      "ĠAleksan": 5128,
      "Ġtakoz": 5129,
      "Ġsamoupra": 5130,
      "48": 5131,
      "ĠsluÅ¾i": 5132,
      "miÄįno": 5133,
      "znaÄįaj": 5134,
      "AV": 5135,
      "Ġfu": 5136,
      "ĠdrÅ¾i": 5137,
      "ĠÄįlanica": 5138,
      "ĠÄĲin": 5139,
      "lili": 5140,
      "Ġprojekat": 5141,
      "Ġintelektua": 5142,
      "Ġzajednica": 5143,
      "Ġnado": 5144,
      "ĠPopoviÄĩ": 5145,
      "ĠMnog": 5146,
      "Ġlicu": 5147,
      "Ġrazvoju": 5148,
      "Ġslike": 5149,
      "Å¡Äįanik": 5150,
      "lnika": 5151,
      "Ġzaintere": 5152,
      "vici": 5153,
      "cionog": 5154,
      "Ġan": 5155,
      "ljiv": 5156,
      "Ġzasno": 5157,
      "Ġplane": 5158,
      "vimo": 5159,
      "zak": 5160,
      "Ġmir": 5161,
      "Ġmona": 5162,
      "Äĩina": 5163,
      "fije": 5164,
      "36": 5165,
      "ĠmeÄĳunarodne": 5166,
      "Ġneiz": 5167,
      "ĠBr": 5168,
      "Ġagre": 5169,
      "Ġkar": 5170,
      "ĠÅłu": 5171,
      "Ġzave": 5172,
      "rol": 5173,
      "Ġatmosfe": 5174,
      "ĠPetroviÄĩ": 5175,
      "zolu": 5176,
      "Ġmle": 5177,
      "Ġ------------------------------------------------": 5178,
      "97": 5179,
      "Ġostane": 5180,
      "Ġprocedu": 5181,
      "novima": 5182,
      "Ġporekla": 5183,
      "Ġgranica": 5184,
      "Ġzaro": 5185,
      "ĠSin": 5186,
      "AJ": 5187,
      "jam": 5188,
      "ljeno": 5189,
      "Ġprenosi": 5190,
      "Ġ47": 5191,
      "ĠNaime": 5192,
      "ĠAra": 5193,
      "Ġuprave": 5194,
      "ĠnaÄįina": 5195,
      "rez": 5196,
      "Ġpoto": 5197,
      "Ġleta": 5198,
      "ĠuÄįeÅ¡Äĩe": 5199,
      "Ġspada": 5200,
      "rca": 5201,
      "Ġrazmatra": 5202,
      "Ġtvrde": 5203,
      "EL": 5204,
      "Ġodlazi": 5205,
      "Ġjednako": 5206,
      "Ġuzbu": 5207,
      "98": 5208,
      "ĠSocija": 5209,
      "Ġtakva": 5210,
      "ĠHercegovine": 5211,
      "lista": 5212,
      "Ġturisti": 5213,
      "Ġprvu": 5214,
      "ĠFrancuske": 5215,
      "ljene": 5216,
      "Ġzele": 5217,
      "Ġostrva": 5218,
      "tice": 5219,
      "Ġtraje": 5220,
      "vju": 5221,
      "Ġrevi": 5222,
      "ĠpoÅ¾a": 5223,
      "Ġpoj": 5224,
      "Ġljubav": 5225,
      "ĠSkupÅ¡tine": 5226,
      "Ġredi": 5227,
      "ventua": 5228,
      "Ġglave": 5229,
      "ĠÄįlanu": 5230,
      "tovao": 5231,
      "ĠKli": 5232,
      "Ġproizvodnju": 5233,
      "Ġustanova": 5234,
      "Ġsastoji": 5235,
      "Ġmladih": 5236,
      "Ġfro": 5237,
      "Ġpromeni": 5238,
      "ksua": 5239,
      "ĠpraktiÄįno": 5240,
      "Ġpravosu": 5241,
      "ĠotiÅ¡ao": 5242,
      "ĠsluÄįajevima": 5243,
      "tivu": 5244,
      "ĠToma": 5245,
      "Ġmala": 5246,
      "93": 5247,
      "Å¾bu": 5248,
      "Ġsuse": 5249,
      "Ġ400": 5250,
      "ĠJugoslaviji": 5251,
      "ĠAustra": 5252,
      "lma": 5253,
      "Ġkora": 5254,
      "Ġvarija": 5255,
      "lm": 5256,
      "}-)": 5257,
      "liji": 5258,
      "02": 5259,
      "Ġnapred": 5260,
      "ĠKarad": 5261,
      "klanja": 5262,
      "Ġvrije": 5263,
      "tama": 5264,
      "Ġnes": 5265,
      "ĠÅ¾ivotinja": 5266,
      "Ġdemon": 5267,
      "Ġpriliku": 5268,
      "kovima": 5269,
      "Äįica": 5270,
      "Ġstudija": 5271,
      "ktori": 5272,
      "Ġmodel": 5273,
      "Äĩenje": 5274,
      "ĠSRJ": 5275,
      "Ġnapad": 5276,
      "ĠpolitiÄįka": 5277,
      "Ġzgrade": 5278,
      "ĠSrpska": 5279,
      "Ġbombar": 5280,
      "Ġ1992": 5281,
      "No": 5282,
      "Ġzadatak": 5283,
      "Ġpli": 5284,
      "Ġdefinisa": 5285,
      "ĠpotroÅ¡a": 5286,
      "Ġevropske": 5287,
      "ÄĲ": 5288,
      "Ġspi": 5289,
      "ĠOko": 5290,
      "lizaciju": 5291,
      "Ġnei": 5292,
      "naj": 5293,
      "Ġulazi": 5294,
      "Ġzvezde": 5295,
      "loÅ¡kih": 5296,
      "06": 5297,
      "ĠpokuÅ¡ava": 5298,
      "Ġinstitucije": 5299,
      "Ġvodu": 5300,
      "Å¡teni": 5301,
      "ĠÄĲinÄĳi": 5302,
      "vaca": 5303,
      "ĠpoÄįeli": 5304,
      "Ġprihvata": 5305,
      "Å¡im": 5306,
      "ljno": 5307,
      "Ġulici": 5308,
      "Ġsudu": 5309,
      "Ġprocesu": 5310,
      "Ġformi": 5311,
      "Ġprodaje": 5312,
      "La": 5313,
      "Ġvladaju": 5314,
      "pek": 5315,
      "Ġsaradnji": 5316,
      "ĠSlu": 5317,
      "tivnih": 5318,
      "Å¡tine": 5319,
      "ina": 5320,
      "blo": 5321,
      "ĠmeÄĳuvremenu": 5322,
      "nina": 5323,
      "Ġcve": 5324,
      "Ġnagradu": 5325,
      "Ġstatusa": 5326,
      "dim": 5327,
      "Ġizbegli": 5328,
      "Ġusluge": 5329,
      "govi": 5330,
      "ĠbuduÄĩnosti": 5331,
      "Ġdatu": 5332,
      "Ġusme": 5333,
      "Ġnastu": 5334,
      "ĠPrva": 5335,
      "sisti": 5336,
      "Äįavanje": 5337,
      "Ġrazlika": 5338,
      "Ġsrpsko": 5339,
      "Ġfedera": 5340,
      "Ġkandidata": 5341,
      "Ġmanife": 5342,
      "tam": 5343,
      "Ġorganizova": 5344,
      "Ġstavo": 5345,
      "toviÄĩ": 5346,
      "lizma": 5347,
      "Ġnaslo": 5348,
      "Ġigrao": 5349,
      "burg": 5350,
      "malo": 5351,
      "ĠZatim": 5352,
      "07": 5353,
      "laganje": 5354,
      "Ġodbija": 5355,
      "Ġrezultate": 5356,
      "gr": 5357,
      "Ġkriteriju": 5358,
      "Ġmesec": 5359,
      "njava": 5360,
      "piÅ¡e": 5361,
      "ĠÄįas": 5362,
      "ĠJedna": 5363,
      "Ġnovom": 5364,
      "Ġalba": 5365,
      "teti": 5366,
      "Ġstrada": 5367,
      "ĠduÅ¾nosti": 5368,
      "pera": 5369,
      "Ġznamo": 5370,
      "Ġhap": 5371,
      "ĠpriliÄįno": 5372,
      "38": 5373,
      "stribu": 5374,
      "ĠAleksandra": 5375,
      "Ġnago": 5376,
      "Ġsavlada": 5377,
      "ostalom": 5378,
      "Ġkvadra": 5379,
      "Ġglasova": 5380,
      "ramo": 5381,
      "Ġpala": 5382,
      "ĠkoriÅ¡Äĩenje": 5383,
      "ĠknjiÅ¾evnosti": 5384,
      "Ġ75": 5385,
      "ĠduÅ¾e": 5386,
      "ĠDobro": 5387,
      "Ġubrzo": 5388,
      "Å¾nog": 5389,
      "Ġzanim": 5390,
      "Ġprijatelji": 5391,
      "Ġpreo": 5392,
      "Ġorigina": 5393,
      "Ġport": 5394,
      "Ġkontrolu": 5395,
      "Å¡eno": 5396,
      "Ġdolaze": 5397,
      "Ġgradi": 5398,
      "mentima": 5399,
      "Ġevropskih": 5400,
      "lci": 5401,
      "ĠâĢĻ": 5402,
      "Ġdosada": 5403,
      "Å¡teno": 5404,
      "Ġpostupa": 5405,
      "ĠHaj": 5406,
      "ĠZakona": 5407,
      "Ġtermi": 5408,
      "tive": 5409,
      "Ġgrob": 5410,
      "Ġinterne": 5411,
      "Ġnapu": 5412,
      "Ġkup": 5413,
      "Ġkompozi": 5414,
      "ljive": 5415,
      "ĠTeo": 5416,
      "Ġnepra": 5417,
      "Ġdopi": 5418,
      "Ġklubo": 5419,
      "ĠzloÄįine": 5420,
      "Ġogla": 5421,
      "Ġtekst": 5422,
      "Ġstigao": 5423,
      "Ġljubavi": 5424,
      "Ġpodelje": 5425,
      "ĠVeliki": 5426,
      "Ġrefor": 5427,
      "Ġeventua": 5428,
      "Ġbezbednost": 5429,
      "Ġvidim": 5430,
      "Ġnjenom": 5431,
      "ntno": 5432,
      "Ġmikro": 5433,
      "uli": 5434,
      "Ġraste": 5435,
      "Äįinu": 5436,
      "}-).": 5437,
      "Ġaktue": 5438,
      "Ġjednostavno": 5439,
      "prema": 5440,
      "Ġnastavlja": 5441,
      "ĠÄĮak": 5442,
      "Ġvojni": 5443,
      "Ġposledice": 5444,
      "Ġpopisa": 5445,
      "ĠÄĲe": 5446,
      "ĠSrbima": 5447,
      "skop": 5448,
      "ĠzavrÅ¡": 5449,
      "ĠraÄįun": 5450,
      "ĠâĢĺ": 5451,
      "tnoj": 5452,
      "vidu": 5453,
      "Ġpravcu": 5454,
      "tiji": 5455,
      "Ġsvoja": 5456,
      "Ġispi": 5457,
      "Ġgeneral": 5458,
      "Re": 5459,
      "Ġizlazi": 5460,
      "cionih": 5461,
      "ksija": 5462,
      "Ġmagnituda": 5463,
      "Ġonima": 5464,
      "37": 5465,
      "zio": 5466,
      "Ġvlasnik": 5467,
      "Ġkomple": 5468,
      "Ġobraz": 5469,
      "Ġfunkcija": 5470,
      "Ġaerod": 5471,
      "ĠPetar": 5472,
      "ĠlakÅ¡e": 5473,
      "Ġdelega": 5474,
      "ĠliÄįno": 5475,
      "Bo": 5476,
      "Ġpobede": 5477,
      "Ġkupu": 5478,
      "ĠAnti": 5479,
      "bela": 5480,
      "miji": 5481,
      "Ġfilmu": 5482,
      "Ġispita": 5483,
      "ĠpomoÄĩu": 5484,
      "Ġdalji": 5485,
      "Ġneve": 5486,
      "Ġsino": 5487,
      "Ġprolazi": 5488,
      "Ġpreosta": 5489,
      "65": 5490,
      "Ġsezoni": 5491,
      "Ġpostigao": 5492,
      "Ġkop": 5493,
      "Ġfirme": 5494,
      "ĠÅ¡eÄĩe": 5495,
      "ĠNaro": 5496,
      "Ġreprezentacije": 5497,
      "ĠUkraji": 5498,
      "Ġsovje": 5499,
      "Ġcilju": 5500,
      "Äįnici": 5501,
      "Ġideo": 5502,
      "Ġdelatnosti": 5503,
      "Ġiko": 5504,
      "zove": 5505,
      "Ġmnogih": 5506,
      "ntro": 5507,
      "Ġmobi": 5508,
      "dini": 5509,
      "Ġkore": 5510,
      "ĠFedera": 5511,
      "Ġneophodno": 5512,
      "ĠproÄįi": 5513,
      "ĠNemaÄįke": 5514,
      "Ġneod": 5515,
      "Ġonim": 5516,
      "ĠbeÅ¡e": 5517,
      "Ġizvora": 5518,
      "ĠodreÄĳene": 5519,
      "Ġtzv": 5520,
      "Ġprosve": 5521,
      "ĠoÄįigledno": 5522,
      "ĠnaÅ¡u": 5523,
      "gru": 5524,
      "Ġbogat": 5525,
      "Ġosve": 5526,
      "vska": 5527,
      "lko": 5528,
      "Ġpostignu": 5529,
      "dara": 5530,
      "Ġukaza": 5531,
      "Ġutakmica": 5532,
      "dljivo": 5533,
      "Ġekipa": 5534,
      "ĠVeliko": 5535,
      "NGC": 5536,
      "binu": 5537,
      "Ġpole": 5538,
      "ur": 5539,
      "Ġnajavio": 5540,
      "Äįnije": 5541,
      "ĠBre": 5542,
      "tini": 5543,
      "IJE": 5544,
      "Ġkama": 5545,
      "Ġteritorije": 5546,
      "Ġnjeno": 5547,
      "Ġpristupa": 5548,
      "TA": 5549,
      "mani": 5550,
      "ĠAmerici": 5551,
      "liÄĩa": 5552,
      "Ġpriklju": 5553,
      "Ġsne": 5554,
      "mice": 5555,
      "Ġdepart": 5556,
      "Ġrasta": 5557,
      "rijske": 5558,
      "nulo": 5559,
      "risto": 5560,
      "Ġizbori": 5561,
      "ĠtreÄĩe": 5562,
      "ĠrazliÄįitim": 5563,
      "jali": 5564,
      "Ġuglje": 5565,
      "mskog": 5566,
      "Ġminera": 5567,
      "Ġveruje": 5568,
      "ĠpredviÄĳa": 5569,
      "ĠKraguje": 5570,
      "Ġizre": 5571,
      "en": 5572,
      "Ġtvo": 5573,
      "ĠAh": 5574,
      "Ġsile": 5575,
      "Ġobrazovanja": 5576,
      "Ġnavi": 5577,
      "ĠgraÄĳevi": 5578,
      "Äįaka": 5579,
      "ĠOvde": 5580,
      "Ġautor": 5581,
      "Ġsaradnje": 5582,
      "Ġnajvi": 5583,
      "Ġsastav": 5584,
      "ĠJapa": 5585,
      "Ġprobleme": 5586,
      "Ġknjizi": 5587,
      "Ġizvori": 5588,
      "ĠÅ¡koli": 5589,
      "ĠHali": 5590,
      "Ġhidro": 5591,
      "savlje": 5592,
      "Ġcenu": 5593,
      "ĠUme": 5594,
      "ĠDire": 5595,
      "Äįuju": 5596,
      "Ġnikako": 5597,
      "Ġizu": 5598,
      "Ġmaksima": 5599,
      "ĠuspeÅ¡no": 5600,
      "Ġautomobi": 5601,
      "ĠSme": 5602,
      "ĠizloÅ¾e": 5603,
      "ĠveÅ¡ta": 5604,
      "ĠDS": 5605,
      "Ġinfra": 5606,
      "Ġnosio": 5607,
      "Ġnastavi": 5608,
      "Ġskri": 5609,
      "Ġlegi": 5610,
      "94": 5611,
      "Ġistina": 5612,
      "Ġodvija": 5613,
      "Ġnivoa": 5614,
      "mak": 5615,
      "Ġzastup": 5616,
      "Ġplate": 5617,
      "Ġ65": 5618,
      "Ġistog": 5619,
      "mino": 5620,
      "Ġnapla": 5621,
      "Ġprou": 5622,
      "ĠRusiji": 5623,
      "ĠLuis": 5624,
      "Å¡iÄĩa": 5625,
      "pta": 5626,
      "Ġbazi": 5627,
      "Ġstudije": 5628,
      "ĠoÄįima": 5629,
      "Ġvrhu": 5630,
      "Ġmasu": 5631,
      "Ġomladi": 5632,
      "Ġpobedu": 5633,
      "Ġnavode": 5634,
      "ker": 5635,
      "ĠMoÅ¾e": 5636,
      "Ġpoljoprivre": 5637,
      "Ġpotrebna": 5638,
      "ĠÅ¡pa": 5639,
      "ĠOve": 5640,
      "Ġizabran": 5641,
      "jednom": 5642,
      "Ġplanu": 5643,
      "Ġape": 5644,
      "nora": 5645,
      "Ġdro": 5646,
      "ĠKne": 5647,
      "ĠPovrÅ¡i": 5648,
      "Ġposlednja": 5649,
      "Ġnere": 5650,
      "snoj": 5651,
      "Ġideje": 5652,
      "Ġkonferenciji": 5653,
      "Ġterenu": 5654,
      "rizo": 5655,
      "ĠmeÄį": 5656,
      "Äįice": 5657,
      "Ġjedva": 5658,
      "ĠVojvodine": 5659,
      "para": 5660,
      "ĠdrugaÄįije": 5661,
      "Ġjavnih": 5662,
      "Ġvole": 5663,
      "ĠÅ¾ivotne": 5664,
      "ĠNjiho": 5665,
      "ĠBel": 5666,
      "ĠMislim": 5667,
      "ĠkoÅ¡arka": 5668,
      "Äįnika": 5669,
      "Ġnazivom": 5670,
      "ĠtrÅ¾iÅ¡ta": 5671,
      "ĠÅłvajca": 5672,
      "ĠtrÅ¾iÅ¡te": 5673,
      "Ġtribuna": 5674,
      "Ġargu": 5675,
      "ĠameriÄįke": 5676,
      "vera": 5677,
      "Ġkrvi": 5678,
      "ĠSpe": 5679,
      "Ġmra": 5680,
      "ĠzvaniÄįno": 5681,
      "ĠpolitiÄįkog": 5682,
      "Ġospo": 5683,
      "ĠNemaÄįkoj": 5684,
      "Ġilu": 5685,
      "Ġdug": 5686,
      "Ġ\"\"": 5687,
      "ĠsledeÄĩi": 5688,
      "dena": 5689,
      "EM": 5690,
      "Ġzanima": 5691,
      "Ġstupa": 5692,
      "ĠStefa": 5693,
      "stog": 5694,
      "Ġkomisije": 5695,
      "Ġstatisti": 5696,
      "Ġnezavisnost": 5697,
      "ĠSadu": 5698,
      "Ġpredmeta": 5699,
      "tivan": 5700,
      "ĠÅ¾rtve": 5701,
      "ĠNarodne": 5702,
      "Ġostalim": 5703,
      "Ġkorist": 5704,
      "Ġobjavlji": 5705,
      "Ġnegde": 5706,
      "ĠpovreÄĳe": 5707,
      "Ġbritan": 5708,
      "pote": 5709,
      "ĠnaÅ¡ao": 5710,
      "dovolj": 5711,
      "Ġsila": 5712,
      "Ġozbiljno": 5713,
      "Ġlitera": 5714,
      "AG": 5715,
      "ĠPer": 5716,
      "Ġevi": 5717,
      "Ġnjihovi": 5718,
      "Ġud": 5719,
      "ĠdrÅ¾avnih": 5720,
      "ĠobjaÅ¡nje": 5721,
      "Ġdode": 5722,
      "tela": 5723,
      "Ġvoli": 5724,
      "Ġjavne": 5725,
      "Ġnjom": 5726,
      "gara": 5727,
      "Ġgala": 5728,
      "ĠDÅ¾on": 5729,
      "Ġlibera": 5730,
      "vljuju": 5731,
      "Ġrezultata": 5732,
      "aru": 5733,
      "rizma": 5734,
      "47": 5735,
      "ĠSjedinje": 5736,
      "ĠpovrÅ¡ine": 5737,
      "ĠÅ¾al": 5738,
      "rnosti": 5739,
      "Ġinfrastruktu": 5740,
      "Ġpozdra": 5741,
      "ĠEgi": 5742,
      "ĠKata": 5743,
      "}-\")": 5744,
      "Ġ42": 5745,
      "rde": 5746,
      "Ġbici": 5747,
      "Ġstavlja": 5748,
      "Ġdevede": 5749,
      "Ġbrani": 5750,
      "Ġresu": 5751,
      "Ġdovodi": 5752,
      "ĠtaÄįke": 5753,
      "gana": 5754,
      "ĠNovo": 5755,
      "dbe": 5756,
      "ĠunutraÅ¡njih": 5757,
      "Ġbla": 5758,
      "SP": 5759,
      "klinacija": 5760,
      "kso": 5761,
      "ĠGran": 5762,
      "Ġusvoje": 5763,
      "Ġopasnosti": 5764,
      "Ġselja": 5765,
      "Ġnjihovu": 5766,
      "ĠmreÅ¾e": 5767,
      "Ġsukoba": 5768,
      "Ġdre": 5769,
      "sanja": 5770,
      "Ġpolufina": 5771,
      "ela": 5772,
      "Ġtrenutak": 5773,
      "tion": 5774,
      "Ġprethodno": 5775,
      "46": 5776,
      "Ġupotreblja": 5777,
      "Ġ1990": 5778,
      "Ġkontine": 5779,
      "Ġsagovorni": 5780,
      "Ġodgovornosti": 5781,
      "Ġbaca": 5782,
      "Ġdobre": 5783,
      "broj": 5784,
      "lsi": 5785,
      "bert": 5786,
      "ĠVuk": 5787,
      "Ġpokazuju": 5788,
      "cent": 5789,
      "OP": 5790,
      "!âĢľ": 5791,
      "ĠsliÄįno": 5792,
      "Ġkrsta": 5793,
      "lit": 5794,
      "rove": 5795,
      "Ġprosla": 5796,
      "Ġvojne": 5797,
      "Politiku": 5798,
      "ĠbuduÄĩnost": 5799,
      "jera": 5800,
      "liju": 5801,
      "Ġimovi": 5802,
      "ĠSvetog": 5803,
      "Ġopisa": 5804,
      "Ġslobodu": 5805,
      "Ġkakve": 5806,
      "gita": 5807,
      "Ġnepro": 5808,
      "Ġmoramo": 5809,
      "Ġizvr": 5810,
      "ĠRS": 5811,
      "desetak": 5812,
      "Ġumro": 5813,
      "turi": 5814,
      "Ġrazlike": 5815,
      "Do": 5816,
      "ĠpojaÄįa": 5817,
      "Ġokupa": 5818,
      "Ġspra": 5819,
      "ntima": 5820,
      "Äįeva": 5821,
      "Ġporeme": 5822,
      "ĠvaÅ¾i": 5823,
      "Ġprvenstva": 5824,
      "ljka": 5825,
      "lera": 5826,
      "ima": 5827,
      "Ġkakva": 5828,
      "Ġtrener": 5829,
      "Ġtranzi": 5830,
      "Ġstara": 5831,
      "ĠHolan": 5832,
      "upotre": 5833,
      "tala": 5834,
      "Ġodusta": 5835,
      "Ġimovine": 5836,
      "Ġpraz": 5837,
      "Ġisla": 5838,
      "Ġpodignu": 5839,
      "novo": 5840,
      "Ġkoncentra": 5841,
      "Ġnekako": 5842,
      "diji": 5843,
      "ĠzaÅ¡titi": 5844,
      "Ġnajsta": 5845,
      "Ġistoriju": 5846,
      "Ġhero": 5847,
      "Ġsame": 5848,
      "ĠkÄĩe": 5849,
      "Ġnjema": 5850,
      "Å¾nih": 5851,
      "Ġstvarno": 5852,
      "Ġ1995": 5853,
      "Ġevro": 5854,
      "Ġgrupu": 5855,
      "Ġdogodilo": 5856,
      "rona": 5857,
      "Ġvrstu": 5858,
      "gare": 5859,
      "Ġmono": 5860,
      "Ġzauzima": 5861,
      "Ġodobre": 5862,
      "Ġzra": 5863,
      "Ġbana": 5864,
      "ĠodluÄįio": 5865,
      "Ġkontek": 5866,
      "ĠodgovarajuÄĩi": 5867,
      "gva": 5868,
      "ĠDin": 5869,
      "ĠprekrÅ¡a": 5870,
      "laÅ¾u": 5871,
      "Ġmatemati": 5872,
      "ĠUm": 5873,
      "Ġsni": 5874,
      "Ġsrce": 5875,
      "ĠVrho": 5876,
      "ĠGora": 5877,
      "Ġel": 5878,
      "ĠGre": 5879,
      "Ġnjihovom": 5880,
      "Ġzapre": 5881,
      "loÅ¡ke": 5882,
      "Ġzdravlje": 5883,
      "tove": 5884,
      "Ġsnabde": 5885,
      "ĠNovog": 5886,
      "ut": 5887,
      "Å¾avaju": 5888,
      "Ġrobe": 5889,
      "konstru": 5890,
      "Ġprodaju": 5891,
      "Ġuticaja": 5892,
      "KA": 5893,
      "ljuje": 5894,
      "ĠuÅ¾a": 5895,
      "zil": 5896,
      "jica": 5897,
      "Ġnagrade": 5898,
      "gama": 5899,
      "Ġpomisli": 5900,
      "Ġautomobila": 5901,
      "Ġobrazovanje": 5902,
      "nza": 5903,
      "Ġpija": 5904,
      "ĠZakon": 5905,
      "ĠpoÅ¡tu": 5906,
      "CG": 5907,
      "Ġdostup": 5908,
      "Ġpogla": 5909,
      "ĠsluÅ¾bi": 5910,
      "Ġnacija": 5911,
      "Ġrast": 5912,
      "Ġisporu": 5913,
      "Ġrazgovora": 5914,
      "lde": 5915,
      "Ġusvoji": 5916,
      "Ġoblast": 5917,
      "Ġljudska": 5918,
      "Ġruski": 5919,
      "Ġflo": 5920,
      "janja": 5921,
      "Ġ58": 5922,
      "Ġobjasnio": 5923,
      "Ġraznih": 5924,
      "loge": 5925,
      "ĠznaÄįajno": 5926,
      "ĠÄįitao": 5927,
      "ĠgradonaÄįe": 5928,
      "Ġpreuzima": 5929,
      "Ġsuve": 5930,
      "ĠnaoruÅ¾a": 5931,
      "ĠmiÅ¡ljenja": 5932,
      "Ġnezavisnosti": 5933,
      "ĠuÄįestvovao": 5934,
      "Ġnaime": 5935,
      "ĠBila": 5936,
      "76": 5937,
      "ID": 5938,
      "NO": 5939,
      "Ġrumu": 5940,
      "Ġobezbedi": 5941,
      "ĠpodruÄįje": 5942,
      "kati": 5943,
      "Ġpolja": 5944,
      "Ġekipe": 5945,
      "Ġnavodno": 5946,
      "hija": 5947,
      "Ġvaro": 5948,
      "ĠÃ": 5949,
      "Ġsigna": 5950,
      "Ġpredi": 5951,
      "ĠproÅ¡log": 5952,
      "Ġmestima": 5953,
      "socija": 5954,
      "leva": 5955,
      "ĠPovrÅ¡ina": 5956,
      "dovima": 5957,
      "ĠÄįim": 5958,
      "Ġosnovne": 5959,
      "lte": 5960,
      "Ġpoznata": 5961,
      "ns": 5962,
      "Ġpredme": 5963,
      "jala": 5964,
      "zivanje": 5965,
      "Ġrazne": 5966,
      "Ġkontra": 5967,
      "Ġ56": 5968,
      "Å¾im": 5969,
      "zin": 5970,
      "siste": 5971,
      "Ġ(,": 5972,
      "34": 5973,
      "Ġbru": 5974,
      "sani": 5975,
      "gno": 5976,
      "ĠKova": 5977,
      "Ġodsu": 5978,
      "Ġsrednjo": 5979,
      "Ġopasnost": 5980,
      "kinja": 5981,
      "Ġretko": 5982,
      "Ġplasi": 5983,
      "Äįani": 5984,
      "Ġspolja": 5985,
      "vaÄįki": 5986,
      "ĠokonÄįa": 5987,
      "rnice": 5988,
      "Ġostati": 5989,
      "ĠMiloÅ¡": 5990,
      "ĠÅ¾eleo": 5991,
      "ĠduÅ¡e": 5992,
      "Ġizvu": 5993,
      "Ġastro": 5994,
      "hua": 5995,
      "ĠÅ¡if": 5996,
      "ĠKalifor": 5997,
      "ĠLjubi": 5998,
      "Ġstariji": 5999,
      "Ġnauke": 6000,
      "ĠMari": 6001,
      "Ġljudskih": 6002,
      "grada": 6003,
      "ĠDr": 6004,
      "ĠPara": 6005,
      "Ġmore": 6006,
      "puta": 6007,
      "Ġalterna": 6008,
      "Ġgimna": 6009,
      "Ġneprijatelj": 6010,
      "Ġzate": 6011,
      "Ġstvore": 6012,
      "tsku": 6013,
      "Ġdoneo": 6014,
      "Ġgasa": 6015,
      "Ġposlanika": 6016,
      "ljda": 6017,
      "Ġorgan": 6018,
      "Ġjugu": 6019,
      "Ġreferen": 6020,
      "31": 6021,
      "Ġmati": 6022,
      "Ġogleda": 6023,
      "Ġuloga": 6024,
      "Ġprate": 6025,
      "Ġdoprine": 6026,
      "Ġsateli": 6027,
      "Ġ186": 6028,
      "pili": 6029,
      "ĠSti": 6030,
      "nut": 6031,
      "Ġote": 6032,
      "ĠDSS": 6033,
      "Å¡nih": 6034,
      "nema": 6035,
      "Ġsituacije": 6036,
      "Å¡enju": 6037,
      "ĠDuÅ¡an": 6038,
      "Ġutisak": 6039,
      "ĠSlika": 6040,
      "noda": 6041,
      "Ġlige": 6042,
      "vava": 6043,
      "Ġmakar": 6044,
      "Ġ&": 6045,
      "Ġpisac": 6046,
      "ĠuobiÄįaje": 6047,
      "Äĳani": 6048,
      "ĠOdlu": 6049,
      "ĠÄįuva": 6050,
      "Ġsnim": 6051,
      "Ġ2015": 6052,
      "ĠsveÅ¡te": 6053,
      "Ġistu": 6054,
      "rim": 6055,
      "Ġpritisak": 6056,
      "rika": 6057,
      "ĠSred": 6058,
      "Ġmasa": 6059,
      "ĠAd": 6060,
      "Ġnovinare": 6061,
      "Ġgradova": 6062,
      "Ġmarke": 6063,
      "Ġserija": 6064,
      "ĠNiÅ¡u": 6065,
      "91": 6066,
      "sobno": 6067,
      "Ġ(;": 6068,
      "diju": 6069,
      "Ġdove": 6070,
      "ĠKoÅ¡tunica": 6071,
      "ĠuÄĳe": 6072,
      "Ġekonomski": 6073,
      "Ġposloda": 6074,
      "tana": 6075,
      "Ġrukom": 6076,
      "Ġizgubio": 6077,
      "ĠBrise": 6078,
      "niku": 6079,
      "Å¡le": 6080,
      "Ġrazno": 6081,
      "Å¡eviÄĩ": 6082,
      "Ġlet": 6083,
      "Ġkorisnika": 6084,
      "Ġizvor": 6085,
      "Ġzali": 6086,
      "ĠpoÄįne": 6087,
      "nogra": 6088,
      "Ġubrza": 6089,
      "Ġnespo": 6090,
      "Ġrecep": 6091,
      "slobo": 6092,
      "Ġdistribu": 6093,
      "jekto": 6094,
      "32": 6095,
      "Ġduboko": 6096,
      "Å¾avanje": 6097,
      "Ġzagre": 6098,
      "Ġobzir": 6099,
      "Ġizgradnju": 6100,
      "Ġroditelji": 6101,
      "njenja": 6102,
      "ĠdrugaÄįi": 6103,
      "ĠEko": 6104,
      "Ġtende": 6105,
      "Ġratne": 6106,
      "Ġenzim": 6107,
      "Ġdubokog": 6108,
      "Ġrelativno": 6109,
      "ĠUdru": 6110,
      "Ġpromo": 6111,
      "ljan": 6112,
      "ĠST": 6113,
      "ĠSovje": 6114,
      "ĠJere": 6115,
      "ĠizveÅ¡taj": 6116,
      "Ġmorala": 6117,
      "Ġindividu": 6118,
      "rÅ¡a": 6119,
      "let": 6120,
      "ĠMili": 6121,
      "teri": 6122,
      "Ġukazuje": 6123,
      "Ġosvojila": 6124,
      "ĠSle": 6125,
      "doviÄĩ": 6126,
      "por": 6127,
      "Ġnjenim": 6128,
      "Ġvisine": 6129,
      "ĠnajveÄĩe": 6130,
      "ĠsediÅ¡te": 6131,
      "las": 6132,
      "Ġsvetski": 6133,
      "ĠHercegovini": 6134,
      "Ġpost": 6135,
      "Ġeksploa": 6136,
      "manti": 6137,
      "ĠRTS": 6138,
      "Ġslovena": 6139,
      "Ġfazi": 6140,
      "ĠParizu": 6141,
      "Ġklase": 6142,
      "Å¡njo": 6143,
      "Ġaktivi": 6144,
      "jev": 6145,
      "vite": 6146,
      "ĠAj": 6147,
      "Ġemo": 6148,
      "ĠAnÄĳe": 6149,
      "Ġgene": 6150,
      "Je": 6151,
      "Ġfinansija": 6152,
      "Ġprezi": 6153,
      "Ġsvje": 6154,
      "spekti": 6155,
      "stveno": 6156,
      "Ġpokazao": 6157,
      "Ġ1998": 6158,
      "Ġnovinar": 6159,
      "Ġolak": 6160,
      "Ġthe": 6161,
      "ĠZaje": 6162,
      "ĠKoliko": 6163,
      "Ġumi": 6164,
      "Å¾enih": 6165,
      "Ġorije": 6166,
      "Ġpojedinih": 6167,
      "ĠSPS": 6168,
      "Ġzavisnosti": 6169,
      "glu": 6170,
      "tur": 6171,
      "ĠÅ¡ti": 6172,
      "ĠBoga": 6173,
      "Å¾nim": 6174,
      "Ġizraz": 6175,
      "danje": 6176,
      "Ġradom": 6177,
      "Ġjedina": 6178,
      "Ġnjenih": 6179,
      "ĠFon": 6180,
      "ĠoruÅ¾ja": 6181,
      "Ġautora": 6182,
      "Ġintervju": 6183,
      "ĠstanovniÅ¡tvo": 6184,
      "Ġiskustva": 6185,
      "rusa": 6186,
      "ĠNjegov": 6187,
      "Ġeta": 6188,
      "stor": 6189,
      "Ġdecenija": 6190,
      "Å¾Äĳu": 6191,
      "Ġgosti": 6192,
      "Ġstotina": 6193,
      "IÄĨ": 6194,
      "niÅ¡te": 6195,
      "Ġpoziv": 6196,
      "III": 6197,
      "genti": 6198,
      "Ġuspeli": 6199,
      "Ġpokret": 6200,
      "ĠmuÅ¡karaca": 6201,
      "Ġosnova": 6202,
      "Ġtitulu": 6203,
      "Ġber": 6204,
      "Ġrukovod": 6205,
      "ĠdoÅ¾ivlja": 6206,
      "cka": 6207,
      "Ġzabri": 6208,
      "ĠFlo": 6209,
      "Ġstri": 6210,
      "ĠMUP": 6211,
      "Ġsk": 6212,
      "Ġprefe": 6213,
      "Ġzase": 6214,
      "Ġopsta": 6215,
      "Ġdesetak": 6216,
      "Ġdokaz": 6217,
      "39": 6218,
      "Se": 6219,
      "ĠTama": 6220,
      "Ġtoplo": 6221,
      "listiÄįke": 6222,
      "Ġmedijima": 6223,
      "ĠMiloÅ¡eviÄĩa": 6224,
      "To": 6225,
      "Ġgri": 6226,
      "ĠSubo": 6227,
      "Ġjezera": 6228,
      "ĠIliÄĩ": 6229,
      "Ġsaveza": 6230,
      "Ġinsisti": 6231,
      "Ġprvobi": 6232,
      "ĠKre": 6233,
      "Ġnovinara": 6234,
      "Ġzloupotre": 6235,
      "Ġslabo": 6236,
      "Ġrezultati": 6237,
      "Ġmase": 6238,
      "Ġprostire": 6239,
      "Äĩan": 6240,
      "Ġkapitala": 6241,
      "Ġstopa": 6242,
      "ĠpriÄįu": 6243,
      "vak": 6244,
      "Ġlistu": 6245,
      "lizova": 6246,
      "Å¡ina": 6247,
      "ĠBogo": 6248,
      "Ġuvi": 6249,
      "Ġregula": 6250,
      "Ġnarodu": 6251,
      "priÄįa": 6252,
      "Ġslobodno": 6253,
      "Ġpad": 6254,
      "Ġkoor": 6255,
      "Ġjugoisto": 6256,
      "Ġvelikoj": 6257,
      "ĠdrÅ¾avnog": 6258,
      "ĠOa": 6259,
      "ĠoptuÅ¾": 6260,
      "ĠZar": 6261,
      "kturi": 6262,
      "ĠjaÄįa": 6263,
      "Ġsrednje": 6264,
      "Ġmiro": 6265,
      "Ġtakvih": 6266,
      "Ġneuspe": 6267,
      "Ġnajo": 6268,
      "ĠmoÅ¾ete": 6269,
      "ĠodrÅ¾avanje": 6270,
      "ĠsluÄįajeva": 6271,
      "Ġprinu": 6272,
      "Ġkombina": 6273,
      "ĠomoguÄĩava": 6274,
      "Ġw": 6275,
      "Ġlogo": 6276,
      "Ġkontrole": 6277,
      "ĠVasi": 6278,
      "ĠDonja": 6279,
      "77": 6280,
      "koho": 6281,
      "Ġrastu": 6282,
      "Ġtelevizi": 6283,
      "Ġnaseljenosti": 6284,
      "ĠKonsta": 6285,
      "ĠPrvog": 6286,
      "Ġautobu": 6287,
      "Ġnagrada": 6288,
      "nj": 6289,
      "Ġpripadnika": 6290,
      "BA": 6291,
      "Ġkrup": 6292,
      "Ġnalazio": 6293,
      "ĠkreÄĩe": 6294,
      "lila": 6295,
      "ram": 6296,
      "dimo": 6297,
      "Ġinostranstvu": 6298,
      "ĠÄĩete": 6299,
      "Ġimam": 6300,
      "55": 6301,
      "pula": 6302,
      "Ġutakmici": 6303,
      "viju": 6304,
      "Ġvazduho": 6305,
      "09": 6306,
      "ĠduÅ¾an": 6307,
      "Ġsumnja": 6308,
      "Ġekonomije": 6309,
      "ĠsrediÅ¡ta": 6310,
      "}--": 6311,
      "Ġsvetske": 6312,
      "Ġkoristiti": 6313,
      "voz": 6314,
      "gram": 6315,
      "ĠÅ¾elezni": 6316,
      "Ġtona": 6317,
      "ĠViso": 6318,
      "rpe": 6319,
      "ĠNjegova": 6320,
      "tivnu": 6321,
      "Ġfotograf": 6322,
      "Ġleto": 6323,
      "Ġkomunisti": 6324,
      "ĠValje": 6325,
      "Ġmemo": 6326,
      "ĠmiÅ¡ljenju": 6327,
      "ĠMihaj": 6328,
      "njak": 6329,
      "Ġroman": 6330,
      "tsko": 6331,
      "Ġsrednjoj": 6332,
      "Ġsubo": 6333,
      "stiÄĩ": 6334,
      "Ġpapi": 6335,
      "Ġusvaja": 6336,
      "Ġrezultatima": 6337,
      "Ġmom": 6338,
      "ranu": 6339,
      "ĠSlova": 6340,
      "ĠPret": 6341,
      "Ġuga": 6342,
      "ĠMaj": 6343,
      "Ġpominje": 6344,
      "Ġpesni": 6345,
      "ĠgraÄĳanima": 6346,
      "sk": 6347,
      "ĠÄĮivava": 6348,
      "Ġ41": 6349,
      "ĠÅ¡iri": 6350,
      "ĠRoÄĳen": 6351,
      "ĠJosi": 6352,
      "ros": 6353,
      "ĠCrno": 6354,
      "Ġmodela": 6355,
      "Ġnose": 6356,
      "redne": 6357,
      "ĠreÅ¾ima": 6358,
      "hni": 6359,
      "ĠNisam": 6360,
      "Ġdevedese": 6361,
      "lda": 6362,
      "han": 6363,
      "ĠdoÅ¡la": 6364,
      "Ġupotrebu": 6365,
      "41": 6366,
      "mbi": 6367,
      "ĠRad": 6368,
      "ĠDÅ¾or": 6369,
      "mla": 6370,
      "Ġmisle": 6371,
      "gura": 6372,
      "ĠznaÄįenje": 6373,
      "tivnom": 6374,
      "Ġkonzu": 6375,
      "Ġpublika": 6376,
      "Ġpis": 6377,
      "Ġmlade": 6378,
      "Ġfinalu": 6379,
      "ĠnemaÄįki": 6380,
      "Ġnoge": 6381,
      "Ġdimen": 6382,
      "rnika": 6383,
      "ljub": 6384,
      "ĠItalije": 6385,
      "Ġdomo": 6386,
      "Ġporodici": 6387,
      "Ġodbor": 6388,
      "ĠIza": 6389,
      "keta": 6390,
      "Ġklima": 6391,
      "ĠÅ¡uma": 6392,
      "ĠuÄįestvuje": 6393,
      "sona": 6394,
      "Ġizvi": 6395,
      "Ġpriori": 6396,
      "ĠigraÄį": 6397,
      "Ġdije": 6398,
      "Ġulice": 6399,
      "ĠÄįinjenice": 6400,
      "Ġvladavine": 6401,
      "ljana": 6402,
      "Ġzatvara": 6403,
      "ĠBoÅ¾i": 6404,
      "Ġpristu": 6405,
      "Ġgovora": 6406,
      "lik": 6407,
      "ĠMnogi": 6408,
      "bje": 6409,
      "ĠodrÅ¾i": 6410,
      "leta": 6411,
      "ĠRadio": 6412,
      "Ġ----------------------------------------------------------": 6413,
      "ptu": 6414,
      "Ġopreme": 6415,
      "Ġrekta": 6416,
      "ĠVuka": 6417,
      "smos": 6418,
      "dnicima": 6419,
      "ljivi": 6420,
      "haka": 6421,
      "Ġteksta": 6422,
      "Ġosla": 6423,
      "ĠtroÅ¡kova": 6424,
      "vaÄįke": 6425,
      "Ġpojave": 6426,
      "Ġpomogne": 6427,
      "Ġnikakve": 6428,
      "Ġpuko": 6429,
      "Ġsveti": 6430,
      "ĠDimit": 6431,
      "ĠzemljiÅ¡ta": 6432,
      "vodio": 6433,
      "gent": 6434,
      "Ġrazgovor": 6435,
      "Ġupisa": 6436,
      "ĠtuÅ¾io": 6437,
      "ĠuÄįinio": 6438,
      "Ġserije": 6439,
      "Ġvezu": 6440,
      "Ġustanove": 6441,
      "nosu": 6442,
      "ĠDÅ¾o": 6443,
      "Ġlega": 6444,
      "tost": 6445,
      "Ġpovrede": 6446,
      "Å¡avaju": 6447,
      "ĠDeklinacija": 6448,
      "Ġrektasce": 6449,
      "igra": 6450,
      "Ġimeno": 6451,
      "Ġala": 6452,
      "IM": 6453,
      "novac": 6454,
      "logiji": 6455,
      "Ġmorali": 6456,
      "Ġrektascenzija": 6457,
      "Ġmorati": 6458,
      "Ġcari": 6459,
      "Ġfrancuski": 6460,
      "Ġjavni": 6461,
      "Ġiskre": 6462,
      "Ġpam": 6463,
      "ĠodreÄĳuje": 6464,
      "NE": 6465,
      "Å¾avanja": 6466,
      "Ġsituaciju": 6467,
      "vidna": 6468,
      "ĠnajveÄĩa": 6469,
      "Ġpotreba": 6470,
      "Ġbombardo": 6471,
      "ĠveÄĩu": 6472,
      "Ġstana": 6473,
      "rero": 6474,
      "Ġpoziva": 6475,
      "riÅ¡u": 6476,
      "Ġcara": 6477,
      "it": 6478,
      "Ġdovede": 6479,
      "lej": 6480,
      "Ġprednost": 6481,
      "Ġagencije": 6482,
      "Ġsuprot": 6483,
      "Ġbaze": 6484,
      "Ġtransport": 6485,
      "ĠvaÅ¡e": 6486,
      "Ġalbum": 6487,
      "ĪĴ": 6488,
      "kate": 6489,
      "Ġagencija": 6490,
      "Beograd": 6491,
      "Ġintereso": 6492,
      "rtuga": 6493,
      "tiju": 6494,
      "ĠÄįuo": 6495,
      "ĠKori": 6496,
      "Ġsrca": 6497,
      "ĠÅ¡ire": 6498,
      "Ġponavlja": 6499,
      "Å¡avanja": 6500,
      "timo": 6501,
      "ĠtuÅ¾i": 6502,
      "rijama": 6503,
      "loÅ¾i": 6504,
      "berg": 6505,
      "Å¡ene": 6506,
      "Å¡ih": 6507,
      "Ġdecenije": 6508,
      "Ġminutu": 6509,
      "ĠOli": 6510,
      "ĠCvet": 6511,
      "ĠLondonu": 6512,
      "Ġopse": 6513,
      "ĠSer": 6514,
      "ĠTomi": 6515,
      "Ġsvetskom": 6516,
      "Äįenih": 6517,
      "vce": 6518,
      "Ġmaterijal": 6519,
      "leme": 6520,
      "Äįeki": 6521,
      "Ġopro": 6522,
      "vencija": 6523,
      "Å¡avanje": 6524,
      "Äįilo": 6525,
      "mili": 6526,
      "Äįim": 6527,
      "Ġnasilja": 6528,
      "rskim": 6529,
      "valu": 6530,
      "Ġsvije": 6531,
      "Ġ(-": 6532,
      "Ġuglja": 6533,
      "Ġsrpskim": 6534,
      "ĠGri": 6535,
      "izvo": 6536,
      "ĠHalisko": 6537,
      "stiÄįke": 6538,
      "hodno": 6539,
      "Ġglavi": 6540,
      "ĠveÄĩinu": 6541,
      "Ġprivreme": 6542,
      "lizaciji": 6543,
      "kopa": 6544,
      "Ġcelu": 6545,
      "Ġvatre": 6546,
      "komu": 6547,
      "Ġvideli": 6548,
      "ĠDani": 6549,
      "Ġmilion": 6550,
      "ljava": 6551,
      "ĠNu": 6552,
      "Ġprijatelja": 6553,
      "Ġbrod": 6554,
      "ĠnajveÄĩih": 6555,
      "Ġmanifesta": 6556,
      "mne": 6557,
      "Ġdvori": 6558,
      "ĠIzvo": 6559,
      "ĠNemaÄįka": 6560,
      "nuta": 6561,
      "Ġspisa": 6562,
      "Ġstranaka": 6563,
      "ĠY": 6564,
      "Ġ-----------------------------------------------------------": 6565,
      "ĠmeÄĳunarodnim": 6566,
      "Ġodakle": 6567,
      "Ġregionalnu": 6568,
      "Å¡tima": 6569,
      "Ġvodio": 6570,
      "Ġsituaciji": 6571,
      "ĠmaÄĳa": 6572,
      "Ġmolekul": 6573,
      "Ġnedelju": 6574,
      "Ġpome": 6575,
      "Ġdelovima": 6576,
      "FR": 6577,
      "Ġobali": 6578,
      "ĠMakedonije": 6579,
      "dnji": 6580,
      "Ġraspro": 6581,
      "duÅ¡e": 6582,
      "ĠGva": 6583,
      "Ġsceni": 6584,
      "Ġzar": 6585,
      "Ġvolje": 6586,
      "Ġbuga": 6587,
      "ol": 6588,
      "mskih": 6589,
      "Ġkomisija": 6590,
      "Ġ57": 6591,
      "Ġprivla": 6592,
      "Ġnacionalni": 6593,
      "rnica": 6594,
      "rce": 6595,
      "Ġbalka": 6596,
      "Ġsru": 6597,
      "ĠMilu": 6598,
      "Ġpobedio": 6599,
      "ĠSaveza": 6600,
      "Ġzaga": 6601,
      "Ġsav": 6602,
      "Ġrizika": 6603,
      "ĠHan": 6604,
      "Ġstrah": 6605,
      "Ġpravom": 6606,
      "Ġsimboli": 6607,
      "Ġinci": 6608,
      "Ġute": 6609,
      "Ġatoma": 6610,
      "lez": 6611,
      "Ġdosto": 6612,
      "ĠudruÅ¾enja": 6613,
      "Ġpesma": 6614,
      "piju": 6615,
      "ĠÅłved": 6616,
      "42": 6617,
      "Ġdepartmanu": 6618,
      "Ġeto": 6619,
      "Ġdonese": 6620,
      "ĠobraÄĩa": 6621,
      "Ġise": 6622,
      "Ġvese": 6623,
      "Ġzaroblje": 6624,
      "Ġbrita": 6625,
      "Ġnajboljih": 6626,
      "Ġstranih": 6627,
      "Ġdeluje": 6628,
      "Å¡om": 6629,
      "Ġnacionalnih": 6630,
      "Ġfonda": 6631,
      "ĠoruÅ¾je": 6632,
      "ĠÅ¡tra": 6633,
      "vskom": 6634,
      "ĠLuka": 6635,
      "ĠÄįitav": 6636,
      "ljem": 6637,
      "Äĩuju": 6638,
      "Ġodavno": 6639,
      "ĠpolitiÄįkim": 6640,
      "Ġmuzike": 6641,
      "Å¾ak": 6642,
      "Ġpregovara": 6643,
      "Ġinteresu": 6644,
      "Ġjesu": 6645,
      "Ġdomina": 6646,
      "ĠÅ½a": 6647,
      "Ġpojava": 6648,
      "preme": 6649,
      "gt": 6650,
      "Ġalkoho": 6651,
      "Ġporeza": 6652,
      "Ġpolitici": 6653,
      "ĠÅłko": 6654,
      "biÄĩ": 6655,
      "Ġisho": 6656,
      "Ġaust": 6657,
      "evrop": 6658,
      "ĠIC": 6659,
      "Ġkonja": 6660,
      "Ġmedalju": 6661,
      "gel": 6662,
      "Ġglavom": 6663,
      "Ġmogle": 6664,
      "tovima": 6665,
      "ES": 6666,
      "Ġmjestu": 6667,
      "Ġoznakama": 6668,
      "Ġkomandan": 6669,
      "ĠDva": 6670,
      "ĠOrgani": 6671,
      "ĠÄĩelija": 6672,
      "ĠKore": 6673,
      "Ġ85": 6674,
      "ĠizvrÅ¡": 6675,
      "ĠFu": 6676,
      "nes": 6677,
      "ĠUÄįe": 6678,
      "Å¾alost": 6679,
      "ĠXV": 6680,
      "don": 6681,
      "ĠAmerike": 6682,
      "ĠPartizana": 6683,
      "Ġvladu": 6684,
      "ĠbivÅ¡eg": 6685,
      "Ġstudent": 6686,
      "ĠnajznaÄįaj": 6687,
      "Ġadre": 6688,
      "ĠodrÅ¾ava": 6689,
      "Ġprilago": 6690,
      "Ġcrkvi": 6691,
      "ĠpoloÅ¾aja": 6692,
      "meÄĳu": 6693,
      "ĠÄįuje": 6694,
      "Ġ2016": 6695,
      "savljeviÄĩ": 6696,
      "ĠBru": 6697,
      "Ġobrati": 6698,
      "Ġpartiza": 6699,
      "ĠGlavni": 6700,
      "Ġrekonstru": 6701,
      "ĠmeÄĳunarodnih": 6702,
      "vanu": 6703,
      "lske": 6704,
      "Ġrekli": 6705,
      "znih": 6706,
      "ĠPeÅ¡Äįanik": 6707,
      "Ġkaza": 6708,
      "Ġorbi": 6709,
      "ĠjuÅ¾no": 6710,
      "ĠutiÄįe": 6711,
      "ĠOahaka": 6712,
      "Ġfakultetu": 6713,
      "Ġseveru": 6714,
      "Å¾ivanja": 6715,
      "AK": 6716,
      "Ġcarstva": 6717,
      "Ġsudije": 6718,
      "Ġradnici": 6719,
      "43": 6720,
      "Ġ1996": 6721,
      "Äįlan": 6722,
      "ĠzajedniÄįki": 6723,
      "Ġnajzad": 6724,
      "Ġposu": 6725,
      "Ġtrgovi": 6726,
      "Ġzakonu": 6727,
      "PS": 6728,
      "sfa": 6729,
      "Ġosme": 6730,
      "Ġstruje": 6731,
      "Ġ1944": 6732,
      "diÅ¡te": 6733,
      "ĠÄĲi": 6734,
      "Ġpisao": 6735,
      "ĠPrividna": 6736,
      "____": 6737,
      "Ġdesilo": 6738,
      "ĠKosme": 6739,
      "sana": 6740,
      "\"}-.": 6741,
      "Ġlinije": 6742,
      "Ġkorpu": 6743,
      "Ġokuplja": 6744,
      "maj": 6745,
      "Ġbave": 6746,
      "magnituda": 6747,
      "Ġnjenu": 6748,
      "Ġsat": 6749,
      "Ġodgovorio": 6750,
      "ĠBoris": 6751,
      "Ġuniverziteta": 6752,
      "Ġubistva": 6753,
      "kruÅ¾": 6754,
      "ĠzapoÅ¡lja": 6755,
      "Ġgeno": 6756,
      "vor": 6757,
      "Ġiskustvo": 6758,
      "Ġslikar": 6759,
      "ĠvoÄĳa": 6760,
      "ĠTadi": 6761,
      "ĠnadleÅ¾nosti": 6762,
      "Ġ)": 6763,
      "Ġtrgovine": 6764,
      "Ġreligi": 6765,
      "',": 6766,
      "Ġparo": 6767,
      "Ġuma": 6768,
      "vanjima": 6769,
      "Ġand": 6770,
      "Ġsubjek": 6771,
      "Ġparale": 6772,
      "Ġmakedo": 6773,
      "ĠPot": 6774,
      "lva": 6775,
      "Ġodnosima": 6776,
      "ĠReÄį": 6777,
      "ĠKosmos": 6778,
      "ĠIZ": 6779,
      "88": 6780,
      "Ġkompone": 6781,
      "Ġprivrede": 6782,
      "Ġgospodin": 6783,
      "Ġbrata": 6784,
      "Ġuvede": 6785,
      "ĠHuan": 6786,
      "ĠAkade": 6787,
      "Ġoptere": 6788,
      "rn": 6789,
      "Ã©": 6790,
      "ĠFrancuska": 6791,
      "rdi": 6792,
      "Ġplana": 6793,
      "ĠPoto": 6794,
      "Ġpodstica": 6795,
      "Ġistim": 6796,
      "Ġbrojem": 6797,
      "Ġlansi": 6798,
      "Ġjedinjenje": 6799,
      "Ġzgrada": 6800,
      "Ġodredbe": 6801,
      "stovi": 6802,
      "NS": 6803,
      "ĠpreviÅ¡e": 6804,
      "Ġaku": 6805,
      "Ġjedni": 6806,
      "Ġfan": 6807,
      "tran": 6808,
      "Ġmira": 6809,
      "Ġostavlja": 6810,
      "cki": 6811,
      "ĠZem": 6812,
      "Äįavaju": 6813,
      "dre": 6814,
      "Å¡ak": 6815,
      "Ġjavnom": 6816,
      "Ġupravljanje": 6817,
      "Ġlep": 6818,
      "Ġika": 6819,
      "Ġpritvo": 6820,
      "Ġprogramu": 6821,
      "Ġpitanjima": 6822,
      "Ġkilograma": 6823,
      "rovatnije": 6824,
      "Ġuzme": 6825,
      "Ġigraju": 6826,
      "ĠinÅ¾enje": 6827,
      "Ġhu": 6828,
      "Ġsaveta": 6829,
      "Slu": 6830,
      "ĠSporazu": 6831,
      "ĠpolitiÄįku": 6832,
      "ĠFudba": 6833,
      "Ġredovno": 6834,
      "Ġmanastira": 6835,
      "Ġpouzda": 6836,
      "ĠsreÄĩu": 6837,
      "Ġstoje": 6838,
      "zme": 6839,
      "Ġkale": 6840,
      "js": 6841,
      "Ġspoljnih": 6842,
      "Ġkultura": 6843,
      "stim": 6844,
      "zar": 6845,
      "ĠJugoslavija": 6846,
      "ĠPoli": 6847,
      "ĠMir": 6848,
      "ĠÄįuve": 6849,
      "ĠÄįetvrt": 6850,
      "ĠÅ¡ifru": 6851,
      "ĠBalkanu": 6852,
      "ĠIgra": 6853,
      "Ġpare": 6854,
      "Ġidea": 6855,
      "Ġravni": 6856,
      "Ġosloba": 6857,
      "ĠHose": 6858,
      "ĠPozna": 6859,
      "Ġprofesora": 6860,
      "dent": 6861,
      "Å¡nog": 6862,
      "Ġpripadnici": 6863,
      "ĠOvi": 6864,
      "Ġotvoreno": 6865,
      "Le": 6866,
      "Ġmislio": 6867,
      "ĠuÄįiniti": 6868,
      "Ġposlednjem": 6869,
      "Ġnat": 6870,
      "ĠmeÄĳusobno": 6871,
      "Ġpozvao": 6872,
      "ĠPostoji": 6873,
      "ï¿½ï¿½": 6874,
      "Ġuklo": 6875,
      "EV": 6876,
      "Ġate": 6877,
      "Ġprepre": 6878,
      "ktoru": 6879,
      "ĠdogaÄĳaj": 6880,
      "Ġupotrebi": 6881,
      "ĠMonte": 6882,
      "Ġizgovo": 6883,
      "rit": 6884,
      "zanje": 6885,
      "ĠInterne": 6886,
      "Ġ1993": 6887,
      "ĠSli": 6888,
      "Ġsprovodi": 6889,
      "ĠneÄĩu": 6890,
      "Ġmirno": 6891,
      "Ġotk": 6892,
      "Ġraciona": 6893,
      "au": 6894,
      "Ġhiljade": 6895,
      "ĠponaÅ¡anje": 6896,
      "Ġuskla": 6897,
      "Ġpripadaju": 6898,
      "Ġnacionalnosti": 6899,
      "ĠPue": 6900,
      "ĠnapuÅ¡ta": 6901,
      "Ġsocijalne": 6902,
      "nstvo": 6903,
      "ĠameriÄįkog": 6904,
      "ĠSvaki": 6905,
      "kala": 6906,
      "Ġdelovi": 6907,
      "Ġnarednih": 6908,
      "Ġosnovi": 6909,
      "ĠEn": 6910,
      "Ġodba": 6911,
      "ĠÄįetvo": 6912,
      "ĠÅ½u": 6913,
      "Ġtrenutka": 6914,
      "Ġtakvim": 6915,
      "Ġseksua": 6916,
      "Ġraznim": 6917,
      "Ġoka": 6918,
      "Ġtip": 6919,
      "\"),": 6920,
      "Ġkretanja": 6921,
      "one": 6922,
      "ĠTodo": 6923,
      "Ġdrago": 6924,
      "sliti": 6925,
      "sten": 6926,
      "Ġzemljo": 6927,
      "ĠdomaÄĩe": 6928,
      "Ġzasni": 6929,
      "Ġsamim": 6930,
      "Ġvidimo": 6931,
      "Ġevropskim": 6932,
      "ĠPredsedni": 6933,
      "jednako": 6934,
      "ĠÄįisto": 6935,
      "ĠGoran": 6936,
      "ĠUniverziteta": 6937,
      "Ġbizni": 6938,
      "ĠVelika": 6939,
      "ĠJelena": 6940,
      "ĠRusi": 6941,
      "ĠtraÅ¾io": 6942,
      "ĠBanja": 6943,
      "ĠOD": 6944,
      "Ġlinija": 6945,
      "vljenih": 6946,
      "jano": 6947,
      "71": 6948,
      "ĠVeÄĩina": 6949,
      "pozna": 6950,
      "promi": 6951,
      "Ġpolako": 6952,
      "ĠfaÅ¡i": 6953,
      "Ġstoga": 6954,
      "Ġgledao": 6955,
      "klara": 6956,
      "ĠBudu": 6957,
      "Ġurba": 6958,
      "ĠNeboj": 6959,
      "stroje": 6960,
      "ĠTur": 6961,
      "Ġproizvode": 6962,
      "Ġpobeda": 6963,
      "ĠoslobaÄĳa": 6964,
      "Ġglaso": 6965,
      "ĠSA": 6966,
      "Ġdozvole": 6967,
      "jkoviÄĩ": 6968,
      "ĠpoveÄĩanje": 6969,
      "Ġreprezentacija": 6970,
      "OK": 6971,
      "Ġkriza": 6972,
      "Ġnekoj": 6973,
      "BS": 6974,
      "Ġnezadovolj": 6975,
      "Ġskre": 6976,
      "Ġsprovede": 6977,
      "nogo": 6978,
      "pora": 6979,
      "ĠBrani": 6980,
      "Ġpokrajine": 6981,
      "Ġautoma": 6982,
      "Ġelemenata": 6983,
      "naest": 6984,
      "jmo": 6985,
      "Ġpropisima": 6986,
      "ĠSFR": 6987,
      "Ġvojsku": 6988,
      "Ġdisku": 6989,
      "Ġustano": 6990,
      "ĠsteÄįaj": 6991,
      "Ġprvim": 6992,
      "Ġsliku": 6993,
      "Äĳenjem": 6994,
      "Ġkolega": 6995,
      "58": 6996,
      "Ġnastala": 6997,
      "ĠÅ¾elje": 6998,
      "ĠÅ¡tetu": 6999,
      "ĠLan": 7000,
      "ĠdrÅ¾avama": 7001,
      "sjeÄįna": 7002,
      "Ġrepublika": 7003,
      "che": 7004,
      "znom": 7005,
      "ĠoznaÄįava": 7006,
      "Ġproveo": 7007,
      "Ġzakonoda": 7008,
      "ĠTak": 7009,
      "sili": 7010,
      "Ġvazduha": 7011,
      "Ġodvoje": 7012,
      "Ġpretvara": 7013,
      "Ġraza": 7014,
      "ĠNapo": 7015,
      "ĠDrÅ¾ava": 7016,
      "Ġpolj": 7017,
      "ĠgraÄĳane": 7018,
      "Å¾nom": 7019,
      "Ġdiplomati": 7020,
      "ĠraspoloÅ¾e": 7021,
      "ĠÄįast": 7022,
      "Ġgalaksija": 7023,
      "Äĳenim": 7024,
      "Ġtelefon": 7025,
      "Ġdemo": 7026,
      "Ġeksperi": 7027,
      "ganista": 7028,
      "Ġposre": 7029,
      "ĠsreÄĩ": 7030,
      "godiÅ¡nja": 7031,
      "Ġodbranu": 7032,
      "ĠCrna": 7033,
      "Ġsrpskoj": 7034,
      "Ġprimene": 7035,
      "Ġplanine": 7036,
      "Äįje": 7037,
      "Ġavion": 7038,
      "\"}-": 7039,
      "Ġupotrebe": 7040,
      "Ġcele": 7041,
      "Ġnijedan": 7042,
      "ĠMalo": 7043,
      "gda": 7044,
      "Ġliste": 7045,
      "ĠâĪĴ": 7046,
      "Ġpredstavnik": 7047,
      "Ġonu": 7048,
      "Ġrejo": 7049,
      "ĠuoÄįi": 7050,
      "Ġreferendu": 7051,
      "Ġ250": 7052,
      "Ġpostali": 7053,
      "ĠPosje": 7054,
      "Ġmulti": 7055,
      "lf": 7056,
      "Ġsastava": 7057,
      "Ġnaredne": 7058,
      "Ġsredini": 7059,
      "Å¡koviÄĩ": 7060,
      "Ġvodom": 7061,
      "Ġkorisni": 7062,
      "Ġotvorena": 7063,
      "ĠProsjeÄįna": 7064,
      "rtava": 7065,
      "Pro": 7066,
      "Ġpop": 7067,
      "elek": 7068,
      "Ġpartner": 7069,
      "Ġzaosta": 7070,
      "ĠteÅ¾e": 7071,
      "ĠpokuÅ¡aj": 7072,
      "Ġizdvaja": 7073,
      "Ġ01": 7074,
      "ĠJugosloven": 7075,
      "ĠsavrÅ¡e": 7076,
      "Ġradovi": 7077,
      "Ġgeograf": 7078,
      "68": 7079,
      "ĠÄįasa": 7080,
      "Ġkrea": 7081,
      "lona": 7082,
      "Ġcelog": 7083,
      "nijom": 7084,
      "rcija": 7085,
      "povi": 7086,
      "Ġuru": 7087,
      "Ġbiblioteka": 7088,
      "tore": 7089,
      "ĠCrvene": 7090,
      "Ġarti": 7091,
      "Ġula": 7092,
      "ĠnjemaÄįkoj": 7093,
      "Ġporaz": 7094,
      "ĠVan": 7095,
      "Ġkontinu": 7096,
      "deri": 7097,
      "ĠÄįin": 7098,
      "Ġistoku": 7099,
      "Ġnajpozna": 7100,
      "tov": 7101,
      "denti": 7102,
      "godiÅ¡njeg": 7103,
      "ĠNad": 7104,
      "Ġharti": 7105,
      "ĠjuÄįera": 7106,
      "ĠEvropu": 7107,
      "ntan": 7108,
      "Å¾enju": 7109,
      "Ġnovine": 7110,
      "terija": 7111,
      "Ġnastoja": 7112,
      "ĠTele": 7113,
      "Ġvaljda": 7114,
      "Ġreago": 7115,
      "Ġcelokup": 7116,
      "Ġdevedesetih": 7117,
      "uzme": 7118,
      "Ġvaspita": 7119,
      "ĠPosjeduje": 7120,
      "Ġprevazi": 7121,
      "Ġpostati": 7122,
      "AGS": 7123,
      "Ġprojekto": 7124,
      "stiti": 7125,
      "Ġtebe": 7126,
      "Ġulaz": 7127,
      "miti": 7128,
      "vanih": 7129,
      "veko": 7130,
      "sor": 7131,
      "Ġdvoje": 7132,
      "Ġhomo": 7133,
      "ĠZagrebu": 7134,
      "Ġ51": 7135,
      "Ġ49": 7136,
      "Ġteku": 7137,
      "Ġmoderni": 7138,
      "Ġigru": 7139,
      "tati": 7140,
      "MF": 7141,
      "ĠbrÅ¾e": 7142,
      "Ġistaknu": 7143,
      "ĠVelike": 7144,
      "49": 7145,
      "ĠmeÄįa": 7146,
      "ĠKonstanti": 7147,
      "ĠoruÅ¾a": 7148,
      "Ġinformi": 7149,
      "Sr": 7150,
      "jke": 7151,
      "Ġ1997": 7152,
      "Ġnovinarima": 7153,
      "jnog": 7154,
      "ĠOne": 7155,
      "................": 7156,
      "kija": 7157,
      "ĠTime": 7158,
      "Ġonom": 7159,
      "reviÄĩ": 7160,
      "verza": 7161,
      "Ġupravljanja": 7162,
      "ljima": 7163,
      "protiv": 7164,
      "Ġdrugima": 7165,
      "Ġsednici": 7166,
      "Ġnafte": 7167,
      "ĠsaopÅ¡tio": 7168,
      "Ġvrho": 7169,
      "ĠuÄįestvuju": 7170,
      "Ġizgubi": 7171,
      "ĠpreduzeÄĩe": 7172,
      "ĠSvetskom": 7173,
      "Ġligi": 7174,
      "Ġsposobnosti": 7175,
      "ĠBelo": 7176,
      "dekva": 7177,
      "ĠIV": 7178,
      "ĠPravo": 7179,
      "Ġmagistra": 7180,
      "Ġdeve": 7181,
      "koji": 7182,
      "ĠAgva": 7183,
      "Ġkazni": 7184,
      "neta": 7185,
      "Ġprav": 7186,
      "Ġposete": 7187,
      "ĠsaobraÄĩaja": 7188,
      "ĠKaraÄĳ": 7189,
      "Ġljubi": 7190,
      "Ġambi": 7191,
      "ĠMogu": 7192,
      "Ġ1945": 7193,
      "ĠÅ¾elja": 7194,
      "organi": 7195,
      "Ġruka": 7196,
      "Ġmajke": 7197,
      "Ġpostepe": 7198,
      "ĠVreme": 7199,
      "Å¾uju": 7200,
      "ĠvaÅ¾an": 7201,
      "Ġindividua": 7202,
      "Ġvazduhoplo": 7203,
      "vganista": 7204,
      "Ġpravno": 7205,
      "ĠHr": 7206,
      "Ġnezaposle": 7207,
      "jaÄįa": 7208,
      "Ġovda": 7209,
      "ĠPostoje": 7210,
      "Ġprihoda": 7211,
      "Ġbrojne": 7212,
      "Ġstrukture": 7213,
      "Ġgdje": 7214,
      "Ġnevi": 7215,
      "lskog": 7216,
      "ĠpoÅ¾e": 7217,
      "ĠistiÄįu": 7218,
      "Ġstan": 7219,
      "njiÄĩ": 7220,
      "Ġanalize": 7221,
      "Ġugljenika": 7222,
      "Ġstruktura": 7223,
      "kciji": 7224,
      "Ġevo": 7225,
      "Ku": 7226,
      "Ġkabine": 7227,
      "akan": 7228,
      "Ġstvaranje": 7229,
      "Ġ1994": 7230,
      "Ġpuca": 7231,
      "krimina": 7232,
      "Ġ120": 7233,
      "jd": 7234,
      "Ġsprema": 7235,
      "Ġpritiska": 7236,
      "IZ": 7237,
      "ms": 7238,
      "ĠsadrÅ¾aj": 7239,
      "Ġosnovnih": 7240,
      "Ġ1942": 7241,
      "dici": 7242,
      "Ġhle": 7243,
      "deti": 7244,
      "Ġsah": 7245,
      "Ġanaliti": 7246,
      "ĠÄįlanice": 7247,
      "jama": 7248,
      ".âĢĿ": 7249,
      "Ġugleda": 7250,
      "Ġrazum": 7251,
      "siti": 7252,
      "ljivost": 7253,
      "Ġkatastro": 7254,
      "ĠVuÄįiÄĩ": 7255,
      "ĠDaÄįiÄĩ": 7256,
      "Ġnaci": 7257,
      "Ġpreba": 7258,
      "Ġpostavljen": 7259,
      "fti": 7260,
      "Ġbespla": 7261,
      "ĠponaÅ¡anja": 7262,
      "os": 7263,
      "Ġ52": 7264,
      "Ġpokazala": 7265,
      "Ġfotografska": 7266,
      "ĠmeÄĳusob": 7267,
      "Äĳenog": 7268,
      "Ġjavljaju": 7269,
      "Ġkopa": 7270,
      "ĠMinistarstvu": 7271,
      "Ġiznos": 7272,
      "Ġodne": 7273,
      "Ġvrijeme": 7274,
      "IP": 7275,
      "AC": 7276,
      "Ġstambe": 7277,
      "ĠmreÅ¾a": 7278,
      "Ġizgublje": 7279,
      "Ġposeti": 7280,
      "66": 7281,
      "ĠuÄįenika": 7282,
      "rsko": 7283,
      "Ġfeno": 7284,
      "zila": 7285,
      "ĠNeka": 7286,
      "Ġispitivanja": 7287,
      "ĠMio": 7288,
      "turu": 7289,
      "ĠEvropska": 7290,
      "Ġimenu": 7291,
      "ĠveliÄįine": 7292,
      "Ġ68": 7293,
      "nicom": 7294,
      "Ġinsta": 7295,
      "stiÄįki": 7296,
      "Ġsloven": 7297,
      "ĠUmesto": 7298,
      "ĠvoÄĳ": 7299,
      "ĠpozoriÅ¡ta": 7300,
      "Ġputovanja": 7301,
      "ĠuÅ¡ao": 7302,
      "Ġpeto": 7303,
      "Ġrazme": 7304,
      "ĠpokuÅ¡ao": 7305,
      "Ġvek": 7306,
      "ĠGar": 7307,
      "Ġsusret": 7308,
      "reti": 7309,
      "Ġnajbli": 7310,
      "Ġuspela": 7311,
      "Ġterena": 7312,
      "vanog": 7313,
      "Ġdodatno": 7314,
      "Ġprirodno": 7315,
      "Ġutvrdi": 7316,
      "ĠznaÄįajan": 7317,
      "Ġokri": 7318,
      "Ġodse": 7319,
      "Ġrezolu": 7320,
      "Ġizjave": 7321,
      "Ġskra": 7322,
      "Ġpetna": 7323,
      "ncima": 7324,
      "Ġosumnji": 7325,
      "ĠPredsta": 7326,
      "ĠEvo": 7327,
      "Ġoptimi": 7328,
      "ĠDruga": 7329,
      "Ġtraga": 7330,
      "ĠSud": 7331,
      "Ġcrta": 7332,
      "ĠEvropa": 7333,
      "ĠobiÄįa": 7334,
      "ĠAla": 7335,
      "gona": 7336,
      "ruju": 7337,
      "Ġplus": 7338,
      "ĠmeÄįu": 7339,
      "minje": 7340,
      "Ġizba": 7341,
      "ncu": 7342,
      "vljanja": 7343,
      "ĠameriÄįkih": 7344,
      "ĠInaÄįe": 7345,
      "Va": 7346,
      "ĠKolu": 7347,
      "dva": 7348,
      "davno": 7349,
      "gena": 7350,
      "Ġotpa": 7351,
      "ĠduÅ¾nost": 7352,
      "ĠNiÅ¡": 7353,
      "Ġdvostru": 7354,
      "Ġsaslu": 7355,
      "ĠSunca": 7356,
      "Ġprefekturi": 7357,
      "Å¡nim": 7358,
      "ĠuÄįesnika": 7359,
      "Ġsvakoj": 7360,
      "ĠkoliÄįine": 7361,
      "ĠJedi": 7362,
      "Ġ600": 7363,
      "Ġbitno": 7364,
      "Ġpraksi": 7365,
      "ĠSarajevu": 7366,
      "Ġzvo": 7367,
      "Ġprotesta": 7368,
      "ĠGerero": 7369,
      "ĠDragi": 7370,
      "tacija": 7371,
      "loa": 7372,
      "ĠBeta": 7373,
      "ĠpoÄįelo": 7374,
      "rami": 7375,
      "ĠdelimiÄįno": 7376,
      "Ġoperacije": 7377,
      "Ġteroristi": 7378,
      "Ġnara": 7379,
      "Ġjavnim": 7380,
      "Ġaspe": 7381,
      "Ġstanice": 7382,
      "Ġvisoke": 7383,
      "Ġuspeha": 7384,
      "Ġmilijarde": 7385,
      "ĠsloÅ¾e": 7386,
      "ĠpeÅ¡a": 7387,
      "Ġradnje": 7388,
      "Ġprirodi": 7389,
      "ĠAma": 7390,
      "ĠsadrÅ¾e": 7391,
      "Ġuloge": 7392,
      "sar": 7393,
      "Ġverujem": 7394,
      "Ġepizo": 7395,
      "Ġdogovor": 7396,
      "Ġoduze": 7397,
      "ĠGro": 7398,
      "Ġkulturu": 7399,
      "Ġturnira": 7400,
      "ĠProce": 7401,
      "Ġdodi": 7402,
      "Ġlider": 7403,
      "Ġnadzor": 7404,
      "Ġnepresta": 7405,
      "Ġosobi": 7406,
      "72": 7407,
      "Ġstudenata": 7408,
      "Ġrekord": 7409,
      "Ġruske": 7410,
      "Ġdala": 7411,
      "Ġmaga": 7412,
      "ĠtroÅ¡kovi": 7413,
      "Ġruskog": 7414,
      "Ġradnog": 7415,
      "ĠdruÅ¡tvene": 7416,
      "Ġ53": 7417,
      "ĠgodiÅ¡nji": 7418,
      "Ġubistvo": 7419,
      "Ġnesu": 7420,
      "Ġgenoci": 7421,
      "Ġimu": 7422,
      "tosti": 7423,
      "ĠPetra": 7424,
      "Ġorganizaciji": 7425,
      "ĠZu": 7426,
      "Ġokolini": 7427,
      "Ġkonsu": 7428,
      "ĠelektriÄįne": 7429,
      "ĠveÄįeri": 7430,
      "ĠoÄįekivati": 7431,
      "ĠUkup": 7432,
      "Ġsvetlo": 7433,
      "ret": 7434,
      "Ġpun": 7435,
      "Ġpravoslavne": 7436,
      "Ġrazd": 7437,
      "ĠÅ¡tete": 7438,
      "Ġsmanjenje": 7439,
      "Ġmolekulsku": 7440,
      "nadÅ¾e": 7441,
      "ĠKasnije": 7442,
      "Ġonome": 7443,
      "ĠAm": 7444,
      "Ġanaliza": 7445,
      "Ġprimenu": 7446,
      "Ġizi": 7447,
      "Ġkredita": 7448,
      "ĠporemeÄĩa": 7449,
      "Ġkrila": 7450,
      "Ġimi": 7451,
      "ĠSveti": 7452,
      "Ġmetoda": 7453,
      "ĠreÅ¾im": 7454,
      "56": 7455,
      "Ġkomiteta": 7456,
      "ĠÅło": 7457,
      "Ġsobi": 7458,
      "Äįare": 7459,
      "Ġlik": 7460,
      "ĠzavrÅ¡ava": 7461,
      "Å¡ili": 7462,
      "Ġuhvati": 7463,
      "pen": 7464,
      "tnja": 7465,
      "Ġdospe": 7466,
      "Ġputni": 7467,
      "Ġdovolj": 7468,
      "ĠIstra": 7469,
      "ĠJankoviÄĩ": 7470,
      "Ġdesni": 7471,
      "rur": 7472,
      "qu": 7473,
      "Ġpovratak": 7474,
      "Ġimale": 7475,
      "Ġpodzem": 7476,
      "tuju": 7477,
      "ĠUÅ¾i": 7478,
      "ĠsaÄįi": 7479,
      "Ġnudi": 7480,
      "godiÅ¡nje": 7481,
      "Ġperspekti": 7482,
      "ĠtroÅ¡kove": 7483,
      "Ġzadovo": 7484,
      "ĠmlaÄĳi": 7485,
      "Ġvest": 7486,
      "Å¡ine": 7487,
      "pima": 7488,
      "Ġmandata": 7489,
      "Ġkarijeru": 7490,
      "Ġradili": 7491,
      "Ġkrajnje": 7492,
      "Ġciklu": 7493,
      "Ġnemo": 7494,
      "ĠBudi": 7495,
      "ĠSama": 7496,
      "pela": 7497,
      "tonu": 7498,
      "ĠKnji": 7499,
      "ĠÅ½ivo": 7500,
      "Ġrezer": 7501,
      "ĠÅ¾rtava": 7502,
      ".).": 7503,
      "ĠsuviÅ¡e": 7504,
      "zmom": 7505,
      "ĠuniÅ¡ti": 7506,
      "roisto": 7507,
      "ĠpoÄįa": 7508,
      "rnici": 7509,
      "Ġjez": 7510,
      "jE": 7511,
      "ĠteÅ¡ke": 7512,
      "Ġrudar": 7513,
      "Ġproblemi": 7514,
      "Ġhar": 7515,
      "SluÅ¾be": 7516,
      "bl": 7517,
      "nijeg": 7518,
      "Ġglava": 7519,
      "ĠstruÄįnjaci": 7520,
      "Å¡ila": 7521,
      "ĠÅ¡efa": 7522,
      "ljaka": 7523,
      "Ġsumnji": 7524,
      "ĠzloÄįin": 7525,
      "âĢĶâĢĶâĢĶâĢĶ": 7526,
      "Ġble": 7527,
      "Ġuva": 7528,
      "Ġprimenjuje": 7529,
      "ĠÄįvrsto": 7530,
      "Ġugra": 7531,
      "Ġdevi": 7532,
      "bne": 7533,
      "Ġbata": 7534,
      "Ġpesama": 7535,
      "ĠKalifornija": 7536,
      "ĠStoga": 7537,
      "Ġsredstvima": 7538,
      "\").": 7539,
      "fikacije": 7540,
      "ĠveÄĩine": 7541,
      "Ġprilike": 7542,
      "ĠMilana": 7543,
      "Ġnade": 7544,
      "ĠpokaÅ¾e": 7545,
      "74": 7546,
      "Ġborba": 7547,
      "nite": 7548,
      "gon": 7549,
      "Ġpotvrdio": 7550,
      "ĠRegi": 7551,
      "Ġfinansijske": 7552,
      "Ġpobedi": 7553,
      "ira": 7554,
      "Ġpregovora": 7555,
      "Ġfakultet": 7556,
      "ck": 7557,
      "Å¡ice": 7558,
      "Ġstvarala": 7559,
      "ĠDemokratske": 7560,
      "ĠnaglaÅ¡ava": 7561,
      "ĠPolitika": 7562,
      "Ġodma": 7563,
      "ĠSmatra": 7564,
      "Ġnepokre": 7565,
      "ĠnemoguÄĩe": 7566,
      "hte": 7567,
      "Ġbaci": 7568,
      "Äĩenih": 7569,
      "Ġvremenom": 7570,
      "ĠuÄį": 7571,
      "Å¡ana": 7572,
      "vljenje": 7573,
      "Ġnedelja": 7574,
      "Ġunapred": 7575,
      "ljivosti": 7576,
      ".),": 7577,
      "ĠCari": 7578,
      "ĠZorana": 7579,
      "Ġkosti": 7580,
      "Ġstil": 7581,
      "produ": 7582,
      "Ġministarstva": 7583,
      "Pi": 7584,
      "veno": 7585,
      "ĠdomaÄĩih": 7586,
      "vladi": 7587,
      "ĠÄįeÅ¡Äĩe": 7588,
      "ficije": 7589,
      "dalgo": 7590,
      "Ġkafa": 7591,
      "bini": 7592,
      "Ġuzor": 7593,
      "Ro": 7594,
      "ĠsprovoÄĳenje": 7595,
      "Ġara": 7596,
      "ĠMoj": 7597,
      "uga": 7598,
      "Äįoakan": 7599,
      "79": 7600,
      "ĠskupÅ¡tini": 7601,
      "vskoj": 7602,
      "2010": 7603,
      "ĠVale": 7604,
      "Ġstepen": 7605,
      "Ġpregleda": 7606,
      "Ġpremi": 7607,
      "Ġvina": 7608,
      "Ġnapravio": 7609,
      "Ġbogo": 7610,
      "ĠÄĲorÄĳeviÄĩ": 7611,
      "Ġsaglasnost": 7612,
      "Ġ1989": 7613,
      "Ġglavna": 7614,
      "Ġdali": 7615,
      "Ġpriznanje": 7616,
      "ĠGvana": 7617,
      "fora": 7618,
      "Ġarhe": 7619,
      "ĠBranko": 7620,
      "pao": 7621,
      "ĠtvrÄĳa": 7622,
      "Ġnekad": 7623,
      "nior": 7624,
      "Ġnarodne": 7625,
      "Ġtrijum": 7626,
      "Ġteret": 7627,
      "Ġuzne": 7628,
      "Ġobole": 7629,
      "Ġnastavak": 7630,
      "ĠskupÅ¡tina": 7631,
      "sati": 7632,
      "Ġrizik": 7633,
      "Ġmalih": 7634,
      "Ġkongre": 7635,
      "sniji": 7636,
      "ĠOkruÅ¾": 7637,
      "Ġkog": 7638,
      "Ġizjedna": 7639,
      "Ġsvome": 7640,
      "Ġdelove": 7641,
      "ĠAleksand": 7642,
      "Ġsagra": 7643,
      "ĠSFRJ": 7644,
      "ĠMed": 7645,
      "Ġgle": 7646,
      "sade": 7647,
      "ĠkoriÅ¡Äĩenja": 7648,
      "ĠTanjug": 7649,
      "Ġmosta": 7650,
      "ĠdrÅ¾e": 7651,
      "grani": 7652,
      "voja": 7653,
      "ĠpotiÄįe": 7654,
      "73": 7655,
      "Ġ54": 7656,
      "ĠsreÄĩe": 7657,
      "ĠvaÅ¾e": 7658,
      "Ġizbega": 7659,
      "Å¡iti": 7660,
      "Ġlekar": 7661,
      "Ġceni": 7662,
      "vkoviÄĩ": 7663,
      "Ġune": 7664,
      "Ġosnovni": 7665,
      "Ġsvesti": 7666,
      "ĠHrva": 7667,
      "Ti": 7668,
      "Ġsje": 7669,
      "mula": 7670,
      "ĠMiÄįoakan": 7671,
      "jati": 7672,
      "Ġbarem": 7673,
      "ĠFin": 7674,
      "Ġkomanda": 7675,
      "ĠproÄĳe": 7676,
      "NK": 7677,
      "ĠNenad": 7678,
      "Ġspreman": 7679,
      "Ġobale": 7680,
      "Ġposetio": 7681,
      "Ġkorupcije": 7682,
      "tari": 7683,
      "IR": 7684,
      "Ġlekara": 7685,
      "Ġmisao": 7686,
      "Ġdostojan": 7687,
      "ĠÄįetvoro": 7688,
      "Ġpilo": 7689,
      "Ġfilmova": 7690,
      "ĠPavle": 7691,
      "Ġmusliman": 7692,
      "Å¡nu": 7693,
      "Ġsocio": 7694,
      "Ru": 7695,
      "rnik": 7696,
      "Ġsledi": 7697,
      "Ġsloboda": 7698,
      "Ġujedno": 7699,
      "ĠmeÄĳunarodnog": 7700,
      "Ġ2017": 7701,
      "Ġuzvi": 7702,
      "ĠmaÅ¡ine": 7703,
      "huato": 7704,
      "Ġpoljoprivred": 7705,
      "loÅ¡kog": 7706,
      "ĠSpecija": 7707,
      "ÄįiÄĩe": 7708,
      "Äįavanja": 7709,
      "Ġpredo": 7710,
      "ĠKP": 7711,
      "Tanjug": 7712,
      "ĠSveto": 7713,
      "vri": 7714,
      "ĠKultu": 7715,
      "Ġvesti": 7716,
      "Ġinteres": 7717,
      "ĠispriÄįa": 7718,
      "ĠbliÅ¾e": 7719,
      "Ġprekida": 7720,
      "ĠDoma": 7721,
      "loviÄĩa": 7722,
      "ĠÅłeÅ¡e": 7723,
      "as": 7724,
      "more": 7725,
      "Ġprobu": 7726,
      "Ġromana": 7727,
      "Ġstraha": 7728,
      "Ġkrug": 7729,
      "znog": 7730,
      "ĠnemaÄįke": 7731,
      "pet": 7732,
      "Ġobvez": 7733,
      "ĠiÅ¡": 7734,
      "Ġpotreban": 7735,
      "Ġpredstave": 7736,
      "jci": 7737,
      "ĠroÄĳa": 7738,
      "ĠUprkos": 7739,
      "Ġstarih": 7740,
      "Ġ66": 7741,
      "Ġstanovi": 7742,
      "Ġdinami": 7743,
      "tje": 7744,
      "Ġciljem": 7745,
      "ĠFri": 7746,
      "leti": 7747,
      "ĠEvropskom": 7748,
      "Ġpogotovo": 7749,
      "ĠsadrÅ¾aja": 7750,
      "Ġtakvu": 7751,
      "Ġprikuplja": 7752,
      "ĠpoloÅ¾aju": 7753,
      "raza": 7754,
      "Ġpotpisi": 7755,
      "Ġparlamentu": 7756,
      "Ġner": 7757,
      "ĠNue": 7758,
      "Ġresto": 7759,
      "Ġdemokratije": 7760,
      "ĠIvana": 7761,
      "ngo": 7762,
      "esto": 7763,
      "ĠOl": 7764,
      "zujuÄĩi": 7765,
      "ĠTamo": 7766,
      "ĠMore": 7767,
      "tskoj": 7768,
      "Ġnastavio": 7769,
      "borato": 7770,
      "ĠÅ¾iveo": 7771,
      "Ġotku": 7772,
      "Ġgrafi": 7773,
      "Ġpamet": 7774,
      "Ġtop": 7775,
      "bna": 7776,
      "Ġnastaje": 7777,
      "ĠukljuÄįi": 7778,
      "Ġrezervi": 7779,
      "Ġvrhun": 7780,
      "ntne": 7781,
      "ak": 7782,
      "UD": 7783,
      "Ġkarakter": 7784,
      "Ġulicama": 7785,
      "oko": 7786,
      "vrati": 7787,
      "Ġzamo": 7788,
      "ĠVilja": 7789,
      "Ġskupa": 7790,
      "Ġspremni": 7791,
      "lesti": 7792,
      "ĠDimitrije": 7793,
      "Ġistorija": 7794,
      "ĠÅ¾ivotinje": 7795,
      "85": 7796,
      "maksima": 7797,
      "Ġsavet": 7798,
      "ĠistraÅ¾ivanje": 7799,
      "Ġspomenika": 7800,
      "vorio": 7801,
      "Ġdoprinos": 7802,
      "vosti": 7803,
      "ĠPGC": 7804,
      "mpu": 7805,
      "ht": 7806,
      "ĠporeÄĳe": 7807,
      "vredi": 7808,
      "samo": 7809,
      "ĠodreÄĳeni": 7810,
      "Ġnajma": 7811,
      "Ġplasman": 7812,
      "ĠKaraÄĳorÄĳe": 7813,
      "Ġdoktor": 7814,
      "Ġmaraka": 7815,
      "ziti": 7816,
      "ĠmenadÅ¾e": 7817,
      "Ġarmije": 7818,
      "ĠneÄįe": 7819,
      "Ġdebi": 7820,
      "Ġlos": 7821,
      "Ġosvoje": 7822,
      "Ġmisije": 7823,
      "dala": 7824,
      "Ġgeneracije": 7825,
      "Ġpovr": 7826,
      "ĠAndre": 7827,
      "Ġstatusom": 7828,
      "Ha": 7829,
      "Ġumetnost": 7830,
      "Ġutakmicu": 7831,
      "Ġpretpostavlja": 7832,
      "ĠPavloviÄĩ": 7833,
      "Ġprimenjuju": 7834,
      "Ġorgansko": 7835,
      "Ġpripreme": 7836,
      "Ġdruk": 7837,
      "Ġnastao": 7838,
      "Ġponede": 7839,
      "Ġreforme": 7840,
      "Ġliga": 7841,
      "Ġizazo": 7842,
      "ĠNove": 7843,
      "Ġtelefo": 7844,
      "Ġrano": 7845,
      "hidro": 7846,
      "taciju": 7847,
      "Ġ?": 7848,
      "Ġduh": 7849,
      "ĠÄĩeÅ¡": 7850,
      "ĠNiÅ¡a": 7851,
      "Ġtki": 7852,
      "ĠDejan": 7853,
      "Ġmetode": 7854,
      "Ġtreni": 7855,
      "Ġravnopra": 7856,
      "likom": 7857,
      "sigu": 7858,
      "86": 7859,
      "Ġgovor": 7860,
      "Ġpride": 7861,
      "Ġ1943": 7862,
      "del": 7863,
      "Ġsporti": 7864,
      "Ġevropski": 7865,
      "ziv": 7866,
      "ĠMMF": 7867,
      "crta": 7868,
      "vil": 7869,
      "Ġdinasti": 7870,
      "ĠizaÄĳe": 7871,
      "ĠMakedoniji": 7872,
      "Ġmagne": 7873,
      "Ġroditelja": 7874,
      "Ġznati": 7875,
      "Ġgovoriti": 7876,
      "Ġtenise": 7877,
      "Ġzamisli": 7878,
      "ĠizdrÅ¾a": 7879,
      "Ġhrabro": 7880,
      "ĠUmro": 7881,
      "89": 7882,
      "Ġsamouprave": 7883,
      "vata": 7884,
      "ĠBori": 7885,
      "ĠkriviÄįno": 7886,
      "ĠRezulta": 7887,
      "ĠNajveÄĩi": 7888,
      "ĠuveÄĩa": 7889,
      "Ġinvali": 7890,
      "ĠÅ¾enu": 7891,
      "ĠJovana": 7892,
      "ĠGvanahuato": 7893,
      "ĠSina": 7894,
      "Ġminimalnoj": 7895,
      "Ġbataljo": 7896,
      "Ġreformi": 7897,
      "ĠMuze": 7898,
      "ĠdanaÅ¡nje": 7899,
      "lis": 7900,
      "Ġumetnika": 7901,
      "move": 7902,
      "Å¾nu": 7903,
      "boru": 7904,
      "ĠNarodna": 7905,
      "ĠSavet": 7906,
      "Ġtam": 7907,
      "Ġgeneralni": 7908,
      "ĠKona": 7909,
      "ĠZemu": 7910,
      "Ġdigita": 7911,
      "ĠsluÄįaja": 7912,
      "tes": 7913,
      "njaka": 7914,
      "ĠMoskvi": 7915,
      "Ġurednik": 7916,
      "ĠpreÅ¡ao": 7917,
      "Ġsvuda": 7918,
      "Ġpolje": 7919,
      "Ġsudom": 7920,
      "Ġpisma": 7921,
      "Ġrevoluciona": 7922,
      "ĠsinoÄĩ": 7923,
      "rozapa": 7924,
      "ĠodluÄįuje": 7925,
      "Ġpostojanje": 7926,
      "Ġposlani": 7927,
      "ĠBar": 7928,
      "Ġosiguranje": 7929,
      "OT": 7930,
      "Ġtok": 7931,
      "Ġsvetlosti": 7932,
      "metra": 7933,
      "Ġpojavljuje": 7934,
      "dran": 7935,
      "Ġdeci": 7936,
      "ĠkomÅ¡i": 7937,
      "Ġnami": 7938,
      "Ġzastupa": 7939,
      "Ġraspada": 7940,
      "ĠSrebre": 7941,
      "Ġkonkurenciji": 7942,
      "Ġhiljadu": 7943,
      "Ġdio": 7944,
      "ĠÄįijem": 7945,
      "Ġraditi": 7946,
      "ĠigraÄįi": 7947,
      "Ġtemu": 7948,
      "Ġpotpredsednik": 7949,
      "Ġmetra": 7950,
      "rijskog": 7951,
      "Ġodigrao": 7952,
      "Ġglavne": 7953,
      "Ġprijem": 7954,
      "Ġpravni": 7955,
      "Ġlikvi": 7956,
      "joviÄĩ": 7957,
      "ĠpodrÅ¾ava": 7958,
      "ĠÅ¾upa": 7959,
      "Äįija": 7960,
      "Ġplati": 7961,
      "Ġgospodine": 7962,
      "Ġkompromi": 7963,
      "Ġnajverovatnije": 7964,
      "Ġigrati": 7965,
      "Ġstica": 7966,
      "Ġuticajem": 7967,
      "Ġdvojica": 7968,
      "krug": 7969,
      "Ġposeban": 7970,
      "rum": 7971,
      "Ġpodatak": 7972,
      "Ġpojavio": 7973,
      "Ġstarog": 7974,
      "Ġnazivaju": 7975,
      "ĠSRS": 7976,
      "Al": 7977,
      "Ġdemonstra": 7978,
      "Ġkosov": 7979,
      "Ġkazna": 7980,
      "Ġnapravi": 7981,
      "Ġ95": 7982,
      "Ġpoho": 7983,
      "ĠStru": 7984,
      "Ġmanastir": 7985,
      "Ġproizvodnja": 7986,
      "loÅ¡kim": 7987,
      "Ġsobu": 7988,
      "srp": 7989,
      "dnije": 7990,
      "Ġmm": 7991,
      "Ġgradovima": 7992,
      "Ġteren": 7993,
      "Ġ%": 7994,
      "Ġtakvo": 7995,
      "ĠDÅ¾a": 7996,
      "Ġrazgovoru": 7997,
      "Ġanalizi": 7998,
      "ĠHrvati": 7999,
      "Ġsukob": 8000,
      "Ġhro": 8001,
      "Ġujedinje": 8002,
      "maksimalnoj": 8003,
      "ĠdÅ¾a": 8004,
      "klih": 8005,
      "Ġzbu": 8006,
      "Ġrase": 8007,
      "Ġznali": 8008,
      "Ġugle": 8009,
      "Ġdobijaju": 8010,
      "ĠPotre": 8011,
      "Ġbolest": 8012,
      "ĠRio": 8013,
      "Ġkonze": 8014,
      "ĠSrpski": 8015,
      "Ġusred": 8016,
      "Ġadministrativnog": 8017,
      "ĠUpravo": 8018,
      "Ġistoj": 8019,
      "Ġbiste": 8020,
      "ĠstiÅ¾e": 8021,
      "Ġpretvori": 8022,
      "ĠPove": 8023,
      "rijskih": 8024,
      "kas": 8025,
      "ĠBibli": 8026,
      "ĠSrem": 8027,
      "Ġsmr": 8028,
      "Ġporaza": 8029,
      "ntna": 8030,
      "Ġske": 8031,
      "Ġvlasnika": 8032,
      "Ġindustrije": 8033,
      "Ġfanta": 8034,
      "Ġorke": 8035,
      "jak": 8036,
      "Å¡nom": 8037,
      "ĠstruÄįnjaka": 8038,
      "Ġsinta": 8039,
      "Ġkandidat": 8040,
      "Ġfilozof": 8041,
      "ĠBlan": 8042,
      "fikova": 8043,
      "Ġposlao": 8044,
      "ĠKovaÄįeviÄĩ": 8045,
      "ĠMeksiko": 8046,
      "Ġsredinom": 8047,
      "ĠLeon": 8048,
      "Ġosmo": 8049,
      "Ġsfe": 8050,
      "ĠunutraÅ¡nje": 8051,
      "Ġraspa": 8052,
      "Ġfirmi": 8053,
      "Ġosnovna": 8054,
      "ĠGrÄįke": 8055,
      "Ġjutro": 8056,
      "ĠNasta": 8057,
      "Ġnajte": 8058,
      "Ġorganizuje": 8059,
      "Ġsusreta": 8060,
      "ĠThe": 8061,
      "Ġmenta": 8062,
      "Ġznate": 8063,
      "reta": 8064,
      "pustio": 8065,
      "ĠpodrÅ¡ke": 8066,
      "Ġorganima": 8067,
      "Ġideju": 8068,
      "Ġobjekat": 8069,
      "ĠTran": 8070,
      "ĠNaÅ¡": 8071,
      "Ġpostojala": 8072,
      "ĠpolitiÄįkom": 8073,
      "nau": 8074,
      "Ġpostalo": 8075,
      "ĠIva": 8076,
      "Ġizosta": 8077,
      "Ġteritoriju": 8078,
      "Ġstigla": 8079,
      "Ġ59": 8080,
      "Ġkompju": 8081,
      "pola": 8082,
      "ĠdrÅ¾avnim": 8083,
      "Ġlidera": 8084,
      "Ġbiblioteke": 8085,
      "Ġcrte": 8086,
      "Ġspomenik": 8087,
      "Ġroka": 8088,
      "ĠknjiÅ¾evnost": 8089,
      "Å¾noj": 8090,
      "rita": 8091,
      "renih": 8092,
      "nem": 8093,
      "Ġplanina": 8094,
      "Ġpovolj": 8095,
      "Ġradne": 8096,
      "Ġpolovine": 8097,
      "Ġvele": 8098,
      "Ġtakvog": 8099,
      "ĠproseÄįna": 8100,
      "Ġhorizo": 8101,
      "IH": 8102,
      "Ġpredstoje": 8103,
      "fer": 8104,
      "Ġostavio": 8105,
      "Ġ800": 8106,
      "Ġpreduzima": 8107,
      "Ġsaradnja": 8108,
      "Ġpopla": 8109,
      "ĠPau": 8110,
      "ĠpredloÅ¾e": 8111,
      "ĠkoliÄįina": 8112,
      "ĠVilija": 8113,
      "Ġstepeni": 8114,
      "Ġizvodi": 8115,
      "Ġulaganja": 8116,
      "Ġengleski": 8117,
      "Ġspor": 8118,
      "Ġizgradnje": 8119,
      "Ġpotrebne": 8120,
      "Ġzida": 8121,
      "ĠAp": 8122,
      "ljaÄįka": 8123,
      "Srbija": 8124,
      "Ġsem": 8125,
      "Ġpartne": 8126,
      "ĠCrkva": 8127,
      "proda": 8128,
      "Å¡tini": 8129,
      "Ġupi": 8130,
      "Ġvratiti": 8131,
      "ĠSlo": 8132,
      "ĠVuko": 8133,
      "Ġpoziciju": 8134,
      "Ġproizvede": 8135,
      "Ġznanje": 8136,
      "ĠPortuga": 8137,
      "parol": 8138,
      "Ġkuhi": 8139,
      "Ġnepreki": 8140,
      "sion": 8141,
      "Ġfirma": 8142,
      "Ġdom": 8143,
      "Ġpotpisao": 8144,
      "Ġsoft": 8145,
      "Ġseveroisto": 8146,
      "ĠCrvena": 8147,
      "ĠPremije": 8148,
      "Ġnadokna": 8149,
      "ĠMetohiji": 8150,
      "Ġposebne": 8151,
      "Ġdnevno": 8152,
      "ĠDubro": 8153,
      "ĠÄįinjenicu": 8154,
      "Ġslici": 8155,
      "Ġzone": 8156,
      "ĠsluÄįajno": 8157,
      "Ġluka": 8158,
      "Ġakce": 8159,
      "Ġsupruga": 8160,
      "Ġsuprotsta": 8161,
      "Ġnjihovoj": 8162,
      "Ġcrkvu": 8163,
      "ĠFakul": 8164,
      "Ġkontinenta": 8165,
      "ĠobrazloÅ¾e": 8166,
      "Ġmog": 8167,
      "ĠVije": 8168,
      "ĠpovrÅ¡ina": 8169,
      "Ġsiguran": 8170,
      "Ġstadio": 8171,
      "ĠbudÅ¾et": 8172,
      "Ġpao": 8173,
      "Ġosvet": 8174,
      "Ġliko": 8175,
      "ĠuÄįestvovali": 8176,
      "IST": 8177,
      "VA": 8178,
      "ĠBli": 8179,
      "ĠAvganista": 8180,
      "Ġporuka": 8181,
      "Ġglavnih": 8182,
      "ljko": 8183,
      "blu": 8184,
      "Ġodreda": 8185,
      "ĠodgovarajuÄĩe": 8186,
      "ĠpeÄĩi": 8187,
      "ĠveÄĩim": 8188,
      "zivanja": 8189,
      "vstva": 8190,
      "ĠFer": 8191,
      "Ġstarost": 8192,
      "Ġzapadu": 8193,
      "ĠtakmiÄįenje": 8194,
      "Ġrepublike": 8195,
      "Ġkakvu": 8196,
      "Ġpolovini": 8197,
      "Ġkomercija": 8198,
      "Ġ(),": 8199,
      "100": 8200,
      "loÅ¡ka": 8201,
      "Ġstanu": 8202,
      "Ġstotine": 8203,
      "ĠpoÅ¡te": 8204,
      "ĠIdalgo": 8205,
      "Ġautonom": 8206,
      "rijska": 8207,
      "ĠBroj": 8208,
      "tel": 8209,
      "Ġizaziva": 8210,
      "Ġuradi": 8211,
      "Ġnpr": 8212,
      "Ġapo": 8213,
      "Ġprovo": 8214,
      "ĠobezbeÄĳuje": 8215,
      "ĠEmilija": 8216,
      "Ġosiguranja": 8217,
      "Äįun": 8218,
      "biju": 8219,
      "ameri": 8220,
      "ĠSam": 8221,
      "ĠMada": 8222,
      "Ġgenerala": 8223,
      "Ġperi": 8224,
      "Ġodobra": 8225,
      "ĠÎ": 8226,
      "Ġodbaci": 8227,
      "Ġstaviti": 8228,
      "ĠSlobodana": 8229,
      "ĠStani": 8230,
      "Go": 8231,
      "Ġsekretara": 8232,
      "gar": 8233,
      "ĠtreÄĩem": 8234,
      "Ġpromet": 8235,
      "tiÄĩa": 8236,
      "Ġnadle": 8237,
      "Ġegzi": 8238,
      "ĠNiÅ¡ta": 8239,
      "ĠoseÄĩanja": 8240,
      "njenih": 8241,
      "kretni": 8242,
      "ĠProble": 8243,
      "Ġzatvori": 8244,
      "Ġfestivala": 8245,
      "Ġstanica": 8246,
      "Ġsekundi": 8247,
      "java": 8248,
      "mska": 8249,
      "Ġpostaju": 8250,
      "Ġhrvatski": 8251,
      "movima": 8252,
      "Ġ1980": 8253,
      "Ġdoneti": 8254,
      "Ġokolnostima": 8255,
      "Ġnacije": 8256,
      "Ġnalazila": 8257,
      "ravak": 8258,
      "ĠkuÄĩ": 8259,
      ".]": 8260,
      "vniku": 8261,
      "Ġpisme": 8262,
      "hodi": 8263,
      "?âĢľ": 8264,
      "Ġreditelj": 8265,
      "ĠodrÅ¾an": 8266,
      "ĠSmedere": 8267,
      "Ġposebnim": 8268,
      "tero": 8269,
      "ĠÄĩelije": 8270,
      "Ġseoske": 8271,
      "Ġprovi": 8272,
      "IÄĮ": 8273,
      "ĠVojislav": 8274,
      "Ġrevolucije": 8275,
      "ĠFoto": 8276,
      "ĠnaÅ¡li": 8277,
      "Ġcelom": 8278,
      "tetom": 8279,
      "ĠiÄĩi": 8280,
      "Ġglumac": 8281,
      "ĠNau": 8282,
      "Ġpesmu": 8283,
      "Ġizru": 8284,
      "tinj": 8285,
      "ĠkreÄįnja": 8286,
      "ĠudÅ¾be": 8287,
      "bni": 8288,
      "ĠDOS": 8289,
      "Ġvisokog": 8290,
      "Ġotpor": 8291,
      "Ġese": 8292,
      "Ġcela": 8293,
      "Ġpostojanja": 8294,
      "JE": 8295,
      "Ġigara": 8296,
      "Ġmitro": 8297,
      "Ġ64": 8298,
      "skopa": 8299,
      "Ġfinansiranja": 8300,
      "ĠdoÄĳu": 8301,
      "ĠCvetkoviÄĩ": 8302,
      "Ġmalim": 8303,
      "Ġugo": 8304,
      "Ġbloka": 8305,
      "Ġjevre": 8306,
      "Ġelementa": 8307,
      "bin": 8308,
      "Ġguver": 8309,
      "zavi": 8310,
      "Ġdele": 8311,
      "Ġsazve": 8312,
      "ĠTurci": 8313,
      "tal": 8314,
      "Ġpojam": 8315,
      "ĠVil": 8316,
      "Ġkomandant": 8317,
      "Ġprivremeno": 8318,
      "Ġinostranih": 8319,
      "Ġadministrativnim": 8320,
      "ĠSlovenije": 8321,
      "ĠproizvoÄĳaÄįa": 8322,
      "Âļ": 8323,
      "laganju": 8324,
      "Ġasteroida": 8325,
      "Ġmesa": 8326,
      "ĠÄĮar": 8327,
      "ting": 8328,
      "ĠÅ¡iroko": 8329,
      "Ġsede": 8330,
      "ĠpolitiÄįari": 8331,
      "Ġigrali": 8332,
      "Ġeviden": 8333,
      "Ġlege": 8334,
      "Ġizvoz": 8335,
      "ĠJU": 8336,
      "vene": 8337,
      "Ġprivu": 8338,
      "Ġbog": 8339,
      "Ġdetalj": 8340,
      "Ġbori": 8341,
      "Ġpostroje": 8342,
      "Ġkoso": 8343,
      "ĠNorve": 8344,
      "Ġnemi": 8345,
      "ĠleÄĳa": 8346,
      "ĠpolitiÄįara": 8347,
      "Ġrazlikuje": 8348,
      "Ġkoalicije": 8349,
      "ĠSvaka": 8350,
      "Ġpostavio": 8351,
      "gove": 8352,
      "Ġodjednom": 8353,
      "Äĳivanju": 8354,
      "Ġuniverzitet": 8355,
      "duju": 8356,
      "Ġdaljem": 8357,
      "Ġvama": 8358,
      "ĠSka": 8359,
      "Ġverzija": 8360,
      "ĠÄĨi": 8361,
      "ĠRA": 8362,
      "Ġnezna": 8363,
      "Ġfinale": 8364,
      "Ġprevoz": 8365,
      "ĠteÅ¾ak": 8366,
      "ĠLjudi": 8367,
      "ĠZdra": 8368,
      "ĠÄįet": 8369,
      "ĠvaÅ¾na": 8370,
      "Ġzaintereso": 8371,
      "lop": 8372,
      "Ġtrideset": 8373,
      "Ġsmatrao": 8374,
      "rajuÄĩi": 8375,
      "Ġarhitektu": 8376,
      "ĠVojske": 8377,
      "Ġkapitali": 8378,
      "ket": 8379,
      "Ġfunkcio": 8380,
      "Ġpublici": 8381,
      "Ġsimbol": 8382,
      "Ġdose": 8383,
      "Ġopozicije": 8384,
      "59": 8385,
      "ĠTE": 8386,
      "Ġplasti": 8387,
      "rki": 8388,
      "Ġpomalo": 8389,
      "Ġuslov": 8390,
      "Ġnasilje": 8391,
      "Ġpripove": 8392,
      "rici": 8393,
      "Ġprazni": 8394,
      "Ġ---": 8395,
      "ĠSonora": 8396,
      "vljenog": 8397,
      "ĠnadleÅ¾ni": 8398,
      "Ġpostepeno": 8399,
      "Ġmasi": 8400,
      "Ġautono": 8401,
      "Ġiznosu": 8402,
      "ĠNekoliko": 8403,
      "Ġstraho": 8404,
      "ĠsliÄįne": 8405,
      "ĠObi": 8406,
      "ĠObama": 8407,
      "Ġrasprostra": 8408,
      "Ġprimje": 8409,
      "Ġzaseda": 8410,
      "Äĳana": 8411,
      "Ġsastanku": 8412,
      "Ġnarodnog": 8413,
      "ĠznaÅ¡": 8414,
      "ĠZemlje": 8415,
      "Ġklije": 8416,
      "Ġizdaje": 8417,
      "54": 8418,
      "ĠInde": 8419,
      "Äįenjem": 8420,
      "ĠSkupÅ¡tina": 8421,
      "Ġpodnosi": 8422,
      "Ġkoordina": 8423,
      "Ġprijave": 8424,
      "Ġoke": 8425,
      "ĠJeremiÄĩ": 8426,
      "ĠzapoÄįeo": 8427,
      "Ġvakci": 8428,
      "ĠAuto": 8429,
      "ĠpomaÅ¾e": 8430,
      "Ġdelatnost": 8431,
      "renju": 8432,
      "tepek": 8433,
      "parati": 8434,
      "ĠtuÅ¾ilac": 8435,
      "ĠAlbanaca": 8436,
      "Ġuzrok": 8437,
      "fikacija": 8438,
      "ĠPobe": 8439,
      "Ġposeduje": 8440,
      "ĠIzrael": 8441,
      "sina": 8442,
      "ĠElek": 8443,
      "Ġodabra": 8444,
      "ĠzaÄįu": 8445,
      "ston": 8446,
      "ĠKola": 8447,
      "Ġskrom": 8448,
      "Ġkonf": 8449,
      "Ġprisustvu": 8450,
      "reo": 8451,
      "Ġokrug": 8452,
      "Ġparlament": 8453,
      "Ġzapita": 8454,
      "ĠMor": 8455,
      "Ġputnika": 8456,
      "tetima": 8457,
      "Ġprethodne": 8458,
      "Ġpretra": 8459,
      "Ġnastaviti": 8460,
      "nistara": 8461,
      "Ġobavljanje": 8462,
      "Å¡enjem": 8463,
      "Ġlaborato": 8464,
      "riÄĩa": 8465,
      "Ġstepena": 8466,
      "Ġpatrio": 8467,
      "Ġkupi": 8468,
      "Ġoblastima": 8469,
      "es": 8470,
      "ĠoduÅ¡e": 8471,
      "dinu": 8472,
      "Ġobjavljen": 8473,
      "ĠBeÄįu": 8474,
      "klapa": 8475,
      "raj": 8476,
      "Ġnuklear": 8477,
      "ĠbiÄĩa": 8478,
      "Ġ76": 8479,
      "57": 8480,
      "ĠIde": 8481,
      "Å¾ivanje": 8482,
      "Ġkarte": 8483,
      "Ġvizanti": 8484,
      "Ġmuziku": 8485,
      "ĠBalkana": 8486,
      "Di": 8487,
      "ĠopÅ¡tinskih": 8488,
      "Ġzadovolja": 8489,
      "ĠliÄįnost": 8490,
      "torima": 8491,
      "Ġvazduh": 8492,
      "Äĳivao": 8493,
      "vam": 8494,
      "Ġmaterije": 8495,
      "ĠduÅ¾ine": 8496,
      "Ġmorna": 8497,
      "Ġregistra": 8498,
      "Ġdokumenata": 8499,
      "Ġmanja": 8500,
      "Ġoduzima": 8501,
      "Ġter": 8502,
      "ĠRobert": 8503,
      "ĠÄĲokoviÄĩ": 8504,
      "Ġvalu": 8505,
      "jnu": 8506,
      "ĠHor": 8507,
      "Ġinterna": 8508,
      "slov": 8509,
      "Ġizjava": 8510,
      "nk": 8511,
      "uda": 8512,
      "sus": 8513,
      "veta": 8514,
      "Ġuju": 8515,
      "Äįenjima": 8516,
      "Ġrod": 8517,
      "Ġlokalnih": 8518,
      "Ġroda": 8519,
      "Ġpresude": 8520,
      "zaciji": 8521,
      "Ġ04": 8522,
      "ĠÄįoveku": 8523,
      "Ġcrnogor": 8524,
      "Ġzdravstvene": 8525,
      "ĠIra": 8526,
      "Ġodredbama": 8527,
      "Ġposlednjeg": 8528,
      "govori": 8529,
      "ngu": 8530,
      "Ġpozicije": 8531,
      "ĠpruÅ¾i": 8532,
      "noÅ¡Äĩu": 8533,
      "Äįana": 8534,
      "Ġpromenu": 8535,
      "Ġoset": 8536,
      "Ġkrva": 8537,
      "ĠStano": 8538,
      "Ġintegri": 8539,
      "Ġzamenik": 8540,
      "ĠveÄĩini": 8541,
      "resa": 8542,
      "Ġdugoro": 8543,
      "Ġgale": 8544,
      "Ġdugi": 8545,
      "Ġvisok": 8546,
      "Ġkapaciteta": 8547,
      "ljenih": 8548,
      "Ġsuprotno": 8549,
      "Ġafe": 8550,
      "Ġdobru": 8551,
      "pisuju": 8552,
      "ĠutvrÄĳuje": 8553,
      "des": 8554,
      "Ġjapa": 8555,
      "Ġbudem": 8556,
      "Ġministara": 8557,
      "ĠÄįetr": 8558,
      "vito": 8559,
      "ĠArgenti": 8560,
      "Ġneprestano": 8561,
      "Ġulazak": 8562,
      "ĠMali": 8563,
      "ĠodrÅ¾ana": 8564,
      "Ġuzdi": 8565,
      "ĠÅłar": 8566,
      "ĠIstovremeno": 8567,
      "ĠÄįetvrti": 8568,
      "kor": 8569,
      "dao": 8570,
      "Ġkarti": 8571,
      "Ġvino": 8572,
      "gradu": 8573,
      "ĠVizanti": 8574,
      "Ġspasa": 8575,
      "Ġdiskrimina": 8576,
      "Ġvike": 8577,
      "ĠÅ¾esto": 8578,
      "ĠSrbe": 8579,
      "ĠÄĩi": 8580,
      "Ġcm": 8581,
      "Ġsredstvo": 8582,
      "52": 8583,
      "ĠStojanoviÄĩ": 8584,
      "Ġklini": 8585,
      "luje": 8586,
      "fiju": 8587,
      "ĠPet": 8588,
      "ĠLjubo": 8589,
      "ulipas": 8590,
      "Ġopu": 8591,
      "ĠpoÅ¡ta": 8592,
      "Ġotpu": 8593,
      "ĠMiroslav": 8594,
      "dona": 8595,
      "Ġtea": 8596,
      "Ġcrnogo": 8597,
      "Ġkrenuo": 8598,
      "Ġoktobar": 8599,
      "Äįarima": 8600,
      "UR": 8601,
      "dnike": 8602,
      "Ġostavku": 8603,
      "Ġistinu": 8604,
      "Ġalbuma": 8605,
      "Ġreprezentaciju": 8606,
      "Ġnapustio": 8607,
      "ĠVaÅ¡ington": 8608,
      "Ġsmisao": 8609,
      "dov": 8610,
      "ĠUjedinjenih": 8611,
      "53": 8612,
      "Ġprojekata": 8613,
      "Ġmoju": 8614,
      "Ġcigare": 8615,
      "Ġobusta": 8616,
      "Ġizgled": 8617,
      "Ġprimera": 8618,
      "Ġkaznu": 8619,
      "vnica": 8620,
      "ĠEto": 8621,
      "ĠDinkiÄĩ": 8622,
      "zen": 8623,
      "Ġnjeni": 8624,
      "ĠveÄĩeg": 8625,
      "Ġtipi": 8626,
      "Ġnamera": 8627,
      "Ġpravilu": 8628,
      "ĠBarse": 8629,
      "ĠTamaulipas": 8630,
      "Ġmanjina": 8631,
      "Ġneizve": 8632,
      "ing": 8633,
      "ĠSkupÅ¡tini": 8634,
      "Ġbanaka": 8635,
      "Ġex": 8636,
      "Ġnadu": 8637,
      "zanja": 8638,
      "rus": 8639,
      "nstva": 8640,
      "ĠPore": 8641,
      "Ġkneza": 8642,
      "tus": 8643,
      "Ġpotrebu": 8644,
      "ot": 8645,
      "Ġsrpsku": 8646,
      "ĠizraÄįuna": 8647,
      "Ġprvaka": 8648,
      "ĠUostalom": 8649,
      "Ġglavnom": 8650,
      "Ġtehnologije": 8651,
      "Ġratni": 8652,
      "Ġradila": 8653,
      "Ġdonela": 8654,
      "ĠoÄįiju": 8655,
      "Ġnapomenu": 8656,
      "viÄĩem": 8657,
      "Ġprenos": 8658,
      "Ġstandarda": 8659,
      "ĠtreÄĩeg": 8660,
      "ĠÅ¾elim": 8661,
      "kana": 8662,
      "ĠniÅ¾e": 8663,
      "Ġstavu": 8664,
      "Ġizjavi": 8665,
      "dice": 8666,
      "Ġrake": 8667,
      "ĠosuÄĳen": 8668,
      "Ġkatoli": 8669,
      "Ġkategorije": 8670,
      "Ġsvrhe": 8671,
      "Ġnena": 8672,
      "Ġsocijalisti": 8673,
      "tenti": 8674,
      "ĠovlaÅ¡Äĩenja": 8675,
      "Ġugled": 8676,
      "ĠleÅ¾a": 8677,
      "lazeÄĩi": 8678,
      "ĠKrajem": 8679,
      "ĠNIS": 8680,
      "ĠneÄĩemo": 8681,
      "Ġizrazio": 8682,
      "sala": 8683,
      "ĠoÅ¾i": 8684,
      "Ġpokazalo": 8685,
      "ĠKaradÅ¾iÄĩ": 8686,
      "Ġnjenoj": 8687,
      "ĠpribliÅ¾no": 8688,
      "Ġradnih": 8689,
      "Ġreleva": 8690,
      "Ġobavezu": 8691,
      "ĠDve": 8692,
      "ĠsluÅ¾e": 8693,
      "Ġprethodnih": 8694,
      "Ġrukovodi": 8695,
      "Ġpojedinim": 8696,
      "Â»": 8697,
      "ĠZahva": 8698,
      "nder": 8699,
      "ĠNemci": 8700,
      "danja": 8701,
      "Ġekonomi": 8702,
      "Ġpatrijarha": 8703,
      "Ġslova": 8704,
      "ĠOpÅ¡ti": 8705,
      "ĠÄįetvrtfina": 8706,
      "Ġfabrike": 8707,
      "Ġspisak": 8708,
      "Ġproteklih": 8709,
      "Ġbudemo": 8710,
      "64": 8711,
      "Ġpodsetio": 8712,
      "ĠPoÄįetkom": 8713,
      "ĠIsa": 8714,
      "Ġzoni": 8715,
      "Ġkontekstu": 8716,
      "Ġpoznate": 8717,
      "Ġidentitet": 8718,
      "Ġmoram": 8719,
      "ĠRade": 8720,
      "Ġtrpe": 8721,
      "ĠuhapÅ¡en": 8722,
      "Ġpravima": 8723,
      "Ġsvakodnevno": 8724,
      "Ġprimlje": 8725,
      "Ġsposobnost": 8726,
      "ÄĩeviÄĩ": 8727,
      "pati": 8728,
      "ĠMetohije": 8729,
      "ĠSkop": 8730,
      "Ġtragi": 8731,
      "Ġimpe": 8732,
      "ĠUs": 8733,
      "Ġimate": 8734,
      "Ġpokazali": 8735,
      "Ġstadi": 8736,
      "ĠTom": 8737,
      "Ġsprem": 8738,
      "Ġshva": 8739,
      "ĠProizvo": 8740,
      "ĠHitle": 8741,
      "ĠÅ¡anse": 8742,
      "vost": 8743,
      "Ġadekva": 8744,
      "jena": 8745,
      "Ġprepu": 8746,
      "Äĩo": 8747,
      "Ġbodova": 8748,
      "tiku": 8749,
      "ĠPala": 8750,
      "ĠoÄįekuju": 8751,
      "Ġopora": 8752,
      "ĠdruÅ¡tvenih": 8753,
      "Ġsindikata": 8754,
      "Ġneuro": 8755,
      "ĠLom": 8756,
      "pozi": 8757,
      "ida": 8758,
      "klom": 8759,
      "Ġkontinui": 8760,
      "parhi": 8761,
      "lovanje": 8762,
      "Ġpojavi": 8763,
      "ĠKolonija": 8764,
      "ĠizveÅ¡taju": 8765,
      "ĠMiodra": 8766,
      "vamo": 8767,
      "ĠureÄĳuje": 8768,
      "Ġpredseda": 8769,
      "Ġsporta": 8770,
      "Ġ62": 8771,
      "Ġdefici": 8772,
      "Ġvidlji": 8773,
      "Ġvere": 8774,
      "Ġtabeli": 8775,
      "ĠNajbo": 8776,
      "ĠLesko": 8777,
      "Ġdomini": 8778,
      "Ġfabrika": 8779,
      "Ġane": 8780,
      "ĠFilozo": 8781,
      "Äįenog": 8782,
      "Ġtole": 8783,
      "Ġodbio": 8784,
      "Ġprora": 8785,
      "Ġevropskog": 8786,
      "ĠSSS": 8787,
      "AS": 8788,
      "ĠpredviÄĳeno": 8789,
      "Ġizrael": 8790,
      "Ġnovoj": 8791,
      "Ġfinala": 8792,
      "njavaju": 8793,
      "ĠzaÅ¡tita": 8794,
      "Ġinterpre": 8795,
      "Ġkomuna": 8796,
      "remo": 8797,
      "Ġizva": 8798,
      "Ġenti": 8799,
      "Ġfunkciona": 8800,
      "Ġkrv": 8801,
      "Ġfestival": 8802,
      "Ġlati": 8803,
      "Ġkaraktera": 8804,
      "ĠsliÄįan": 8805,
      "ĠobaveÅ¡te": 8806,
      "Ġpredsje": 8807,
      "ĠOsman": 8808,
      "ĠBoÅ¡nja": 8809,
      "Ġizvesno": 8810,
      "ĠdanaÅ¡nji": 8811,
      "stila": 8812,
      "Ġgrana": 8813,
      "kreta": 8814,
      "ĠÄĲur": 8815,
      "Ġobna": 8816,
      "Ġtimu": 8817,
      "Ġizmi": 8818,
      "ĠsaopÅ¡tila": 8819,
      "Ġ63": 8820,
      "Ġizdvoji": 8821,
      "njao": 8822,
      "Ġstalnog": 8823,
      "Ġigri": 8824,
      "Ġrasko": 8825,
      "Politike": 8826,
      "Ġstvaranja": 8827,
      "Ġvojnici": 8828,
      "Ġzaposleni": 8829,
      "Ġarap": 8830,
      "Ġtehnologija": 8831,
      "Ġnaknade": 8832,
      "Ġknez": 8833,
      "njaci": 8834,
      "Ġmoru": 8835,
      "Ġnajstariji": 8836,
      "Ġkarijere": 8837,
      "sara": 8838,
      "Ġvojnih": 8839,
      "Ġzarade": 8840,
      "ĠStankoviÄĩ": 8841,
      "Ġpodsta": 8842,
      "Ġzapi": 8843,
      "diÅ¡ta": 8844,
      "ĠTru": 8845,
      "Ġstigli": 8846,
      "Ġkriminala": 8847,
      "Ġizgubila": 8848,
      "Ġ110": 8849,
      "mrt": 8850,
      "Ġspek": 8851,
      "Ġruci": 8852,
      "Ġ61": 8853,
      "Ġstarije": 8854,
      "Ġproblemima": 8855,
      "Ġindustrija": 8856,
      "spira": 8857,
      "Ġnogu": 8858,
      "Ġpolicaja": 8859,
      "Ġljudske": 8860,
      "ĠveÄĩinom": 8861,
      "nis": 8862,
      "ĠpoÅ¡tovanje": 8863,
      "ĠnajvaÅ¾nije": 8864,
      "ĠÅ¡ez": 8865,
      "Ġcilja": 8866,
      "Ġopisuje": 8867,
      "Ġmaju": 8868,
      "ĠSvetlana": 8869,
      "Ġpredloga": 8870,
      "Ġkamen": 8871,
      "Ġ72": 8872,
      "Ġposlovima": 8873,
      "Ġpovremeno": 8874,
      "tete": 8875,
      "Ġaran": 8876,
      "ĠDavi": 8877,
      "Ġopi": 8878,
      "OB": 8879,
      "Ġcelini": 8880,
      "ĠmeÄĳunarodni": 8881,
      "Ġprovin": 8882,
      "Ġratova": 8883,
      "Ġdobiju": 8884,
      "nhe": 8885,
      "Ġosobine": 8886,
      "ĠMnogo": 8887,
      "Ġjanuar": 8888,
      "Ġgola": 8889,
      "Li": 8890,
      "Ġpredstavnicima": 8891,
      "ĠDragana": 8892,
      "ĠPrije": 8893,
      "Ġratnih": 8894,
      "Ġdokument": 8895,
      "ĠÅ¡ume": 8896,
      "ĠizveÅ¡taja": 8897,
      "Ġseverozapa": 8898,
      "ĠKneÅ¾e": 8899,
      "Ġsuper": 8900,
      "Ġsastanak": 8901,
      "ĠSvako": 8902,
      "njama": 8903,
      "Ġ700": 8904,
      "crve": 8905,
      "liÅ¡u": 8906,
      "Ġzakaza": 8907,
      "Ġgne": 8908,
      "ĠMirko": 8909,
      "Ġnajlep": 8910,
      "ĠpotvrÄĳuje": 8911,
      "Ġveruju": 8912,
      "ĠporuÄįio": 8913,
      "Ġjezero": 8914,
      "Ġkrugu": 8915,
      "ĠObre": 8916,
      "Ġosnovan": 8917,
      "hnu": 8918,
      "cionim": 8919,
      "Ġodvaja": 8920,
      "ĠIvanoviÄĩ": 8921,
      "vnije": 8922,
      "Ã¨": 8923,
      "ÄįujuÄĩi": 8924,
      "Ġco": 8925,
      "Ġpoziciji": 8926,
      "Ġfond": 8927,
      "Ġrumunske": 8928,
      "Ġvoleo": 8929,
      "ĠGrÄįkoj": 8930,
      "Ġdeteta": 8931,
      "ĠodreÄĳeno": 8932,
      "ĠXX": 8933,
      "Ġnezgo": 8934,
      "Å¡oj": 8935,
      "Ġsobe": 8936,
      "Å¾enog": 8937,
      "ntni": 8938,
      "ĠCar": 8939,
      "Ġhirur": 8940,
      "tiÄįki": 8941,
      "Ġbroda": 8942,
      "Ġizgradnji": 8943,
      "Ġdeklara": 8944,
      "Ġdijalek": 8945,
      "nilo": 8946,
      "Ġteorije": 8947,
      "zbo": 8948,
      "Ġpoluo": 8949,
      "Ġikada": 8950,
      "Å¾om": 8951,
      "dniku": 8952,
      "Pre": 8953,
      "Ġsuge": 8954,
      "ĠNjujorku": 8955,
      "ĠHrvata": 8956,
      "budu": 8957,
      "ĠograniÄįenja": 8958,
      "isti": 8959,
      "seni": 8960,
      "Ġkle": 8961,
      "Ġotvoren": 8962,
      "Ġprimo": 8963,
      "Ġkami": 8964,
      "Ġplanira": 8965,
      "Ġ84": 8966,
      "ĠNebojÅ¡a": 8967,
      "ĠnesreÄĩ": 8968,
      "Ġmleka": 8969,
      "ĠameriÄįka": 8970,
      "ĠPrve": 8971,
      "ĠLjublja": 8972,
      "Ġinterese": 8973,
      "Ġpreti": 8974,
      "Ġposlovanja": 8975,
      "Ġspira": 8976,
      "mese": 8977,
      "Ġsudova": 8978,
      "ĠZagreb": 8979,
      "Ġpogu": 8980,
      "Ġastronom": 8981,
      "Ġuzo": 8982,
      "Ġkritike": 8983,
      "ĠStaro": 8984,
      "mskim": 8985,
      "Ġmeso": 8986,
      "rida": 8987,
      "ĠsazveÅ¾Äĳu": 8988,
      "Ġgosto": 8989,
      "Ġepo": 8990,
      "ĠpovrÅ¡inu": 8991,
      "Ġtransforma": 8992,
      "Ġet": 8993,
      "jor": 8994,
      "vita": 8995,
      "plici": 8996,
      "UT": 8997,
      "ĠGleda": 8998,
      "Ġalgori": 8999,
      "Ġjugoslovenski": 9000,
      "Ġdodati": 9001,
      "Ġnemamo": 9002,
      "Ġsmanjuje": 9003,
      "ĠsasluÅ¡a": 9004,
      "Ġora": 9005,
      "Ġdozvolu": 9006,
      "kiÄĩa": 9007,
      "ĠMaksi": 9008,
      "ĠMarka": 9009,
      "Ġzahteve": 9010,
      "Ġistorijski": 9011,
      "Ġotvorenom": 9012,
      "Ġgovorili": 9013,
      "ĠnaÄįinu": 9014,
      "nc": 9015,
      "Ġimovinu": 9016,
      "ĠpoÄĳe": 9017,
      "rizam": 9018,
      "ĠRoma": 9019,
      "Ġturniru": 9020,
      "Ġmost": 9021,
      "Ġulozi": 9022,
      "Ġdvorani": 9023,
      "tivnosti": 9024,
      "Ġstekao": 9025,
      "Ġorganizaciju": 9026,
      "Ġosnovana": 9027,
      "plji": 9028,
      "ĠNikole": 9029,
      "zara": 9030,
      "Ġprof": 9031,
      "ĠnaÄįine": 9032,
      "Ġjugozapa": 9033,
      "rango": 9034,
      "ĠDruÅ¡tvo": 9035,
      "vredno": 9036,
      "Ġpromen": 9037,
      "Ġkomuni": 9038,
      "Ġovome": 9039,
      "ĠEvropskoj": 9040,
      "Ġstabilnost": 9041,
      "Ġhladno": 9042,
      "Ġizazi": 9043,
      "plasi": 9044,
      "ĠSava": 9045,
      "Ġseg": 9046,
      "her": 9047,
      "ĠukljuÄįuje": 9048,
      "Ġ|": 9049,
      "til": 9050,
      "63": 9051,
      "ĠmuÅ¾": 9052,
      "ĠPotosi": 9053,
      "roman": 9054,
      "Ġsopstvene": 9055,
      "ĠproÅ¡lost": 9056,
      "Ġbudi": 9057,
      "Ġministarstvo": 9058,
      "ĠKala": 9059,
      "ĠEr": 9060,
      "Ġ78": 9061,
      "Ġbiva": 9062,
      "Ġbloki": 9063,
      "ĠKina": 9064,
      "Ġdoprinosi": 9065,
      "Ġdale": 9066,
      "Ġistoime": 9067,
      "ĠpoÅ¡a": 9068,
      "ĠZemlji": 9069,
      "Ġtrofe": 9070,
      "Ġizboru": 9071,
      "Ġodbrani": 9072,
      "ĠpuÅ¡ta": 9073,
      "Ġrazlikuju": 9074,
      "ĠTito": 9075,
      "ĠzakljuÄįio": 9076,
      "Ġprosvete": 9077,
      "zina": 9078,
      "presi": 9079,
      "ĠÂ«": 9080,
      "ĠÅ¡teta": 9081,
      "Ġplata": 9082,
      "gera": 9083,
      "ĠVal": 9084,
      "Ġdrveta": 9085,
      "Ġkretanje": 9086,
      "ĠgreÅ¡ke": 9087,
      "npr": 9088,
      "Ġpreme": 9089,
      "Ġprvenstveno": 9090,
      "Å¡tvom": 9091,
      "ĠzvaniÄįni": 9092,
      "Å¾nji": 9093,
      "Ġpje": 9094,
      "ljuju": 9095,
      "vaÄįkog": 9096,
      "ndu": 9097,
      "metri": 9098,
      "ĠFilm": 9099,
      "Ġpritiskom": 9100,
      "Ġdeblji": 9101,
      "ĠmaÅ¡ina": 9102,
      "mato": 9103,
      "ĠSSSR": 9104,
      "Ġudara": 9105,
      "ĠLin": 9106,
      "ĠpoÄįeti": 9107,
      "fini": 9108,
      "ĠobaveÅ¡ta": 9109,
      "ĠStoja": 9110,
      "pru": 9111,
      "Ġinfe": 9112,
      "Ġnastave": 9113,
      "Ġkampanje": 9114,
      "ĠpoveÄĩava": 9115,
      "Ġvisina": 9116,
      "RAD": 9117,
      "Ġtajne": 9118,
      "Ġsavezni": 9119,
      "strova": 9120,
      "Äįinje": 9121,
      "ĠVol": 9122,
      "ĠsledeÄĩu": 9123,
      "ĠreÅ¡avanje": 9124,
      "ĠNOV": 9125,
      "Ġfiska": 9126,
      "Ġsmisla": 9127,
      "ĠÄįasopisa": 9128,
      "Ġota": 9129,
      "lska": 9130,
      "ĠdÅ¾i": 9131,
      "ĠKaradÅ¾i": 9132,
      "ĠKomu": 9133,
      "Ġonemogu": 9134,
      "Ġsimp": 9135,
      "Ġzapadne": 9136,
      "Ġpregled": 9137,
      "Ġidentiteta": 9138,
      "jnih": 9139,
      "Ġorijenta": 9140,
      "ĠIzmeÄĳu": 9141,
      "ĠÄįlanstvo": 9142,
      "Ġeu": 9143,
      "slobodila": 9144,
      "Ġgranici": 9145,
      "Ġciljeva": 9146,
      "ĠZnaÄįi": 9147,
      "ĠpaÅ¾ljivo": 9148,
      "ĠsuÄĳenje": 9149,
      "ĠHagu": 9150,
      "ĠÅ¡esto": 9151,
      "Ġponude": 9152,
      "ĠRaj": 9153,
      "Ġdetinj": 9154,
      "stremi": 9155,
      "ĠvaroÅ¡i": 9156,
      "Ġunija": 9157,
      "ĠKini": 9158,
      "ĠÅ½ar": 9159,
      "Ġkulturno": 9160,
      "ĠInter": 9161,
      "Ġporo": 9162,
      "Ġ67": 9163,
      "Ġtrci": 9164,
      "Ġavan": 9165,
      "Ġsvetskih": 9166,
      "ĠAntonio": 9167,
      "Ġfami": 9168,
      "ĠpreÄĳe": 9169,
      "ziÄĩ": 9170,
      "pat": 9171,
      "Ġkoncert": 9172,
      "ĠiÅ¡ao": 9173,
      "Ġbitke": 9174,
      "Ġvizu": 9175,
      "jde": 9176,
      "vanom": 9177,
      "Ġdemokratske": 9178,
      "Ġano": 9179,
      "Ġnebe": 9180,
      "nijem": 9181,
      "ĠÄįlanovima": 9182,
      "Ġambasador": 9183,
      "strem": 9184,
      "Ġfaze": 9185,
      "Ġkrene": 9186,
      "vicu": 9187,
      "ĠObe": 9188,
      "ĠnemaÄįkog": 9189,
      "ĠLja": 9190,
      "Ġpoverenje": 9191,
      "Ġneutra": 9192,
      "Ġubio": 9193,
      "EF": 9194,
      "Ġcije": 9195,
      "Ġzona": 9196,
      "ĠPartiza": 9197,
      "merno": 9198,
      "Ġkralji": 9199,
      "Ġulica": 9200,
      "ĠKlu": 9201,
      "novog": 9202,
      "Ġkonsulta": 9203,
      "Ġravnote": 9204,
      "ĠSmi": 9205,
      "Ġstvarnosti": 9206,
      "Ġmotor": 9207,
      "ĠKruÅ¡e": 9208,
      "Ġdovesti": 9209,
      "Ġpozaj": 9210,
      "Ġï": 9211,
      "Ġnevladi": 9212,
      "Ġvije": 9213,
      "Ġsvetlost": 9214,
      "Ġdecembar": 9215,
      "ĠPotom": 9216,
      "ty": 9217,
      "dalu": 9218,
      "ĠpiÅ¡to": 9219,
      "ĠtraÅ¾iti": 9220,
      "dr": 9221,
      "ĠPrilikom": 9222,
      "Ġpreuzeo": 9223,
      "ĠuÄįesni": 9224,
      "vstvo": 9225,
      "Ġx": 9226,
      "veti": 9227,
      "ĠizvoÄĳa": 9228,
      "Ġuzeo": 9229,
      "ĠgraÄĳevina": 9230,
      "ĠAgencija": 9231,
      "Ġprilog": 9232,
      "Ġdolaska": 9233,
      "ĠÅ¡eÄĩera": 9234,
      "Ġsednice": 9235,
      "ĠÄĨo": 9236,
      "Ġvita": 9237,
      "Ġpotpredsedni": 9238,
      "Ġmnom": 9239,
      "Ġhteli": 9240,
      "Ġdikta": 9241,
      "ĠMadri": 9242,
      "ĠnauÄįno": 9243,
      "Ġmito": 9244,
      "Ġotpada": 9245,
      "?!": 9246,
      "Ġmane": 9247,
      "ĠTrenu": 9248,
      "Ġprostorima": 9249,
      "ĠodreÄĳenih": 9250,
      "62": 9251,
      "Äĳaju": 9252,
      "Ġklubova": 9253,
      "ĠPosebno": 9254,
      "ĠpolitiÄįkoj": 9255,
      "Ġneja": 9256,
      "Ġniza": 9257,
      "ĠutiÄįu": 9258,
      "Ġprotivnika": 9259,
      "Ġkoe": 9260,
      "Ġstadionu": 9261,
      "Ġformiranje": 9262,
      "Ġulja": 9263,
      "Ġosigura": 9264,
      "Ġoksi": 9265,
      "vari": 9266,
      "Ġomi": 9267,
      "Ġzaka": 9268,
      "Ġizradu": 9269,
[...]
