{
  "version": "1.0",
  "truncation": null,
  "padding": null,
  "added_tokens": [
    {
      "id": 0,
      "special": true,
      "content": "<s>",
      "single_word": false,
      "lstrip": false,
      "rstrip": false,
      "normalized": false
    },
    {
      "id": 1,
      "special": true,
      "content": "<pad>",
      "single_word": false,
      "lstrip": false,
      "rstrip": false,
      "normalized": false
    },
    {
      "id": 2,
      "special": true,
      "content": "</s>",
      "single_word": false,
      "lstrip": false,
      "rstrip": false,
      "normalized": false
    },
    {
      "id": 3,
      "special": true,
      "content": "<unk>",
      "single_word": false,
      "lstrip": false,
      "rstrip": false,
      "normalized": false
    },
    {
      "id": 4,
      "special": true,
      "content": "<mask>",
      "single_word": false,
      "lstrip": false,
      "rstrip": false,
      "normalized": false
    }
  ],
  "normalizer": null,
  "pre_tokenizer": {
    "type": "ByteLevel",
    "add_prefix_space": true,
    "trim_offsets": true
  },
   "post_processor":{
      "type":"RobertaProcessing",
      "sep":[
         "</s>",
         2
      ],
      "cls":[
         "<s>",
         0
      ],
      "trim_offsets":true,
      "add_prefix_space":false
   },
  "decoder": {
    "type": "ByteLevel",
    "add_prefix_space": true,
    "trim_offsets": true
  },
  "model": {
    "type": "BPE",
    "dropout": null,
    "unk_token": "<UNK>",
    "continuing_subword_prefix": null,
    "end_of_word_suffix": null,
    "fuse_unk": false,
    "vocab": {
      "<s>": 0,
      "<pad>": 1,
      "</s>": 2,
      "<unk>": 3,
      "<mask>": 4,
      "!": 5,
      "\"": 6,
      "#": 7,
      "$": 8,
      "%": 9,
      "&": 10,
      "'": 11,
      "(": 12,
      ")": 13,
      "*": 14,
      "+": 15,
      ",": 16,
      "-": 17,
      ".": 18,
      "/": 19,
      "0": 20,
      "1": 21,
      "2": 22,
      "3": 23,
      "4": 24,
      "5": 25,
      "6": 26,
      "7": 27,
      "8": 28,
      "9": 29,
      ":": 30,
      ";": 31,
      "<": 32,
      "=": 33,
      ">": 34,
      "?": 35,
      "@": 36,
      "A": 37,
      "B": 38,
      "C": 39,
      "D": 40,
      "E": 41,
      "F": 42,
      "G": 43,
      "H": 44,
      "I": 45,
      "J": 46,
      "K": 47,
      "L": 48,
      "M": 49,
      "N": 50,
      "O": 51,
      "P": 52,
      "Q": 53,
      "R": 54,
      "S": 55,
      "T": 56,
      "U": 57,
      "V": 58,
      "W": 59,
      "X": 60,
      "Y": 61,
      "Z": 62,
      "[": 63,
      "\\": 64,
      "]": 65,
      "^": 66,
      "_": 67,
      "`": 68,
      "a": 69,
      "b": 70,
      "c": 71,
      "d": 72,
      "e": 73,
      "f": 74,
      "g": 75,
      "h": 76,
      "i": 77,
      "j": 78,
      "k": 79,
      "l": 80,
      "m": 81,
      "n": 82,
      "o": 83,
      "p": 84,
      "q": 85,
      "r": 86,
      "s": 87,
      "t": 88,
      "u": 89,
      "v": 90,
      "w": 91,
      "x": 92,
      "y": 93,
      "z": 94,
      "{": 95,
      "|": 96,
      "}": 97,
      "~": 98,
      "¡": 99,
      "¢": 100,
      "£": 101,
      "¤": 102,
      "¥": 103,
      "¦": 104,
      "§": 105,
      "¨": 106,
      "©": 107,
      "ª": 108,
      "«": 109,
      "¬": 110,
      "®": 111,
      "¯": 112,
      "°": 113,
      "±": 114,
      "²": 115,
      "³": 116,
      "´": 117,
      "µ": 118,
      "¶": 119,
      "·": 120,
      "¸": 121,
      "¹": 122,
      "º": 123,
      "»": 124,
      "¼": 125,
      "½": 126,
      "¾": 127,
      "¿": 128,
      "À": 129,
      "Á": 130,
      "Â": 131,
      "Ã": 132,
      "Ä": 133,
      "Å": 134,
      "Æ": 135,
      "Ç": 136,
      "È": 137,
      "É": 138,
      "Ê": 139,
      "Ë": 140,
      "Ì": 141,
      "Í": 142,
      "Î": 143,
      "Ï": 144,
      "Ð": 145,
      "Ñ": 146,
      "Ò": 147,
      "Ó": 148,
      "Ô": 149,
      "Õ": 150,
      "Ö": 151,
      "×": 152,
      "Ø": 153,
      "Ù": 154,
      "Ú": 155,
      "Û": 156,
      "Ü": 157,
      "Ý": 158,
      "Þ": 159,
      "ß": 160,
      "à": 161,
      "á": 162,
      "â": 163,
      "ã": 164,
      "ä": 165,
      "å": 166,
      "æ": 167,
      "ç": 168,
      "è": 169,
      "é": 170,
      "ê": 171,
      "ë": 172,
      "ì": 173,
      "í": 174,
      "î": 175,
      "ï": 176,
      "ð": 177,
      "ñ": 178,
      "ò": 179,
      "ó": 180,
      "ô": 181,
      "õ": 182,
      "ö": 183,
      "÷": 184,
      "ø": 185,
      "ù": 186,
      "ú": 187,
      "û": 188,
      "ü": 189,
      "ý": 190,
      "þ": 191,
      "ÿ": 192,
      "Ā": 193,
      "ā": 194,
      "Ă": 195,
      "ă": 196,
      "Ą": 197,
      "ą": 198,
      "Ć": 199,
      "ć": 200,
      "Ĉ": 201,
      "ĉ": 202,
      "Ċ": 203,
      "ċ": 204,
      "Č": 205,
      "č": 206,
      "Ď": 207,
      "ď": 208,
      "Đ": 209,
      "đ": 210,
      "Ē": 211,
      "ē": 212,
      "Ĕ": 213,
      "ĕ": 214,
      "Ė": 215,
      "ė": 216,
      "Ę": 217,
      "ę": 218,
      "Ě": 219,
      "ě": 220,
      "Ĝ": 221,
      "ĝ": 222,
      "Ğ": 223,
      "ğ": 224,
      "Ġ": 225,
      "ġ": 226,
      "Ģ": 227,
      "ģ": 228,
      "Ĥ": 229,
      "ĥ": 230,
      "Ħ": 231,
      "ħ": 232,
      "Ĩ": 233,
      "ĩ": 234,
      "Ī": 235,
      "ī": 236,
      "Ĭ": 237,
      "ĭ": 238,
      "Į": 239,
      "į": 240,
      "İ": 241,
      "ı": 242,
      "Ĳ": 243,
      "ĳ": 244,
      "Ĵ": 245,
      "ĵ": 246,
      "Ķ": 247,
      "ķ": 248,
      "ĸ": 249,
      "Ĺ": 250,
      "ĺ": 251,
      "Ļ": 252,
      "ļ": 253,
      "Ľ": 254,
      "ľ": 255,
      "Ŀ": 256,
      "ŀ": 257,
      "Ł": 258,
      "ł": 259,
      "Ń": 260,
      "Ġs": 261,
      "je": 262,
      "Ġp": 263,
      "na": 264,
      "Ġi": 265,
      "ra": 266,
      "ni": 267,
      "Ġd": 268,
      "ko": 269,
      "Ġo": 270,
      "no": 271,
      "re": 272,
      "st": 273,
      "Ġu": 274,
      "ja": 275,
      "Äį": 276,
      "li": 277,
      "va": 278,
      "Å¡": 279,
      "ne": 280,
      "ka": 281,
      "ma": 282,
      "ri": 283,
      "ti": 284,
      "la": 285,
      "Ġje": 286,
      "Ġpo": 287,
      "ta": 288,
      "Ġna": 289,
      "ro": 290,
      "ve": 291,
      "za": 292,
      "Äĩ": 293,
      "vi": 294,
      "vo": 295,
      "te": 296,
      "ci": 297,
      "me": 298,
      "Ġda": 299,
      "Å¾": 300,
      "..": 301,
      "ju": 302,
      "Ġko": 303,
      "to": 304,
      "Ġb": 305,
      "ji": 306,
      "Ġza": 307,
      "lo": 308,
      "di": 309,
      "mo": 310,
      "da": 311,
      "le": 312,
      "Ġse": 313,
      "Ġa": 314,
      "nje": 315,
      "Ġsa": 316,
      "go": 317,
      "Ġod": 318,
      "ĠS": 319,
      "ru": 320,
      "Ġne": 321,
      "âĢ": 322,
      "ki": 323,
      "de": 324,
      "Ġdo": 325,
      "mi": 326,
      "sti": 327,
      "Ġsu": 328,
      "Ġka": 329,
      "sta": 330,
      "ku": 331,
      "ĠP": 332,
      "Ġpre": 333,
      "Ġ1": 334,
      "Ġiz": 335,
      "Ġpro": 336,
      "ke": 337,
      "nja": 338,
      "....": 339,
      "Ġra": 340,
      "Äĳ": 341,
      "ga": 342,
      "Ġt": 343,
      "nu": 344,
      "zi": 345,
      "Ġbi": 346,
      "ce": 347,
      "Ġ(": 348,
      "Äĩe": 349,
      "bi": 350,
      "po": 351,
      "ĠM": 352,
      "si": 353,
      "Ġpri": 354,
      "Äįi": 355,
      "se": 356,
      "Äįe": 357,
      "Ġ2": 358,
      "Ġre": 359,
      "ĠN": 360,
      "Ġmo": 361,
      "tu": 362,
      "Ġg": 363,
      "ĠâĢ": 364,
      "sa": 365,
      "Å¾e": 366,
      "lu": 367,
      "ĠK": 368,
      "ca": 369,
      "ĠB": 370,
      "Ġk": 371,
      "Ġz": 372,
      "ĠD": 373,
      "pa": 374,
      "nih": 375,
      "Ġf": 376,
      "ba": 377,
      "Ġe": 378,
      "Ġto": 379,
      "ĠÅ¡": 380,
      "Ġni": 381,
      "du": 382,
      "Ġve": 383,
      "nog": 384,
      "Ġde": 385,
      "ĠA": 386,
      "Ġme": 387,
      "Äįa": 388,
      "ĠT": 389,
      "Å¾i": 390,
      "00": 391,
      "lje": 392,
      "ĠI": 393,
      "sko": 394,
      "sto": 395,
      "Å¡e": 396,
      "Ġkoji": 397,
      "ski": 398,
      "Ġv": 399,
      "lja": 400,
      "ĠO": 401,
      "ĠU": 402,
      "Ġte": 403,
      "or": 404,
      "Ġgo": 405,
      "pi": 406,
      "be": 407,
      "nom": 408,
      "pe": 409,
      "cija": 410,
      "ĠR": 411,
      "Ġ-": 412,
      "ĠV": 413,
      "do": 414,
      "........": 415,
      "bo": 416,
      "Ġin": 417,
      "Äĩi": 418,
      "tra": 419,
      "gu": 420,
      "gra": 421,
      "Ġma": 422,
      "nji": 423,
      "Å¾a": 424,
      "cije": 425,
      "Äĩa": 426,
      "Ġta": 427,
      "mu": 428,
      "Äĳe": 429,
      "Ġpa": 430,
      "gi": 431,
      "Ġvi": 432,
      "red": 433,
      "nosti": 434,
      "jo": 435,
      "Ġsta": 436,
      "su": 437,
      "nim": 438,
      "lju": 439,
      "so": 440,
      "nju": 441,
      "Ġraz": 442,
      "Ġmi": 443,
      "ĠâĢŀ": 444,
      "Ġob": 445,
      "Ġkao": 446,
      "ze": 447,
      "Ġh": 448,
      "Ġgodi": 449,
      "ĠZ": 450,
      "Ġsve": 451,
      "Ġ3": 452,
      "vu": 453,
      "pu": 454,
      "Ġ,": 455,
      "ĠJ": 456,
      "ĠG": 457,
      "Å¡a": 458,
      "Ġli": 459,
      "ske": 460,
      "ĠE": 461,
      "Ġpred": 462,
      "tiv": 463,
      "ĠÄĩe": 464,
      "ge": 465,
      "Ġdi": 466,
      "Ġsi": 467,
      "ste": 468,
      "vr": 469,
      "Ġno": 470,
      "ĠC": 471,
      "ho": 472,
      "Ġ0": 473,
      "Ġpra": 474,
      "ĠL": 475,
      "nt": 476,
      "Ġdru": 477,
      "Ġ.": 478,
      "ĠÅ¡to": 479,
      "ĠNa": 480,
      "ĠPo": 481,
      "Å¡i": 482,
      "fi": 483,
      "Ġpos": 484,
      "__": 485,
      "nost": 486,
      "viÄĩ": 487,
      "âĢľ": 488,
      "ĠSr": 489,
      "dni": 490,
      "Äĳu": 491,
      "zu": 492,
      "Ġima": 493,
      "zo": 494,
      "ĠĠ": 495,
      "ï¿": 496,
      "ï¿½": 497,
      "on": 498,
      "lj": 499,
      "Ġkoje": 500,
      "Ġ4": 501,
      "vanje": 502,
      "stav": 503,
      "ĠH": 504,
      "sno": 505,
      "kom": 506,
      "Ġm": 507,
      "Ġili": 508,
      "Ġ\"": 509,
      "Ġsvo": 510,
      "lji": 511,
      "rÅ¾a": 512,
      "Ġis": 513,
      "Ġvo": 514,
      "ar": 515,
      "ona": 516,
      "Ġva": 517,
      "ĠSrbi": 518,
      "Ġnaj": 519,
      "ska": 520,
      "Ġnije": 521,
      "Ġja": 522,
      "Ġst": 523,
      "nta": 524,
      "nika": 525,
      "ĠF": 526,
      "Ġpe": 527,
      "Ġzna": 528,
      "Ġtre": 529,
      "Ġus": 530,
      "ĠMi": 531,
      "Ġpod": 532,
      "vanja": 533,
      "Ġ5": 534,
      "Ġbe": 535,
      "Ġgra": 536,
      "Ġ19": 537,
      "an": 538,
      "................": 539,
      "pre": 540,
      "stu": 541,
      "ran": 542,
      "Ġgodine": 543,
      "01": 544,
      "Ġnje": 545,
      "Å¡ti": 546,
      "Äįki": 547,
      "Ġpu": 548,
      "pra": 549,
      "he": 550,
      ").": 551,
      "govo": 552,
      "ĠâĢĵ": 553,
      "Äįu": 554,
      "Ġkon": 555,
      "skog": 556,
      "Ġali": 557,
      "Ġpot": 558,
      "Ġjed": 559,
      "Ġpi": 560,
      "Ġsamo": 561,
      "reme": 562,
      "Ġbo": 563,
      "cu": 564,
      "fe": 565,
      "ĠKo": 566,
      "Ġstra": 567,
      "Ġkoja": 568,
      "noj": 569,
      "Ġku": 570,
      "liko": 571,
      "ĠBe": 572,
      "ĠKa": 573,
      "Ġfi": 574,
      "Å¡ta": 575,
      "ĠZa": 576,
      "Ġce": 577,
      "ĠÅ": 578,
      "),": 579,
      "zna": 580,
      "sni": 581,
      "nti": 582,
      "Ġbu": 583,
      "Ġodno": 584,
      "ĠÄįi": 585,
      "rija": 586,
      "Äĳa": 587,
      "Ġ6": 588,
      "Ġti": 589,
      "nd": 590,
      "kto": 591,
      "ĠÄ": 592,
      "Ġovo": 593,
      "Ġc": 594,
      "skih": 595,
      "ĠSa": 596,
      "ĠmoÅ¾e": 597,
      "ĠÄįe": 598,
      "bra": 599,
      "ĠÅ¾i": 600,
      "stra": 601,
      "Ġpr": 602,
      "ĠNe": 603,
      "bu": 604,
      "Ġpla": 605,
      "ng": 606,
      "ciju": 607,
      "Ġmogu": 608,
      "ter": 609,
      "Ġpoli": 610,
      "al": 611,
      "Ġnji": 612,
      "Ġ200": 613,
      "ï¿½ï¿½": 614,
      "Ġle": 615,
      "Ġmu": 616,
      "Ġop": 617,
      "ha": 618,
      "ĠMa": 619,
      "ogra": 620,
      "Å¡te": 621,
      "stva": 622,
      "Ġdu": 623,
      "ĠMe": 624,
      "nije": 625,
      "vih": 626,
      "stvo": 627,
      "Ġkako": 628,
      "Äĩu": 629,
      "Ġ7": 630,
      "____": 631,
      "ĠRe": 632,
      "Ġtako": 633,
      "ĠÄį": 634,
      "Ġtu": 635,
      "Ġba": 636,
      "Ġdana": 637,
      "ĠTa": 638,
      "Ġvla": 639,
      "ĠviÅ¡e": 640,
      "ĠdrÅ¾a": 641,
      "Ġsam": 642,
      "Ġbro": 643,
      "lika": 644,
      "zvo": 645,
      "hi": 646,
      "nda": 647,
      "Ġbio": 648,
      "Ġor": 649,
      "Ġslu": 650,
      "vni": 651,
      "Ġlju": 652,
      "vima": 653,
      "Ġga": 654,
      "dno": 655,
      "Äįko": 656,
      "Å¡t": 657,
      "Ġze": 658,
      "tno": 659,
      "Ġot": 660,
      "Ġkori": 661,
      "Ġjo": 662,
      "--": 663,
      "vlja": 664,
      "Ġ201": 665,
      "Ġkom": 666,
      "vim": 667,
      "Ġbiti": 668,
      "lek": 669,
      "skom": 670,
      "onal": 671,
      "Ġro": 672,
      "Ġak": 673,
      "âĢĿ": 674,
      "Ġ8": 675,
      "gla": 676,
      "kon": 677,
      "dan": 678,
      "rt": 679,
      "Ġsva": 680,
      "Äįno": 681,
      "Ġof": 682,
      "ĠRa": 683,
      ".,": 684,
      "nici": 685,
      "rije": 686,
      "Ġposle": 687,
      "gle": 688,
      "Ġspo": 689,
      "jom": 690,
      "Ġlo": 691,
      "Ġfa": 692,
      "ĠÅł": 693,
      "Ġtra": 694,
      "vali": 695,
      "for": 696,
      "Äįke": 697,
      "Ġkra": 698,
      "ĠSrbije": 699,
      "pro": 700,
      "ĠDa": 701,
      "Ġvr": 702,
      "vara": 703,
      "Ġorga": 704,
      "Ġtreba": 705,
      "Ġvreme": 706,
      "Ġuz": 707,
      "Ġproce": 708,
      "Ġkri": 709,
      "kup": 710,
      "Ġ9": 711,
      "Ġjer": 712,
      "lazi": 713,
      "Ġso": 714,
      "rom": 715,
      "ciji": 716,
      "ĠÅ¾e": 717,
      "Ġkada": 718,
      "stavlja": 719,
      "vno": 720,
      "Ġbez": 721,
      "vati": 722,
      "ĠBeogra": 723,
      "ĠPre": 724,
      "Ġgla": 725,
      "bog": 726,
      "ĠTo": 727,
      "Ġci": 728,
      "Ġprime": 729,
      "Ġju": 730,
      "nica": 731,
      "lan": 732,
      "Å¡to": 733,
      "Ġbilo": 734,
      "sku": 735,
      "ĠveÄĩ": 736,
      "vro": 737,
      "kre": 738,
      "skoj": 739,
      "juÄĩi": 740,
      "Ġosta": 741,
      "Ġru": 742,
      "kla": 743,
      "vom": 744,
      "Ġosno": 745,
      "Ġpoliti": 746,
      "pri": 747,
      "tim": 748,
      "cio": 749,
      "Ġdobi": 750,
      "njem": 751,
      "Ġradi": 752,
      "om": 753,
      "sle": 754,
      "Ġ10": 755,
      "Ġkod": 756,
      "er": 757,
      "rod": 758,
      "rio": 759,
      "ĠâĢľ": 760,
      "in": 761,
      "Ġposto": 762,
      "spo": 763,
      "Ġproi": 764,
      "ĠDo": 765,
      "ĠÄĮ": 766,
      "Ġoba": 767,
      "skim": 768,
      "Ġisto": 769,
      "Ġizme": 770,
      "kao": 771,
      "ĠBo": 772,
      "bli": 773,
      "klju": 774,
      "Ġoko": 775,
      "Ġova": 776,
      "Ġzem": 777,
      "cima": 778,
      "ĠNi": 779,
      "tni": 780,
      "ĠmeÄĳu": 781,
      "ver": 782,
      "Ġpita": 783,
      "Ġau": 784,
      "tro": 785,
      "Ġsmo": 786,
      "van": 787,
      "Ġgodina": 788,
      "sla": 789,
      "ĠjoÅ¡": 790,
      "Ġmora": 791,
      "un": 792,
      "Å¡ko": 793,
      "ĠPa": 794,
      "Ġzbog": 795,
      "ĠÅ¾ivo": 796,
      "000": 797,
      "Äįaj": 798,
      "kra": 799,
      "Ġorgani": 800,
      "tion": 801,
      "tak": 802,
      "Ġpove": 803,
      "ksi": 804,
      "ven": 805,
      "Ġdrugi": 806,
      "................................": 807,
      "lne": 808,
      "vlje": 809,
      "menta": 810,
      "ble": 811,
      "Ġneko": 812,
      "Ġsr": 813,
      "Ġvred": 814,
      "Ġinte": 815,
      "lni": 816,
      "sedni": 817,
      "Ġnjiho": 818,
      "kaza": 819,
      "Ġand": 820,
      "redi": 821,
      "Ġnema": 822,
      "Ġveli": 823,
      "Ġrazli": 824,
      "ĠMo": 825,
      "log": 826,
      "Ġproizvo": 827,
      "dra": 828,
      "Ġsiste": 829,
      "Ġgru": 830,
      "vaju": 831,
      "Ġpose": 832,
      "ĠDe": 833,
      "vog": 834,
      "ĠuÄįe": 835,
      "tom": 836,
      "Ġon": 837,
      "Å¡Äĩe": 838,
      "ĠVe": 839,
      "ĠPro": 840,
      "joj": 841,
      "Ġdok": 842,
      "Ġtr": 843,
      "Ġfor": 844,
      "op": 845,
      "Ġprema": 846,
      "...": 847,
      "lta": 848,
      "Ġsma": 849,
      "rak": 850,
      "Ġthe": 851,
      "Ġge": 852,
      "Ġtri": 853,
      "Ġla": 854,
      "liza": 855,
      "ĠNo": 856,
      "cional": 857,
      "ĠnaÄįi": 858,
      "Ġ20": 859,
      "nima": 860,
      "Ġ12": 861,
      "ĠIn": 862,
      "Ġbroj": 863,
      "Äįka": 864,
      "niji": 865,
      "19": 866,
      "man": 867,
      "met": 868,
      "Ġï": 869,
      "spe": 870,
      "voj": 871,
      "âĢľ,": 872,
      "reÄĳe": 873,
      "Å¾u": 874,
      "ren": 875,
      "Ġste": 876,
      "lno": 877,
      "Ġnad": 878,
      "vodi": 879,
      "vat": 880,
      "nija": 881,
      "Ġnjego": 882,
      "Ġpotre": 883,
      "Ġauto": 884,
      "Ġpoda": 885,
      "Ġbila": 886,
      "Ġobra": 887,
      "Ġhi": 888,
      "ĠÄįa": 889,
      "Ġok": 890,
      "rno": 891,
      "Ġposlo": 892,
      "ĠpoÄįe": 893,
      "Ġsto": 894,
      "teta": 895,
      "ĠPri": 896,
      "ĠGo": 897,
      "Ġstru": 898,
      "vio": 899,
      "Ġide": 900,
      "pisa": 901,
      "Ġslo": 902,
      "mena": 903,
      "vao": 904,
      "rti": 905,
      "ner": 906,
      "Ġ15": 907,
      "Äįne": 908,
      "ĠizmeÄĳu": 909,
      "teri": 910,
      "bro": 911,
      "Ġodlu": 912,
      "sli": 913,
      "slo": 914,
      "Ġnisu": 915,
      "stru": 916,
      "jem": 917,
      "Ġobe": 918,
      "govor": 919,
      "nik": 920,
      "Ġdva": 921,
      "tre": 922,
      "Ġek": 923,
      "rta": 924,
      "ĠPe": 925,
      "tet": 926,
      "Ġljudi": 927,
      "Ġistra": 928,
      "ĠBi": 929,
      "nice": 930,
      "rima": 931,
      "Ġsrp": 932,
      "vne": 933,
      "Ġim": 934,
      "Ġ11": 935,
      "men": 936,
      "\",": 937,
      "ĠÅ¡ta": 938,
      "Ġpret": 939,
      "Ġ[": 940,
      "meri": 941,
      "zulta": 942,
      "ĠJe": 943,
      "jek": 944,
      "Ġuti": 945,
      "Ġ18": 946,
      "lija": 947,
      "Ġjedan": 948,
      "Ġove": 949,
      "Ġjedi": 950,
      "Ġzah": 951,
      "Ġupra": 952,
      "Ġako": 953,
      "Äĳi": 954,
      "Ġproble": 955,
      "ĠEvro": 956,
      "dom": 957,
      "ĠkaÅ¾e": 958,
      "stup": 959,
      "nista": 960,
      "ĠBa": 961,
      "ĠVi": 962,
      "Ġtoga": 963,
      "vede": 964,
      "Ġal": 965,
      "Ġsada": 966,
      "Ġnego": 967,
      "Ġrad": 968,
      "Ġupo": 969,
      "Ġiza": 970,
      "Ġstano": 971,
      "vanju": 972,
      "vez": 973,
      "Ġana": 974,
      "pla": 975,
      "Ġzaje": 976,
      "Ġobja": 977,
      "ktor": 978,
      "Ġbude": 979,
      "________": 980,
      "Ġprotiv": 981,
      "bno": 982,
      "Äįkog": 983,
      "pita": 984,
      "Ġpredsedni": 985,
      "RA": 986,
      "lom": 987,
      "Ġgde": 988,
      "ĠdruÅ¡t": 989,
      "ur": 990,
      "loÅ¡": 991,
      "forma": 992,
      "Ġ199": 993,
      "noviÄĩ": 994,
      "Ġstu": 995,
      "Ġpomo": 996,
      "Ġmode": 997,
      "Ġrekao": 998,
      "Ġbr": 999,
      "jedi": 1000,
      "tor": 1001,
      "vreme": 1002,
      "ĠOd": 1003,
      "Ġsvoje": 1004,
      "ĠÄįla": 1005,
      "ltu": 1006,
      "ĠJo": 1007,
      "tvr": 1008,
      "Äįkih": 1009,
      "Ġodnosno": 1010,
      "ĠTe": 1011,
      "Ġnasta": 1012,
      "Ġsred": 1013,
      "nera": 1014,
      "vori": 1015,
      "kri": 1016,
      "tar": 1017,
      "koviÄĩ": 1018,
      "Ġuve": 1019,
      "ktu": 1020,
      "vani": 1021,
      "20": 1022,
      "unk": 1023,
      "Ġposta": 1024,
      "Ġsad": 1025,
      "vra": 1026,
      "Ġtak": 1027,
      "Ġ13": 1028,
      "nosi": 1029,
      "ĠJa": 1030,
      "en": 1031,
      "Ġizra": 1032,
      "gre": 1033,
      "Ġuslo": 1034,
      "Ġ14": 1035,
      "ĠnaÄįin": 1036,
      "----": 1037,
      "vnog": 1038,
      "nski": 1039,
      "stve": 1040,
      "Ġih": 1041,
      "Ġpredu": 1042,
      "nsi": 1043,
      "ĠSrbiji": 1044,
      "Ġovog": 1045,
      "Ġkre": 1046,
      "ĠRu": 1047,
      "logi": 1048,
      "oj": 1049,
      "Å¡u": 1050,
      "Ġisti": 1051,
      "Ġdoda": 1052,
      "volj": 1053,
      "Å¡nje": 1054,
      "mina": 1055,
      "dne": 1056,
      "viÄĩa": 1057,
      "ranje": 1058,
      "10": 1059,
      "ĠsluÄįa": 1060,
      "nistar": 1061,
      "Ġki": 1062,
      "dio": 1063,
      "govara": 1064,
      "ĠVa": 1065,
      "Ġri": 1066,
      "vrÅ¡i": 1067,
      "Ġrezulta": 1068,
      "tri": 1069,
      "Ġtaj": 1070,
      "Ġnovi": 1071,
      "Ġfunk": 1072,
      "Ġknji": 1073,
      "Ġpredstavlja": 1074,
      "Ġkojima": 1075,
      "Ġfina": 1076,
      "tne": 1077,
      "ĠDi": 1078,
      "ntro": 1079,
      "Ġzako": 1080,
      "rne": 1081,
      "Ġpozi": 1082,
      "Ġstrane": 1083,
      "ÂŃ": 1084,
      "fa": 1085,
      "fika": 1086,
      "Ġorganiza": 1087,
      "Ġprosto": 1088,
      "Ġeko": 1089,
      "ĠzaÅ¡ti": 1090,
      "Ġstva": 1091,
      "ladi": 1092,
      "Ġsti": 1093,
      "ĠSe": 1094,
      "Ġona": 1095,
      "Ġsna": 1096,
      "Ġnalazi": 1097,
      "Ġdrugo": 1098,
      "pera": 1099,
      "Ġzapo": 1100,
      "pada": 1101,
      "ĠIz": 1102,
      "ĠÅ½": 1103,
      "bri": 1104,
      "Ġnase": 1105,
      "ĠznaÄįaj": 1106,
      "Ġneki": 1107,
      "Ġsvet": 1108,
      "Ġtek": 1109,
      "Ġho": 1110,
      "Ġ16": 1111,
      "ĠopÅ¡ti": 1112,
      "roz": 1113,
      "Ġkoju": 1114,
      "Ġmedi": 1115,
      "Ġvrednosti": 1116,
      "âĢľ.": 1117,
      "Ġn": 1118,
      "Ġuspe": 1119,
      "Ġbudu": 1120,
      "Ġpoja": 1121,
      "Ġtome": 1122,
      "Ġsme": 1123,
      "ĠÅ¡e": 1124,
      "rek": 1125,
      "Ġw": 1126,
      "ĠW": 1127,
      "rad": 1128,
      "Ġsvi": 1129,
      "nzi": 1130,
      "Ġrea": 1131,
      "ĠistraÅ¾i": 1132,
      "rodi": 1133,
      "Äįni": 1134,
      "lnih": 1135,
      "Ġinter": 1136,
      "stvu": 1137,
      "Ġnivo": 1138,
      "bor": 1139,
      "lna": 1140,
      "vnih": 1141,
      "ment": 1142,
      "ĠLa": 1143,
      "ĠJu": 1144,
      "nogo": 1145,
      "Ġdr": 1146,
      "Ġimaju": 1147,
      "ĠrazliÄįi": 1148,
      "nci": 1149,
      "AN": 1150,
      "Ġ17": 1151,
      "Ġregi": 1152,
      "ĠÅ¡ko": 1153,
      "rij": 1154,
      "ĠVu": 1155,
      "Ġsli": 1156,
      "ĠSve": 1157,
      "rni": 1158,
      "Ġigra": 1159,
      "âĢ¦": 1160,
      "ĠSta": 1161,
      "Ġdeo": 1162,
      "ĠÄĲ": 1163,
      "gleda": 1164,
      "vala": 1165,
      "Ġdve": 1166,
      "lnog": 1167,
      "Ġos": 1168,
      "kazu": 1169,
      "Ġvoj": 1170,
      "Ġsvoji": 1171,
      "pak": 1172,
      "stitu": 1173,
      "Å¡nji": 1174,
      "vore": 1175,
      "mije": 1176,
      "tka": 1177,
      "ĠSi": 1178,
      "ch": 1179,
      "Ġkultu": 1180,
      "vesti": 1181,
      "nova": 1182,
      "Ġaktiv": 1183,
      "ĠLi": 1184,
      "Ġpreko": 1185,
      "Ġspe": 1186,
      "ĠveÄĩi": 1187,
      "Ġnakon": 1188,
      "ndar": 1189,
      "Ġdanas": 1190,
      "ĠPrema": 1191,
      "ntra": 1192,
      "bora": 1193,
      "Ġpreduze": 1194,
      "tera": 1195,
      "nske": 1196,
      "tima": 1197,
      "Ġoso": 1198,
      "Ġnas": 1199,
      "vnom": 1200,
      "Äįna": 1201,
      "ï¿½ï¿½ï¿½ï¿½": 1202,
      "Ġmili": 1203,
      "ĠBeograd": 1204,
      "th": 1205,
      "hva": 1206,
      "ove": 1207,
      "Ġzajedni": 1208,
      "kle": 1209,
      "Ġ)": 1210,
      "Ġzahte": 1211,
      "Ġtran": 1212,
      "Ġbili": 1213,
      "oma": 1214,
      "Ġoni": 1215,
      "Ġzdra": 1216,
      "Ġâ": 1217,
      "Ġperio": 1218,
      "Ġteh": 1219,
      "tih": 1220,
      "Ġprogra": 1221,
      "Ġpravo": 1222,
      "Ġsle": 1223,
      "ĠBu": 1224,
      "Ġvra": 1225,
      "Ġdina": 1226,
      "Ġizvo": 1227,
      "Ġtro": 1228,
      "Ġkad": 1229,
      "Ġloka": 1230,
      "Ġtokom": 1231,
      "Ġdruge": 1232,
      "Ġdela": 1233,
      "ww": 1234,
      "vana": 1235,
      "12": 1236,
      "dna": 1237,
      "ranja": 1238,
      "Ġmnogo": 1239,
      "ĠÄįu": 1240,
      "ako": 1241,
      "Ġ=": 1242,
      "Ġjezi": 1243,
      "ĠÂ": 1244,
      "vla": 1245,
      "publi": 1246,
      "ĠÅ¡i": 1247,
      "fo": 1248,
      "uze": 1249,
      "Ġsla": 1250,
      "Ġjedna": 1251,
      "plo": 1252,
      "Ġmese": 1253,
      "Ġprava": 1254,
      "Äįnih": 1255,
      "godi": 1256,
      "Ġkonce": 1257,
      "terija": 1258,
      "200": 1259,
      "Ġsmatra": 1260,
      "Ġar": 1261,
      "cijama": 1262,
      "gao": 1263,
      "ĠodreÄĳe": 1264,
      "ĠLe": 1265,
      "Ġfinansi": 1266,
      "ĠHa": 1267,
      "vna": 1268,
      "Ġprome": 1269,
      "Ġpar": 1270,
      "Ġosnovu": 1271,
      "ĠMeÄĳu": 1272,
      "Äī": 1273,
      "\".": 1274,
      "rani": 1275,
      "riji": 1276,
      "Ġfe": 1277,
      "Ġodsto": 1278,
      "Ġkroz": 1279,
      "Ġ30": 1280,
      "Ġkvali": 1281,
      "Ġutica": 1282,
      "Ġovom": 1283,
      "Ġdobro": 1284,
      "Ġcr": 1285,
      "ĠMar": 1286,
      "ndi": 1287,
      "Ġ25": 1288,
      "Ġfo": 1289,
      "ĠSu": 1290,
      "Ġono": 1291,
      "201": 1292,
      "Ġnekoliko": 1293,
      "Ġpopu": 1294,
      "11": 1295,
      "klo": 1296,
      "Ġnau": 1297,
      "vija": 1298,
      "âĢĵ": 1299,
      "Ġnepo": 1300,
      "co": 1301,
      "Å¡tu": 1302,
      "Ġdelo": 1303,
      "Ġpravi": 1304,
      "Ġdece": 1305,
      "Ġgu": 1306,
      "Ġfil": 1307,
      "Ġobave": 1308,
      "Ġnajve": 1309,
      "ĠTako": 1310,
      "Ġizja": 1311,
      "mogu": 1312,
      "vre": 1313,
      "Å¾be": 1314,
      "Ġodnosu": 1315,
      "stava": 1316,
      "kti": 1317,
      "Ġanali": 1318,
      "Ġ:": 1319,
      "Ġkontro": 1320,
      "Ġprili": 1321,
      "sije": 1322,
      "ncija": 1323,
      "nata": 1324,
      "ST": 1325,
      "ĠKoso": 1326,
      "novi": 1327,
      "Ġprija": 1328,
      "rova": 1329,
      "ĠÃ": 1330,
      "Ġveliki": 1331,
      "vnika": 1332,
      "Ġpostoji": 1333,
      "rna": 1334,
      "Ġinforma": 1335,
      "loga": 1336,
      "zbe": 1337,
      "Ġovaj": 1338,
      "nama": 1339,
      "Ġnika": 1340,
      "dija": 1341,
      "Ġhe": 1342,
      "ĠpoveÄĩa": 1343,
      "Ġtom": 1344,
      "Ġput": 1345,
      "dova": 1346,
      "Ġpojedi": 1347,
      "Ġpara": 1348,
      "tua": 1349,
      "sam": 1350,
      "viÅ¡e": 1351,
      "ĠgraÄĳa": 1352,
      "ĠneÄĩe": 1353,
      "Ġ/": 1354,
      "mati": 1355,
      "lim": 1356,
      "Ġobla": 1357,
      "sao": 1358,
      "AD": 1359,
      "Ġnam": 1360,
      "dite": 1361,
      "Å¡ka": 1362,
      "sne": 1363,
      "razu": 1364,
      "Ġpozna": 1365,
      "slu": 1366,
      "ĠnaÅ¡e": 1367,
      "nskog": 1368,
      "Ġtrenu": 1369,
      "EN": 1370,
      "tt": 1371,
      "ĠOva": 1372,
      "Ġdalje": 1373,
      "tku": 1374,
      "Ġostva": 1375,
      "Ġspre": 1376,
      "Ġproda": 1377,
      "Ġutvr": 1378,
      "vrÅ¡e": 1379,
      "Ġkojoj": 1380,
      "Ġviso": 1381,
      "Ġkoristi": 1382,
      "Ġneza": 1383,
      "15": 1384,
      "ĠDu": 1385,
      "ĠneÅ¡to": 1386,
      "IJ": 1387,
      "Ġsvoj": 1388,
      "Åł": 1389,
      "ĠRo": 1390,
      "Äįnog": 1391,
      "zima": 1392,
      "Ġdoma": 1393,
      "vac": 1394,
      "Ġosi": 1395,
      "Å¡ao": 1396,
      "koliko": 1397,
      "Ġca": 1398,
      "ĠodrÅ¾a": 1399,
      "ĠmoguÄĩ": 1400,
      "ĠBeogradu": 1401,
      "Ġneka": 1402,
      "ĠproÅ¡": 1403,
      "ĠoÄįe": 1404,
      "Ġproizvod": 1405,
      "Ġtim": 1406,
      "Ġkome": 1407,
      "el": 1408,
      "Ġsvako": 1409,
      "fini": 1410,
      "rvi": 1411,
      "Ġ+": 1412,
      "Ġmiliona": 1413,
      "Ġsvih": 1414,
      "ĠreÄįi": 1415,
      "ĠVla": 1416,
      "tna": 1417,
      "nce": 1418,
      "ĠreÅ¡e": 1419,
      "Ġporodi": 1420,
      "Ġkarak": 1421,
      "ĠTi": 1422,
      "ĠKi": 1423,
      "Ġposled": 1424,
      "taka": 1425,
      "ĠSo": 1426,
      "ĠOn": 1427,
      "bar": 1428,
      "mor": 1429,
      "ĠPred": 1430,
      "gli": 1431,
      "stavlje": 1432,
      "Ġokvi": 1433,
      "vije": 1434,
      "ĠtrÅ¾i": 1435,
      "Ġkla": 1436,
      "kata": 1437,
      "vine": 1438,
      "Ġsistema": 1439,
      "Ġonda": 1440,
      "Å£": 1441,
      "stupa": 1442,
      "Ġslobo": 1443,
      "AT": 1444,
      "Ġputa": 1445,
      "ty": 1446,
      "rma": 1447,
      "Äįan": 1448,
      "matra": 1449,
      "raju": 1450,
      "OV": 1451,
      "Äįkom": 1452,
      "ĠraÄįu": 1453,
      "Ġjedno": 1454,
      "rs": 1455,
      "Ġobi": 1456,
      "lih": 1457,
      "Ġnaro": 1458,
      "meta": 1459,
      "sija": 1460,
      "Ġveoma": 1461,
      "laze": 1462,
      "Ġras": 1463,
      "Ġkompa": 1464,
      "Ġgrad": 1465,
      "Ġpotpu": 1466,
      "narod": 1467,
      "tem": 1468,
      "Ġtele": 1469,
      "Ġizve": 1470,
      "22": 1471,
      "Ġban": 1472,
      "Ġmeto": 1473,
      "50": 1474,
      "Ġintere": 1475,
      "13": 1476,
      "Ġprvi": 1477,
      "ktora": 1478,
      "menu": 1479,
      "Ġmeta": 1480,
      "Å¡nja": 1481,
      "Ġobzi": 1482,
      "14": 1483,
      "nte": 1484,
      "ĠRepubli": 1485,
      "Ġmaterija": 1486,
      "Ġposla": 1487,
      "Ġvide": 1488,
      "cijom": 1489,
      "Ġ24": 1490,
      "18": 1491,
      "Ġtvr": 1492,
      "com": 1493,
      "Ġpokaza": 1494,
      "ĠDra": 1495,
      "Äĳenje": 1496,
      "pred": 1497,
      "ĠSrbija": 1498,
      "Ġtrebalo": 1499,
      "Ġener": 1500,
      "Ġad": 1501,
      "tio": 1502,
      "Ġrada": 1503,
      "lije": 1504,
      "Ġuvek": 1505,
      "rana": 1506,
      "rvat": 1507,
      "Äĩem": 1508,
      "Ġnjegovo": 1509,
      "Ġnajbo": 1510,
      "set": 1511,
      "ple": 1512,
      "kova": 1513,
      "lima": 1514,
      "ĠtakoÄĳe": 1515,
      "Ġsitua": 1516,
      "17": 1517,
      "kve": 1518,
      "Ġzavi": 1519,
      "Ġume": 1520,
      "Ġnjih": 1521,
      "ljivo": 1522,
      "Ġmalo": 1523,
      "Äįkim": 1524,
      "piti": 1525,
      "vred": 1526,
      "ĠsluÄįaju": 1527,
      "ĠuÄįi": 1528,
      "sna": 1529,
      "ÄĮ": 1530,
      "zma": 1531,
      "Ġdinara": 1532,
      "Ġpitanje": 1533,
      "ĠÄįak": 1534,
      "Ġelek": 1535,
      "risti": 1536,
      "tivno": 1537,
      "Ġobezbe": 1538,
      "ĠFi": 1539,
      "dru": 1540,
      "viti": 1541,
      "ĠAko": 1542,
      "Ġnu": 1543,
      "kljuÄįi": 1544,
      "Ġskla": 1545,
      "Ġstanovnika": 1546,
      "Å¾no": 1547,
      "smo": 1548,
      "vde": 1549,
      "liti": 1550,
      "ĠAl": 1551,
      "Ġizda": 1552,
      "nal": 1553,
      "nka": 1554,
      "Ġbole": 1555,
      "Ġpretho": 1556,
      "ĠÅ¾ive": 1557,
      "Ġodgovor": 1558,
      "Ġan": 1559,
      "zni": 1560,
      "voji": 1561,
      "Ġoce": 1562,
      "ĠEU": 1563,
      "Ġprote": 1564,
      "Ġvode": 1565,
      "Ġodgovara": 1566,
      "Å¡ava": 1567,
      "Ġpokre": 1568,
      "Ġnove": 1569,
      "Ġime": 1570,
      "Ġprisu": 1571,
      "Ġevro": 1572,
      "njima": 1573,
      "30": 1574,
      "Äįku": 1575,
      "âĢĿ,": 1576,
      "nde": 1577,
      "Ġsud": 1578,
      "Ġpono": 1579,
      "kva": 1580,
      "Ġpoku": 1581,
      "ĠKako": 1582,
      "Ġpolo": 1583,
      "Ġ22": 1584,
      "Ġrazvo": 1585,
      "ĠKu": 1586,
      "16": 1587,
      "Ġslede": 1588,
      "Ġpore": 1589,
      "Ġusta": 1590,
      "Ġnacional": 1591,
      "Ġvlasti": 1592,
      "IN": 1593,
      "âĢĻ": 1594,
      "Ġsredi": 1595,
      "ĠÎ": 1596,
      "seÄĩa": 1597,
      "mpa": 1598,
      "ĠÄįove": 1599,
      "pli": 1600,
      "kat": 1601,
      "jan": 1602,
      "//": 1603,
      "kcije": 1604,
      "laga": 1605,
      "kuje": 1606,
      "Ġevra": 1607,
      "Äįenja": 1608,
      "govora": 1609,
      "ĠAli": 1610,
      "RE": 1611,
      "Ġobu": 1612,
      "Äįkoj": 1613,
      "hu": 1614,
      "Ġone": 1615,
      "Ġsocija": 1616,
      "Ġzemlji": 1617,
      "ĠVo": 1618,
      "kav": 1619,
      "kih": 1620,
      "Ġupotre": 1621,
      "Ġunu": 1622,
      "Ġdefini": 1623,
      "cioni": 1624,
      "nskih": 1625,
      "janje": 1626,
      "Ġpostoje": 1627,
      "kupÅ¡ti": 1628,
      "Ġvisi": 1629,
      "ĠÄįita": 1630,
      "nad": 1631,
      "renja": 1632,
      "kul": 1633,
      "vanjem": 1634,
      "Ġper": 1635,
      "vet": 1636,
      "ĠNaj": 1637,
      "ĠMilo": 1638,
      "nio": 1639,
      "Ġ100": 1640,
      "Ġname": 1641,
      "mokra": 1642,
      "kro": 1643,
      "Ġpobe": 1644,
      "ttp": 1645,
      "Ġekonom": 1646,
      "Ġvlada": 1647,
      "://": 1648,
      "niver": 1649,
      "ĠkoriÅ¡Äĩe": 1650,
      "ĠMinistar": 1651,
      "Ġha": 1652,
      "lar": 1653,
      "ss": 1654,
      "pske": 1655,
      "rÅ¾i": 1656,
      "rane": 1657,
      "Ġoblasti": 1658,
      "Ġsmi": 1659,
      "Ġ50": 1660,
      "Ġubi": 1661,
      "Ġ23": 1662,
      "Ġpona": 1663,
      "Ġformi": 1664,
      "vod": 1665,
      "Ġpote": 1666,
      "snosti": 1667,
      "vila": 1668,
      "mini": 1669,
      "ĠNema": 1670,
      "Ġkoliko": 1671,
      "Ġraspo": 1672,
      "stri": 1673,
      "Ġjednom": 1674,
      "ĠDru": 1675,
      "Ġgenera": 1676,
      "Ġzaposle": 1677,
      "obra": 1678,
      "ÄįiÄĩ": 1679,
      "Ġukup": 1680,
      "Ġomogu": 1681,
      "tan": 1682,
      "Äĳuje": 1683,
      "Ġzemlje": 1684,
      "snika": 1685,
      "Ġinstitu": 1686,
      "ĠÅ¾ivot": 1687,
      "Ġsvega": 1688,
      "Ġkrivi": 1689,
      "ĠnaÅ¡": 1690,
      "mom": 1691,
      "Ġkomu": 1692,
      "Ġtada": 1693,
      "Ġ2010": 1694,
      "leksa": 1695,
      "Ġmanje": 1696,
      "Ġdrugih": 1697,
      "ciona": 1698,
      "feren": 1699,
      "Ġdire": 1700,
      "II": 1701,
      "tora": 1702,
      "tiri": 1703,
      "opÅ¡te": 1704,
      "25": 1705,
      "ks": 1706,
      "Ġbezbe": 1707,
      "Ġgovori": 1708,
      "grad": 1709,
      "ĠRi": 1710,
      "Ġmnog": 1711,
      "Ġgrupe": 1712,
      "Ġzat": 1713,
      "ĠjuÄįe": 1714,
      "Ġradni": 1715,
      "ljo": 1716,
      "zije": 1717,
      "Ġstruktu": 1718,
      "Ġprofe": 1719,
      "tivne": 1720,
      "ĠSlo": 1721,
      "liÄĩ": 1722,
      "ĠdrÅ¾ava": 1723,
      "pad": 1724,
      "Ġispo": 1725,
      "ly": 1726,
      "Ġspro": 1727,
      "Ġsvojim": 1728,
      "vnim": 1729,
      "voje": 1730,
      "Ġobrazo": 1731,
      "Ġvremena": 1732,
      "ĠAu": 1733,
      "Å¾da": 1734,
      "ĠKra": 1735,
      "tin": 1736,
      "):": 1737,
      "Ġneu": 1738,
      "gije": 1739,
      "zija": 1740,
      "ĠMeÄĳutim": 1741,
      "Ġulo": 1742,
      "Ġstr": 1743,
      "ĠdruÅ¡tve": 1744,
      "od": 1745,
      "Ġzlo": 1746,
      "Ġdone": 1747,
      "Ġkr": 1748,
      "kta": 1749,
      "ĠdrÅ¾ave": 1750,
      "snije": 1751,
      "Äĳenja": 1752,
      "Ġele": 1753,
      "Ġplani": 1754,
      "Ġsvoju": 1755,
      "stro": 1756,
      "Ġhttp": 1757,
      "Ġpredsednik": 1758,
      "gen": 1759,
      "kazuje": 1760,
      "jske": 1761,
      "ĠCr": 1762,
      "Ġaktivnosti": 1763,
      "ĠPi": 1764,
      "vca": 1765,
      "Ġdija": 1766,
      "Ġdelu": 1767,
      "Ġrazvoj": 1768,
      "Ġkarakteri": 1769,
      "lnim": 1770,
      "Ġmesto": 1771,
      "Ġnedo": 1772,
      "jski": 1773,
      "RI": 1774,
      "Ġpru": 1775,
      "Ġobli": 1776,
      "Äĳen": 1777,
      "Ġpotvr": 1778,
      "Ġdruga": 1779,
      "________________": 1780,
      "bela": 1781,
      "Ġpet": 1782,
      "Ġvodi": 1783,
      "Ġmisli": 1784,
      "Å¡ke": 1785,
      "Ġ198": 1786,
      "Ġokru": 1787,
      "ĠNiko": 1788,
      "ĠmeÄĳunarod": 1789,
      "Ġsre": 1790,
      "zova": 1791,
      "Ġsko": 1792,
      "--------": 1793,
      "tnih": 1794,
      "es": 1795,
      "tori": 1796,
      "Ġsarad": 1797,
      "rancu": 1798,
      "OG": 1799,
      "pr": 1800,
      "Äįnim": 1801,
      "Ġprojek": 1802,
      "Ġbra": 1803,
      "ĠznaÄįi": 1804,
      "Ġuslu": 1805,
      "Ġnede": 1806,
      "sob": 1807,
      "Ġposti": 1808,
      "Å¡tva": 1809,
      "âĢ¦âĢ¦": 1810,
      "Ġdoku": 1811,
      "Ġanti": 1812,
      "Ġstvara": 1813,
      "Ġgrupa": 1814,
      "Ġsistem": 1815,
      "ĠGa": 1816,
      "lac": 1817,
      "Ġvidi": 1818,
      "rke": 1819,
      "ðĿ": 1820,
      "ĠKon": 1821,
      "ĠKada": 1822,
      "janja": 1823,
      "Å¾io": 1824,
      "Ġsvim": 1825,
      "Ġposebno": 1826,
      "pozi": 1827,
      "nke": 1828,
      "gnu": 1829,
      "Ġjednog": 1830,
      "som": 1831,
      "Ġparti": 1832,
      "lnom": 1833,
      "ĠsadrÅ¾a": 1834,
      "Ġameri": 1835,
      "Ġrazu": 1836,
      "bru": 1837,
      "Ġprepo": 1838,
      "hvata": 1839,
      "gne": 1840,
      "Ġap": 1841,
      "Ġam": 1842,
      "Ġ26": 1843,
      "Ġinvesti": 1844,
      "Äįenje": 1845,
      "Ġpodr": 1846,
      "Ġ27": 1847,
      "ĠX": 1848,
      "Ġopre": 1849,
      "Ġista": 1850,
      "Ġ40": 1851,
      "rati": 1852,
      "ĠJugo": 1853,
      "Ġokviru": 1854,
      "kcija": 1855,
      "Ġzato": 1856,
      "Ġ21": 1857,
      "nar": 1858,
      "glo": 1859,
      "NI": 1860,
      "Ġizbo": 1861,
      "Äĩeg": 1862,
      "................................................................": 1863,
      "Ġovih": 1864,
      "Å¡lje": 1865,
      "Ġmesta": 1866,
      "ĠSto": 1867,
      "Ġ28": 1868,
      "Ġsigu": 1869,
      "loÅ¾e": 1870,
      "Ġbor": 1871,
      "renje": 1872,
      "Ġbri": 1873,
      "ĠpoÅ¡to": 1874,
      "Ġuklju": 1875,
      "ĠreÄį": 1876,
      "ĠThe": 1877,
      "ĠÅ¡a": 1878,
      "05": 1879,
      "ĠÄįetiri": 1880,
      "Ġdugo": 1881,
      "hvati": 1882,
      "Ġstandar": 1883,
      "Ġpredstav": 1884,
      "ĠVoj": 1885,
      "ĠpovrÅ¡i": 1886,
      "Ġbli": 1887,
      "tko": 1888,
      "gaÄĳa": 1889,
      "Ġvas": 1890,
      "kim": 1891,
      "sima": 1892,
      "Ġministar": 1893,
      "SK": 1894,
      "sio": 1895,
      "sor": 1896,
      "ĠHo": 1897,
      "ĠpomoÄĩ": 1898,
      "per": 1899,
      "nska": 1900,
      "ĠÄįinje": 1901,
      "tke": 1902,
      "Ġpodataka": 1903,
      "kli": 1904,
      "snik": 1905,
      "dam": 1906,
      "Ġnapo": 1907,
      "ÄĨ": 1908,
      "Ġet": 1909,
      "Å¡Äĩu": 1910,
      "Ġmre": 1911,
      "ĠLu": 1912,
      "Ġstvari": 1913,
      "ĠAmeri": 1914,
      "Ġskladu": 1915,
      "radi": 1916,
      "ĠâĪ": 1917,
      "san": 1918,
      "24": 1919,
      "vÅ¡i": 1920,
      "leÅ¾": 1921,
      "ĠGe": 1922,
      "snost": 1923,
      "Ġrizi": 1924,
      "kraji": 1925,
      "23": 1926,
      "Ġtog": 1927,
      "Ġdobije": 1928,
      "zbi": 1929,
      "Ġuda": 1930,
      "Ġproblem": 1931,
      "ĠistraÅ¾ivanja": 1932,
      "telj": 1933,
      "Ġvrednost": 1934,
      "dije": 1935,
      "kar": 1936,
      "Ġgle": 1937,
      "Ġupravlja": 1938,
      "voljno": 1939,
      "Ġveza": 1940,
      "tisti": 1941,
      "Ġdozvo": 1942,
      "Ġindu": 1943,
      "Ġkojih": 1944,
      "Ġpored": 1945,
      "vremeno": 1946,
      "Ġponu": 1947,
      "Ġuo": 1948,
      "Ġprimer": 1949,
      "ĠTu": 1950,
      "Ġpostup": 1951,
      "Ġljud": 1952,
      "ruÄį": 1953,
      "21": 1954,
      "tog": 1955,
      "Äĩih": 1956,
      "Ġeks": 1957,
      "nos": 1958,
      "vili": 1959,
      "Ġneke": 1960,
      "ĠpreduzeÄĩa": 1961,
      "Ġmuzi": 1962,
      "lnosti": 1963,
      "Ġlu": 1964,
      "Ġispita": 1965,
      "Ġodre": 1966,
      "Ġcentra": 1967,
      "Ġlica": 1968,
      "Ġnaselje": 1969,
      "ĠÅ¾ivota": 1970,
      "opho": 1971,
      "sova": 1972,
      "ĠÄįini": 1973,
      "kama": 1974,
      "niza": 1975,
      "sre": 1976,
      "ĠSAD": 1977,
      "Ġpripre": 1978,
      "Ġteo": 1979,
      "bre": 1980,
      "laz": 1981,
      "Ġoda": 1982,
      "ĠbiÄĩe": 1983,
      "ĠPu": 1984,
      "**": 1985,
      "Ġnavodi": 1986,
      "mir": 1987,
      "ĠÅ¾ele": 1988,
      "Ġklu": 1989,
      "mp": 1990,
      "RO": 1991,
      "Ġug": 1992,
      "Ġsm": 1993,
      "laza": 1994,
      "ĠïĢ": 1995,
      "Ġjeste": 1996,
      "Ġnazi": 1997,
      "Ġprodu": 1998,
      "Å¡lja": 1999,
      "Ġgre": 2000,
      "Ġfu": 2001,
      "vnosti": 2002,
      "il": 2003,
      "Ġzado": 2004,
      "lacije": 2005,
      "Ġfizi": 2006,
      "tere": 2007,
      "Äįnosti": 2008,
      "Ġpredvi": 2009,
      "Ġsavez": 2010,
      "grani": 2011,
      "Ġvezi": 2012,
      "Ġ29": 2013,
      "ture": 2014,
      "Ġispiti": 2015,
      "Äĳena": 2016,
      "ktiv": 2017,
      "ali": 2018,
      "Ġzi": 2019,
      "Ġtrans": 2020,
      "vina": 2021,
      "blje": 2022,
      "der": 2023,
      "Ġpogo": 2024,
      "Äįnom": 2025,
      "Ġposledi": 2026,
      "ĠAleksa": 2027,
      "ĠKao": 2028,
      "gled": 2029,
      "Ġisku": 2030,
      "Äįar": 2031,
      "Äįnu": 2032,
      "tovo": 2033,
      "ĠÄįesto": 2034,
      "Ġtrgo": 2035,
      "ĠSlika": 2036,
      "ber": 2037,
      "Ġiznosi": 2038,
      "Ġzdrav": 2039,
      "ts": 2040,
      "son": 2041,
      "Ġkru": 2042,
      "Ġimao": 2043,
      "ĠPO": 2044,
      "uz": 2045,
      "nak": 2046,
      "rao": 2047,
      "dÅ¾e": 2048,
      "Ġzakona": 2049,
      "tive": 2050,
      "Ġnaja": 2051,
      "qu": 2052,
      "Ġ&": 2053,
      "Ġnavede": 2054,
      "nicima": 2055,
      "Ġefe": 2056,
      "40": 2057,
      "Å½": 2058,
      "AL": 2059,
      "Ġdopri": 2060,
      "ĠFa": 2061,
      "Ġidenti": 2062,
      "26": 2063,
      "pisu": 2064,
      "tske": 2065,
      "ĠnaÅ¡i": 2066,
      "ĠPra": 2067,
      "ĠLo": 2068,
      "mer": 2069,
      "Ġobjek": 2070,
      "ĠGra": 2071,
      "Ġkojim": 2072,
      "Ġnapra": 2073,
      "Ġsasta": 2074,
      "Ġneopho": 2075,
      "Ġelektro": 2076,
      "Ġobo": 2077,
      "Ġkarakteristi": 2078,
      "ĠniÅ¡ta": 2079,
      "naÄįe": 2080,
      "Ġsub": 2081,
      "Ġkraju": 2082,
      "Ġmaj": 2083,
      "Ġprizna": 2084,
      "Ġnjega": 2085,
      "ĠSte": 2086,
      "Ġvrlo": 2087,
      "Ġoptu": 2088,
      "ry": 2089,
      "ara": 2090,
      "vor": 2091,
      "Ġgrada": 2092,
      "Ġneo": 2093,
      "33": 2094,
      "Ġsvetu": 2095,
      "Ġ<": 2096,
      "menti": 2097,
      "ĠTre": 2098,
      "Ġspa": 2099,
      "tetu": 2100,
      "ĠRepublike": 2101,
      "29": 2102,
      "Ġdan": 2103,
      "ĠdogaÄĳa": 2104,
      "Ġporu": 2105,
      "titi": 2106,
      "27": 2107,
      "ĠpriÄįa": 2108,
      "ĠHrvat": 2109,
      "ĠdrÅ¾avi": 2110,
      "Ġdrugim": 2111,
      "ĠdoÅ¡": 2112,
      "Ġzemlja": 2113,
      "line": 2114,
      "ĠpokuÅ¡a": 2115,
      "Ġpodacima": 2116,
      "Ġpitanja": 2117,
      "Ġglu": 2118,
      ");": 2119,
      "lnu": 2120,
      "Ġopera": 2121,
      "risa": 2122,
      "28": 2123,
      "ĠPar": 2124,
      "Ġstrate": 2125,
      "Ġkomp": 2126,
      "lago": 2127,
      "bili": 2128,
      "Ġodgovo": 2129,
      "njih": 2130,
      "Ġevrop": 2131,
      "ĠizveÅ¡ta": 2132,
      "nike": 2133,
      "Ġprikaza": 2134,
      "Ġtehno": 2135,
      "Ġperiodu": 2136,
      "drÅ¾a": 2137,
      "Ġstepe": 2138,
      "Äĳeno": 2139,
      "Ġdra": 2140,
      "Ġupu": 2141,
      "jte": 2142,
      "ĠPr": 2143,
      "rovatno": 2144,
      "ĠPosle": 2145,
      "tski": 2146,
      "Ġopa": 2147,
      "Ġnarod": 2148,
      "Ġtem": 2149,
      "Ġvam": 2150,
      "tnog": 2151,
      "Ġodbra": 2152,
      "ĠFe": 2153,
      "45": 2154,
      "ĠmoguÄĩe": 2155,
      "Ġnastav": 2156,
      "Ġkonku": 2157,
      "niti": 2158,
      "ĠOvo": 2159,
      "Ġnared": 2160,
      "ĠponaÅ¡a": 2161,
      "Ġuli": 2162,
      "Ġveka": 2163,
      "Ġmla": 2164,
      "Ġdise": 2165,
      "}-": 2166,
      "ĠAr": 2167,
      "laÅ¾e": 2168,
      "Ġpremije": 2169,
      "Äįina": 2170,
      "Ġuna": 2171,
      "tiva": 2172,
      "www": 2173,
      "Ġnjima": 2174,
      "njuje": 2175,
      "Ġmogao": 2176,
      "Ġminu": 2177,
      "Ġzaklju": 2178,
      "Ġuspo": 2179,
      "âĢĿ.": 2180,
      "Ġdirek": 2181,
      "ban": 2182,
      "Ġpotro": 2183,
      "ET": 2184,
      "Ġkoli": 2185,
      "dro": 2186,
      "Ġprilikom": 2187,
      "ĠMu": 2188,
      "ĠY": 2189,
      "vje": 2190,
      "bina": 2191,
      "Ġmnogi": 2192,
      "Ġosigu": 2193,
      "dnosti": 2194,
      "Ġteri": 2195,
      "cama": 2196,
      "Ġsave": 2197,
      "Ġumet": 2198,
      "60": 2199,
      "uma": 2200,
      "Ġpredsednika": 2201,
      "Ġdis": 2202,
      "Ġkva": 2203,
      "jima": 2204,
      "Ġpotrebno": 2205,
      "Ġovoj": 2206,
      "lin": 2207,
      "ĠvaÅ¾": 2208,
      "iz": 2209,
      "Ġvan": 2210,
      "kovi": 2211,
      "Ġukoliko": 2212,
      "ted": 2213,
      "Ġr": 2214,
      "Ġindi": 2215,
      "riju": 2216,
      "Ġpacije": 2217,
      "ksa": 2218,
      "Ġvozi": 2219,
      "ĠBeograda": 2220,
      "obraÄĩa": 2221,
      "ĠJugosla": 2222,
      "Ġï¿½": 2223,
      "Äįine": 2224,
      "Ġpora": 2225,
      "Ġsmanje": 2226,
      "Ġgodinu": 2227,
      "kvi": 2228,
      "ĠÄĮe": 2229,
      "Ġizuze": 2230,
      "Ġprvo": 2231,
      "ĠoseÄĩa": 2232,
      "Ġstav": 2233,
      "Ġdolazi": 2234,
      "Ġdola": 2235,
      "Ġpisa": 2236,
      "Ġipak": 2237,
      "selje": 2238,
      "Ġsebe": 2239,
      "Ġsup": 2240,
      "ĠÄįlan": 2241,
      "jeva": 2242,
      "Ġsami": 2243,
      "Ġzada": 2244,
      "dba": 2245,
      "Ġ60": 2246,
      "Ġgleda": 2247,
      "ĠteÅ¡ko": 2248,
      "Å¾an": 2249,
      "Ġ%": 2250,
      "diti": 2251,
      "ĠCe": 2252,
      "Äįio": 2253,
      "vlju": 2254,
      "Ġiako": 2255,
      "Ġbolje": 2256,
      "Ġpitanju": 2257,
      "Ġveliko": 2258,
      "Ġnivou": 2259,
      "ĠpodruÄį": 2260,
      "Å¡enje": 2261,
      "Ġbroja": 2262,
      "ĠHe": 2263,
      "Ġugla": 2264,
      "99": 2265,
      "jskog": 2266,
      "Ġ2011": 2267,
      "Ġ()": 2268,
      "ĠmoÅ¾da": 2269,
      "Ġprose": 2270,
      "ĠoÄįi": 2271,
      "gar": 2272,
      "Ġkriti": 2273,
      "ravno": 2274,
      "35": 2275,
      "Ġispu": 2276,
      "Ġvisini": 2277,
      "jskih": 2278,
      "pis": 2279,
      "Ġpode": 2280,
      "um": 2281,
      "Ġproje": 2282,
      "manje": 2283,
      "Ġfakul": 2284,
      "Ġmini": 2285,
      "ĠZo": 2286,
      "Ġnovo": 2287,
      "listi": 2288,
      "Ġstanovni": 2289,
      "veo": 2290,
      "Ãł": 2291,
      "Ġstatisti": 2292,
      "Ġ197": 2293,
      "vode": 2294,
      "lini": 2295,
      "Ġposeb": 2296,
      "zuje": 2297,
      "ime": 2298,
      "Ġradu": 2299,
      "ĠBri": 2300,
      "cal": 2301,
      "Ġovde": 2302,
      "rena": 2303,
      "ĠÄįlana": 2304,
      "nicu": 2305,
      "Ġjedne": 2306,
      "ĠÅ¾": 2307,
      "tivi": 2308,
      "Ġsveta": 2309,
      "vnu": 2310,
      "Ġvarija": 2311,
      "ĠZe": 2312,
      "ðĿĳ": 2313,
      "Å¡ku": 2314,
      "rka": 2315,
      "Ġzvani": 2316,
      "Ġsce": 2317,
      "Ġdemokra": 2318,
      "Ġjoj": 2319,
      "Ġproblema": 2320,
      "Ġprona": 2321,
      "ĠsaobraÄĩa": 2322,
      "tova": 2323,
      "zom": 2324,
      "niverzi": 2325,
      "tru": 2326,
      "Ġpotpuno": 2327,
      "tivni": 2328,
      "Ġrata": 2329,
      "Ġinf": 2330,
      "Ġode": 2331,
      "NO": 2332,
      "Ġlice": 2333,
      "Ġpromene": 2334,
      "Ġstatu": 2335,
      "Ġzakon": 2336,
      "Ġpoveza": 2337,
      "ĠEvrop": 2338,
      "ĠAn": 2339,
      "Ġkasnije": 2340,
      "Ġproces": 2341,
      "Ġnagla": 2342,
      "ĠïĤ": 2343,
      "Ġsvom": 2344,
      "Ġnezavi": 2345,
      "Ġupravo": 2346,
      "AR": 2347,
      "nomi": 2348,
      "lisa": 2349,
      "Ġbile": 2350,
      "ĠIsto": 2351,
      "rmi": 2352,
      "ĠÄįemu": 2353,
      "Ġtru": 2354,
      "Ġzatim": 2355,
      "âĪ": 2356,
      "Ġotvore": 2357,
      "ĠIma": 2358,
      "Ìģ": 2359,
      "ĠHi": 2360,
      "Å¾ila": 2361,
      "Ġniko": 2362,
      "mana": 2363,
      "Ġpriti": 2364,
      "dovi": 2365,
      "Ġimati": 2366,
      "Ġovim": 2367,
      "Ġizbor": 2368,
      "bom": 2369,
      "Ġrela": 2370,
      "riti": 2371,
      "44": 2372,
      "Ġrazvoja": 2373,
      "tura": 2374,
      "cifi": 2375,
      "Ġograni": 2376,
      "pravo": 2377,
      "Ġkojem": 2378,
      "ĠsluÅ¾be": 2379,
      "Ġrazume": 2380,
      "OR": 2381,
      "kr": 2382,
      "Ġkoriste": 2383,
      "Ġnovina": 2384,
      "ĠNA": 2385,
      "Ġver": 2386,
      "ER": 2387,
      "Ġkar": 2388,
      "Ġ35": 2389,
      "ĠpoÄįi": 2390,
      "Ġpreda": 2391,
      "Ġdiserta": 2392,
      "Ġmestu": 2393,
      "zenta": 2394,
      "kazuju": 2395,
      "mbra": 2396,
      "ĠTakoÄĳe": 2397,
      "ton": 2398,
      "Ġefika": 2399,
      "dina": 2400,
      "Ġmladi": 2401,
      "Ġunutra": 2402,
      "ĠInter": 2403,
      "Ġponovo": 2404,
      "tual": 2405,
      "ĠraÄįuna": 2406,
      "ĠmoguÄĩnost": 2407,
      "Ġdete": 2408,
      "Ġsvaki": 2409,
      "ĠtroÅ¡ko": 2410,
      "Ġpotencija": 2411,
      "net": 2412,
      "menata": 2413,
      "Ġodnosi": 2414,
      "ĠnajviÅ¡e": 2415,
      "ĠmiÅ¡lje": 2416,
      "ljopri": 2417,
      "Ġtempera": 2418,
      "38": 2419,
      "movi": 2420,
      "vcu": 2421,
      "niju": 2422,
      "Ġsvog": 2423,
      "Ġimali": 2424,
      "Ġkredi": 2425,
      "Ġnaselju": 2426,
      "Ġcilj": 2427,
      "Ġmere": 2428,
      "ld": 2429,
      "IT": 2430,
      "is": 2431,
      "mah": 2432,
      "Ġstrana": 2433,
      "Å¡tvo": 2434,
      "ĠIako": 2435,
      "ĠznaÄįa": 2436,
      "Ġterito": 2437,
      "nin": 2438,
      "Ġdobija": 2439,
      "48": 2440,
      "Ġstvar": 2441,
      "bio": 2442,
      "loviÄĩ": 2443,
      "Ġposmatra": 2444,
      "Ġzara": 2445,
      "37": 2446,
      "Ġindust": 2447,
      "Ġprima": 2448,
      "MA": 2449,
      "Ġkraj": 2450,
      "Ġcilje": 2451,
      "zor": 2452,
      "nove": 2453,
      "Ġproizvoda": 2454,
      "Ġsar": 2455,
      "tkom": 2456,
      "SS": 2457,
      "Ġposao": 2458,
      "rent": 2459,
      "Ġregu": 2460,
      "ĠknjiÅ¾e": 2461,
      "Ġkomi": 2462,
      "Ġnadmor": 2463,
      "Ġizo": 2464,
      "Äįuje": 2465,
      "nskom": 2466,
      "ĠCa": 2467,
      "Ã¥": 2468,
      "ĠÅ¾eli": 2469,
      "ĠopÅ¡tini": 2470,
      "ĠÅ¾ivelo": 2471,
      "ĠpaÅ¾": 2472,
      "Ġx": 2473,
      "Ġslika": 2474,
      "Ġzema": 2475,
      "gija": 2476,
      "Ġkapita": 2477,
      "Ġjasno": 2478,
      "ĠTabela": 2479,
      "razume": 2480,
      "36": 2481,
      "zdu": 2482,
      "ĠnadleÅ¾": 2483,
      "Ġpriro": 2484,
      "Ġosu": 2485,
      "Ġprocesa": 2486,
      "zori": 2487,
      "zora": 2488,
      "Ġizne": 2489,
      "ĠreÄįe": 2490,
      "Ġozna": 2491,
      "ĠÅ½i": 2492,
      "us": 2493,
      "39": 2494,
      "Ġsmislu": 2495,
      "Å¾enje": 2496,
      "kna": 2497,
      "lina": 2498,
      "ĠÄįiji": 2499,
      "Ġarhi": 2500,
      "ĠOp": 2501,
      "Å¡enja": 2502,
      "cep": 2503,
      "Ġvrsta": 2504,
      "br": 2505,
      "Ġope": 2506,
      "tego": 2507,
      "Ġzame": 2508,
      "Ġizjavio": 2509,
      "ĠÄĩemo": 2510,
      "den": 2511,
      "Ġotkri": 2512,
      "Ġzdravstve": 2513,
      "Ġkoncentra": 2514,
      "ĠgraÄĳana": 2515,
      "Ġplo": 2516,
      "Ġdvo": 2517,
      "NA": 2518,
      "Ġpsi": 2519,
      "Ġekspe": 2520,
      "gom": 2521,
      "ograd": 2522,
      "ĠreÄįima": 2523,
      "ĠNovi": 2524,
      "Ġodu": 2525,
      "Ġure": 2526,
      "dnici": 2527,
      "Ġruko": 2528,
      "Ġredo": 2529,
      "ĠZako": 2530,
      "zne": 2531,
      "Ġnagra": 2532,
      "Ġsvaka": 2533,
      "tina": 2534,
      "Ġzgra": 2535,
      "ĠâĢ¢": 2536,
      "formi": 2537,
      "Ġjednu": 2538,
      "Ġozbi": 2539,
      "Ġzahteva": 2540,
      "ngle": 2541,
      "zer": 2542,
      "dnih": 2543,
      "Ġobavlja": 2544,
      "LA": 2545,
      "Ġnjegov": 2546,
      "ĠÄįega": 2547,
      "ĠoÄįeki": 2548,
      "ĠsluÄįaj": 2549,
      "kiÄĩ": 2550,
      "Ġosoba": 2551,
      "fu": 2552,
      "rali": 2553,
      "Ġstude": 2554,
      "ĠdomaÄĩi": 2555,
      "Ġtradi": 2556,
      "ĠCo": 2557,
      "Ġizgrad": 2558,
      "Ġsazna": 2559,
      "Ġmanji": 2560,
      "mpi": 2561,
      "alka": 2562,
      "mima": 2563,
      "Ġpola": 2564,
      "Ġuvo": 2565,
      "uro": 2566,
      "JE": 2567,
      "ction": 2568,
      "ĠZA": 2569,
      "Ġpart": 2570,
      "ĠâĢĶ": 2571,
      "Ġemi": 2572,
      "mera": 2573,
      "Â±": 2574,
      "vrede": 2575,
      "Äįito": 2576,
      "slav": 2577,
      "Å¡iÄĩ": 2578,
      "ĠÄĮa": 2579,
      "Ġnorma": 2580,
      "80": 2581,
      "rem": 2582,
      "Ġparla": 2583,
      "Ġovu": 2584,
      "prav": 2585,
      "gan": 2586,
      "Ġsuda": 2587,
      "Ġdovoljno": 2588,
      "bije": 2589,
      "Ġkraja": 2590,
      "ĠduÅ¾": 2591,
      "sak": 2592,
      "Ġnadmorskoj": 2593,
      "Ġsebi": 2594,
      "ĠIta": 2595,
      "Ġuglavnom": 2596,
      "ĠÅ¾a": 2597,
      "Ġtoliko": 2598,
      "Ġzemalja": 2599,
      "67": 2600,
      "ĠSkupÅ¡ti": 2601,
      "ÌĮ": 2602,
      "Ġdosta": 2603,
      "lost": 2604,
      "IV": 2605,
      "Ġradio": 2606,
      "Ġdne": 2607,
      "pusti": 2608,
      "Ġfilm": 2609,
      "ler": 2610,
      "Ġrodite": 2611,
      "Ġzajedno": 2612,
      "Ġpodi": 2613,
      "Ġpotreb": 2614,
      "togra": 2615,
      "Ġverovatno": 2616,
      "Ġsop": 2617,
      "ĠLju": 2618,
      "logije": 2619,
      "Ġoslo": 2620,
      "Ġsara": 2621,
      "ĠFo": 2622,
      "Ġonih": 2623,
      "dnog": 2624,
      "dila": 2625,
      "Ġtoku": 2626,
      "Å¾o": 2627,
      "Ġkandi": 2628,
      "Å¡kog": 2629,
      "bija": 2630,
      "Ġbih": 2631,
      "Ġstranke": 2632,
      "Ġ'": 2633,
      "ĠbaÅ¡": 2634,
      "Ġpoljopri": 2635,
      "Ġnovih": 2636,
      "Å¡no": 2637,
      "roma": 2638,
      "ĠzaÅ¡tite": 2639,
      "Ġrepre": 2640,
      "Ġuticaj": 2641,
      "Ġvrste": 2642,
      "logija": 2643,
      "Ġzapa": 2644,
      "Ã¨": 2645,
      "47": 2646,
      "Ġmodel": 2647,
      "Ġuslovima": 2648,
      "ĠSave": 2649,
      "lnost": 2650,
      "Ġsum": 2651,
      "Ġdirektor": 2652,
      "ĠbudÅ¾e": 2653,
      "Ġpromena": 2654,
      "ll": 2655,
      "Äįava": 2656,
      "Po": 2657,
      "Ġtamo": 2658,
      "Ġbolesti": 2659,
      "Ġodnosa": 2660,
      "dera": 2661,
      "pora": 2662,
      "Å¡Äĩa": 2663,
      "Ġklju": 2664,
      "49": 2665,
      "ĠmoguÄĩnosti": 2666,
      "ĠrazliÄįitih": 2667,
      "Ġmodela": 2668,
      "ĠAna": 2669,
      "Ġepi": 2670,
      "65": 2671,
      "Äĳan": 2672,
      "ĠÅ¡est": 2673,
      "tivnih": 2674,
      "Ġgubi": 2675,
      "KA": 2676,
      "Ġobzirom": 2677,
      "Ġsopstve": 2678,
      "Ġrazliku": 2679,
      "Ġtehni": 2680,
      "ista": 2681,
      "ĠNakon": 2682,
      "lacija": 2683,
      "vale": 2684,
      "gor": 2685,
      "ĠreÅ¾i": 2686,
      "tek": 2687,
      "Ġhilja": 2688,
      "Ġranije": 2689,
      "Ġpolu": 2690,
      "Ġat": 2691,
      "Ġtih": 2692,
      "dar": 2693,
      "Å¾enja": 2694,
      "tnu": 2695,
      "dili": 2696,
      "ĠOvaj": 2697,
      "vanoviÄĩ": 2698,
      "Ġmeri": 2699,
      "Ġkatego": 2700,
      "Ġniti": 2701,
      "oni": 2702,
      "takmi": 2703,
      "Ġprogram": 2704,
      "ris": 2705,
      "ĠVladi": 2706,
      "Äĳeni": 2707,
      "ĠtraÅ¾i": 2708,
      "Ġprivred": 2709,
      "Ġ...": 2710,
      "Äĳivanje": 2711,
      "Ġrekla": 2712,
      "ĠSva": 2713,
      "Ġnega": 2714,
      "Ġpodne": 2715,
      "Ġputem": 2716,
      "Ġ2005": 2717,
      "sme": 2718,
      "lega": 2719,
      "Ġpodrazume": 2720,
      "ĠdruÅ¡tva": 2721,
      "ĠFrancu": 2722,
      "Äĳuju": 2723,
      "Ġsezo": 2724,
      "bele": 2725,
      "tivna": 2726,
      "Ġorganizacije": 2727,
      "mlje": 2728,
      "Ġsvojih": 2729,
      "che": 2730,
      "ĠÄįetvr": 2731,
      "vane": 2732,
      "Ġvazdu": 2733,
      "Ġbrzi": 2734,
      "led": 2735,
      "Ġnjegove": 2736,
      "Ġkise": 2737,
      "leko": 2738,
      "lti": 2739,
      "Ġmenja": 2740,
      "Ġsposob": 2741,
      "Ġizbe": 2742,
      "ster": 2743,
      "Ġprinci": 2744,
      "nuo": 2745,
      "Ġljuba": 2746,
      "loÅ¡ki": 2747,
      "Ġmoraju": 2748,
      "telji": 2749,
      "nac": 2750,
      "lizacije": 2751,
      "Ġstabi": 2752,
      "Ġizd": 2753,
      "Ġgotovo": 2754,
      "ĠSP": 2755,
      "stan": 2756,
      "Ġco": 2757,
      "jum": 2758,
      "Ġïĥ": 2759,
      "ĠpoloÅ¾a": 2760,
      "riÄĩ": 2761,
      "Ġodnose": 2762,
      "ĠSrp": 2763,
      "ĠplaÄĩa": 2764,
      "%)": 2765,
      "lijar": 2766,
      "OD": 2767,
      "Ġspecija": 2768,
      "dnom": 2769,
      "Ġnasi": 2770,
      "Å¡ki": 2771,
      "Ġrazloga": 2772,
      "Ġklasi": 2773,
      "nijih": 2774,
      "Ġnisam": 2775,
      "ĠCi": 2776,
      "jemo": 2777,
      "dnika": 2778,
      "stoji": 2779,
      "Ġisko": 2780,
      "Äįen": 2781,
      "Ġkoga": 2782,
      "Ġdolara": 2783,
      "njen": 2784,
      "tnom": 2785,
      "Ġjuna": 2786,
      "Ġozbilj": 2787,
      "Ġsavreme": 2788,
      "ĠDana": 2789,
      "kuplja": 2790,
      "Ġizgleda": 2791,
      "ptem": 2792,
      "stima": 2793,
      "ĠKosova": 2794,
      "Ġ31": 2795,
      "sve": 2796,
      "07": 2797,
      "Ġodmah": 2798,
      "ntar": 2799,
      "Ġum": 2800,
      "ĠmeÄĳutim": 2801,
      "Ġ2008": 2802,
      "Ġ45": 2803,
      "Ġprograma": 2804,
      "sednik": 2805,
      "Ġas": 2806,
      "Ġuni": 2807,
      "Ġveru": 2808,
      "pan": 2809,
      "Ġmogli": 2810,
      "ĠodluÄįi": 2811,
      "ĠÅłta": 2812,
      "34": 2813,
      "Ġgodini": 2814,
      "Ġpredsta": 2815,
      "Ġizgu": 2816,
      "ĠÅ¾ena": 2817,
      "ns": 2818,
      "Ġfudba": 2819,
      "IS": 2820,
      "rac": 2821,
      "lnoj": 2822,
      "dese": 2823,
      "Ġspecifi": 2824,
      "Ġ37": 2825,
      "ÄįeÅ¡Äĩe": 2826,
      "Ġ2000": 2827,
      "ĠPored": 2828,
      "laca": 2829,
      "Ġosim": 2830,
      "ĠZbog": 2831,
      "nat": 2832,
      "Ġkulture": 2833,
      "snih": 2834,
      "tine": 2835,
      "Ġutakmi": 2836,
      "Å¡njeg": 2837,
      "Ġkomunika": 2838,
      "199": 2839,
      "Ġsaop": 2840,
      "ĠSR": 2841,
      "Ġmeseci": 2842,
      "Ġuzor": 2843,
      "Ġobje": 2844,
      "Ġposlova": 2845,
      "ĠznaÄįajno": 2846,
      "vano": 2847,
      "Ġ2012": 2848,
      "ĠNaselje": 2849,
      "68": 2850,
      "Ġreal": 2851,
      "dima": 2852,
      "jska": 2853,
      "vaja": 2854,
      "Ġkandida": 2855,
      "kt": 2856,
      "ĠVeli": 2857,
      "ĠVr": 2858,
      "ĠzavrÅ¡e": 2859,
      "zam": 2860,
      "Ġpoz": 2861,
      "OM": 2862,
      "Ġrade": 2863,
      "ĠmoÄĩi": 2864,
      "kaz": 2865,
      "tica": 2866,
      "Ġ80": 2867,
      "Ġpoput": 2868,
      "ĠmoÅ¾emo": 2869,
      "ĠÄĮi": 2870,
      "Ġmeha": 2871,
      "Ġprivat": 2872,
      "Ġpripada": 2873,
      "Ġkona": 2874,
      "ĠpruÅ¾a": 2875,
      "ranju": 2876,
      "Ġjezika": 2877,
      "tnosti": 2878,
      "roj": 2879,
      "Ġmilijar": 2880,
      "Äįara": 2881,
      "pone": 2882,
      "Ġsaveznoj": 2883,
      "nose": 2884,
      "Ġtakmi": 2885,
      "Ġnajbolje": 2886,
      "vlji": 2887,
      "Ġ2009": 2888,
      "lazak": 2889,
      "Ġblo": 2890,
      "Ġnjihove": 2891,
      "Ġgro": 2892,
      "ON": 2893,
      "09": 2894,
      "pub": 2895,
      "ĠâĢĿ": 2896,
      "ct": 2897,
      "Ġpenzi": 2898,
      "vrÅ¡": 2899,
      "Ġsku": 2900,
      "Ġposve": 2901,
      "ĠPod": 2902,
      "Ġpone": 2903,
      "04": 2904,
      "69": 2905,
      "Ġdeta": 2906,
      "ĠÄįovek": 2907,
      "AC": 2908,
      "Ġboga": 2909,
      "ksu": 2910,
      "Ġdefinisa": 2911,
      "ĠNije": 2912,
      "nicama": 2913,
      "len": 2914,
      "mbo": 2915,
      "ĠPla": 2916,
      "nicija": 2917,
      "miÅ¡lja": 2918,
      "ĠSrbiju": 2919,
      "Ġpripa": 2920,
      "ruÅ¾": 2921,
      "Ġostvari": 2922,
      "ĠOni": 2923,
      "Ġwi": 2924,
      "Ġkolo": 2925,
      "Ġjedin": 2926,
      "ina": 2927,
      "Ġtere": 2928,
      "cione": 2929,
      "tivnog": 2930,
      "Ġtrenutku": 2931,
      "ĠizvrÅ¡e": 2932,
      "Ġforma": 2933,
      "Ġkore": 2934,
      "ĠVojvodi": 2935,
      "losti": 2936,
      "Ġ2006": 2937,
      "ĠÄĮlan": 2938,
      "ĠÄĩu": 2939,
      "Ġsporazu": 2940,
      "Ġpretpo": 2941,
      "ĠnajveÄĩi": 2942,
      "Ġdrugom": 2943,
      "].": 2944,
      "Ġvlade": 2945,
      "Ġkoncep": 2946,
      "kog": 2947,
      "sen": 2948,
      "ranih": 2949,
      "volja": 2950,
      "ĠNje": 2951,
      "Ġpoe": 2952,
      "08": 2953,
      "Ġj": 2954,
      "EL": 2955,
      "Ġglasa": 2956,
      "Ġdiplo": 2957,
      "loba": 2958,
      "IJA": 2959,
      "stvom": 2960,
      "Å¾ba": 2961,
      "ĠII": 2962,
      "Ġprven": 2963,
      "ĠOna": 2964,
      "rnog": 2965,
      "Ġsvedo": 2966,
      "gledu": 2967,
      "sis": 2968,
      "ĠÅłe": 2969,
      "kade": 2970,
      "rea": 2971,
      "55": 2972,
      "Ġodred": 2973,
      "ut": 2974,
      "Ġnjemu": 2975,
      "tnim": 2976,
      "Ġpomenu": 2977,
      "IC": 2978,
      "Ġvelike": 2979,
      "mbe": 2980,
      "Ġnedosta": 2981,
      "ĠkuÄĩe": 2982,
      "Ġcent": 2983,
      "bine": 2984,
      "rnih": 2985,
      "fici": 2986,
      "dje": 2987,
      "Ġtj": 2988,
      "vora": 2989,
      "lama": 2990,
      "Ġsupro": 2991,
      "Ġsedam": 2992,
      "Å¾en": 2993,
      "ksima": 2994,
      "ĠproÅ¡le": 2995,
      "Ġkompanije": 2996,
      "Ġ2007": 2997,
      "tiÄĩ": 2998,
      "Ġprove": 2999,
      "Ġzahva": 3000,
      "gh": 3001,
      "Ġpoma": 3002,
      "ĠvrÅ¡i": 3003,
      "ĠMeksi": 3004,
      "Ġpolitike": 3005,
      "Ġ*": 3006,
      "Ġdaje": 3007,
      "ĠzavrÅ¡i": 3008,
      "Ġpovra": 3009,
      "metara": 3010,
      "Ġpostu": 3011,
      "rin": 3012,
      "Ġfon": 3013,
      "Ġimala": 3014,
      "Ġit": 3015,
      "zan": 3016,
      "Ġokto": 3017,
      "Ġcena": 3018,
      "ds": 3019,
      "ĠskupÅ¡ti": 3020,
      "Ġpomi": 3021,
      "ktorska": 3022,
      ".)": 3023,
      "41": 3024,
      "ĠreÅ¡enja": 3025,
      "ĠIpak": 3026,
      "ĠÅ½e": 3027,
      "Ġodnos": 3028,
      "Ġnajbolji": 3029,
      "ĠOr": 3030,
      "Ġinost": 3031,
      "Ġodli": 3032,
      "Ġkvalitet": 3033,
      "Ġskoro": 3034,
      "rtu": 3035,
      "Ġpojedina": 3036,
      "Ġ2004": 3037,
      "ĠMiloÅ¡e": 3038,
      "Ġcon": 3039,
      "ĠNarod": 3040,
      "ĠKe": 3041,
      "ĠEvrope": 3042,
      "din": 3043,
      "Ġpristup": 3044,
      "ft": 3045,
      "Ġseptem": 3046,
      "Ġmera": 3047,
      "Ġnjegova": 3048,
      "Ġdokumenta": 3049,
      "Ġzau": 3050,
      "Ġsvojoj": 3051,
      "Ġreprezenta": 3052,
      "Ġpotrebe": 3053,
      "Ġkrimina": 3054,
      "Ġprva": 3055,
      "ĠSan": 3056,
      "ĠGore": 3057,
      "UP": 3058,
      "Ġusluga": 3059,
      "Ġzabra": 3060,
      "Ġnikada": 3061,
      "ĠzaÅ¡titu": 3062,
      "75": 3063,
      "diÄĩ": 3064,
      "vena": 3065,
      "RAD": 3066,
      "blja": 3067,
      "Ġnosi": 3068,
      "31": 3069,
      "ljenja": 3070,
      "pisi": 3071,
      "rano": 3072,
      "mobi": 3073,
      "telja": 3074,
      "Ġl": 3075,
      "Ġ70": 3076,
      "Äįnost": 3077,
      "ĠÏ": 3078,
      "Ġsvr": 3079,
      "Ġtime": 3080,
      "Ġjugo": 3081,
      "Ġstanje": 3082,
      "tions": 3083,
      "Ġ-{": 3084,
      "Ġstre": 3085,
      "Ġkreta": 3086,
      "Ġsrpske": 3087,
      "Ġhra": 3088,
      "Ġsaj": 3089,
      "Ġkvaliteta": 3090,
      "Ġnalaze": 3091,
      "Ġgr": 3092,
      "Ġmaterijala": 3093,
      "Ġiste": 3094,
      "ĠGla": 3095,
      "rica": 3096,
      "lova": 3097,
      "Ġredu": 3098,
      "vini": 3099,
      "Ġen": 3100,
      "Ġvidu": 3101,
      "ĠsaopÅ¡te": 3102,
      "str": 3103,
      "ĠZna": 3104,
      "Ġpotom": 3105,
      "ĠreÅ¡enje": 3106,
      "osta": 3107,
      "Ġ................................................................": 3108,
      "ĠRaz": 3109,
      "ĠnaroÄįito": 3110,
      "ĠuopÅ¡te": 3111,
      "ĠBio": 3112,
      "ĠCrne": 3113,
      "Ġdoba": 3114,
      "Ġstaro": 3115,
      "Ġanalizi": 3116,
      "Ġspolj": 3117,
      "njoj": 3118,
      "Ġizbora": 3119,
      "paci": 3120,
      "Ġulogu": 3121,
      "ĠStra": 3122,
      "Ġdisertacija": 3123,
      "Ġeki": 3124,
      "Ġbanke": 3125,
      "Äĩemo": 3126,
      "Ġmogla": 3127,
      "svim": 3128,
      "ĠistiÄįe": 3129,
      "Ġï¿½ï¿½ï¿½ï¿½": 3130,
      "CG": 3131,
      "sloven": 3132,
      "Ġkonta": 3133,
      "Ġbezbednosti": 3134,
      "ĠVlade": 3135,
      "Ġkonsta": 3136,
      "jni": 3137,
      "sci": 3138,
      "Ġvlast": 3139,
      "Ġ2013": 3140,
      "66": 3141,
      "tije": 3142,
      "Ġprofi": 3143,
      "nskim": 3144,
      "Ġrazlika": 3145,
      "sred": 3146,
      "Ġ38": 3147,
      "Ġkompanija": 3148,
      "Ġ2003": 3149,
      "Ġlako": 3150,
      "Ġtera": 3151,
      "Ġjavlja": 3152,
      "ziju": 3153,
      "ĠÅ¾ivi": 3154,
      "Ġsredstva": 3155,
      "Ġkomenta": 3156,
      "ces": 3157,
      "ĠRado": 3158,
      "onu": 3159,
      "ĠgraÄĳe": 3160,
      "ĠpodrÅ¾a": 3161,
      "vnoj": 3162,
      "Ġmedici": 3163,
      "ED": 3164,
      "ĠveÄĩa": 3165,
      "Ġvlasni": 3166,
      "Ġosam": 3167,
      "ĠUkoliko": 3168,
      "Ġodra": 3169,
      "tional": 3170,
      "kazi": 3171,
      "Ã®": 3172,
      "Ġrezultat": 3173,
      "Äįak": 3174,
      "Ġprevo": 3175,
      "Ġdrugog": 3176,
      "jne": 3177,
      "Äįnja": 3178,
      "tili": 3179,
      "ser": 3180,
      "Ġ2002": 3181,
      "Ġotvara": 3182,
      "32": 3183,
      "snu": 3184,
      "AV": 3185,
      "id": 3186,
      "Ġï¿½ï¿½": 3187,
      "as": 3188,
      "zacije": 3189,
      "Ġsuko": 3190,
      "mira": 3191,
      "para": 3192,
      "ĠÂ±": 3193,
      "ĠTra": 3194,
      "sim": 3195,
      "Ġugovor": 3196,
      "ÃŃ": 3197,
      "ĠzaÅ¡to": 3198,
      "Ġunapre": 3199,
      "lena": 3200,
      "vski": 3201,
      "Ġzaista": 3202,
      "bolj": 3203,
      "Ġmikro": 3204,
      "ĠÄįeka": 3205,
      "lio": 3206,
      "Ġzvez": 3207,
      "ĠbuduÄĩ": 3208,
      "Ġknjiga": 3209,
      "bla": 3210,
      "ĠïĤ·": 3211,
      "vnost": 3212,
      "Ġmani": 3213,
      "Ġmeseca": 3214,
      "Ġkupo": 3215,
      "Ġ90": 3216,
      "ĠopÅ¡tine": 3217,
      "dnost": 3218,
      "dana": 3219,
      "Ġdobio": 3220,
      "njena": 3221,
      "ĠdoÅ¾i": 3222,
      "Ġrezultata": 3223,
      "ĠpomoÄĩi": 3224,
      "lica": 3225,
      "sional": 3226,
      "ĠTur": 3227,
      "ting": 3228,
      "ms": 3229,
      "ĠGr": 3230,
      "Ġgradu": 3231,
      "ĠoÄįekuje": 3232,
      "ĠBE": 3233,
      "ĠHer": 3234,
      "Ġ2014": 3235,
      "Ġbes": 3236,
      "Ġorganizacija": 3237,
      "Ġprirod": 3238,
      "Ġsig": 3239,
      "fija": 3240,
      "ĠsadrÅ¾i": 3241,
      "Ġreci": 3242,
      "Äįena": 3243,
      "Äįuna": 3244,
      "sad": 3245,
      "Ġsredstava": 3246,
      "Ġpozori": 3247,
      "Ġimamo": 3248,
      "Ġuzro": 3249,
      "dama": 3250,
      "Äĩen": 3251,
      "Ġodgovaraju": 3252,
      "Ġpresu": 3253,
      "Ġnovog": 3254,
      "por": 3255,
      "Ġbar": 3256,
      "Ġgod": 3257,
      "tinu": 3258,
      "Ġzaposlenih": 3259,
      "Ġprvom": 3260,
      "ĠsaopÅ¡ti": 3261,
      "ĠZato": 3262,
      "Ġnekim": 3263,
      "Å¾ava": 3264,
      "Ġenergije": 3265,
      "Ġnaroda": 3266,
      "govori": 3267,
      "Ġposlu": 3268,
      "ck": 3269,
      "46": 3270,
      "Å¡njih": 3271,
      "Ġbora": 3272,
      "Ġ39": 3273,
      "Ġprostora": 3274,
      "Ġpostavlja": 3275,
      "lus": 3276,
      "Ġkilo": 3277,
      "Ġple": 3278,
      "ĠÅ¡kole": 3279,
      "rina": 3280,
      "Ġodluka": 3281,
      "ĠKar": 3282,
      "Ġapri": 3283,
      "jih": 3284,
      "sur": 3285,
      "Ġpropisa": 3286,
      "Ġodluke": 3287,
      "ĠPetro": 3288,
      "Ġïģ": 3289,
      "uth": 3290,
      "Ġminuta": 3291,
      "Ġprostor": 3292,
      "im": 3293,
      "06": 3294,
      "ĠBalka": 3295,
      "Ġjavnosti": 3296,
      "Ġsport": 3297,
      "Ġjanu": 3298,
      "Ġeksperi": 3299,
      "57": 3300,
      "Ġpriho": 3301,
      "ĠMiha": 3302,
      "Ġsigurno": 3303,
      "Be": 3304,
      "Ġsnage": 3305,
      "Ġteme": 3306,
      "ĠtrÅ¾iÅ¡tu": 3307,
      "Äĳene": 3308,
      "ĠRS": 3309,
      "Ġ36": 3310,
      "ĠduÅ¾i": 3311,
      "Ġinformacije": 3312,
      "ÄĬ": 3313,
      "hy": 3314,
      "jn": 3315,
      "ĠÄĨ": 3316,
      "ĠukljuÄįu": 3317,
      "Å¡li": 3318,
      "ĠpiÅ¡e": 3319,
      "Ġpredstavljaju": 3320,
      "Ġjednostav": 3321,
      "Ġpodrazumeva": 3322,
      "vid": 3323,
      "Ġpreci": 3324,
      "Ġprakti": 3325,
      "Ġorganizo": 3326,
      "Ġzajednice": 3327,
      "ĠBra": 3328,
      "Ġbrzo": 3329,
      "ĠSlobo": 3330,
      "Ġanaliza": 3331,
      "Ġgospo": 3332,
      "ĠUN": 3333,
      "neti": 3334,
      "Äįiti": 3335,
      "Ġrezultati": 3336,
      "Ġznanja": 3337,
      "vica": 3338,
      "Ġmarke": 3339,
      "Ġprepozna": 3340,
      "Ġvelika": 3341,
      "Ġsklo": 3342,
      "Ġmenad": 3343,
      "ĠveÄĩe": 3344,
      "Ġsredine": 3345,
      "Ġsasvim": 3346,
      "89": 3347,
      "03": 3348,
      "ĠBiH": 3349,
      "ĠdrugaÄįi": 3350,
      "prija": 3351,
      "pira": 3352,
      "Ġumetni": 3353,
      "Ġbeograd": 3354,
      "Ġnesta": 3355,
      "Ġtvrdi": 3356,
      "Ġautomobi": 3357,
      "prave": 3358,
      "govore": 3359,
      "jedinje": 3360,
      "ron": 3361,
      "stica": 3362,
      "Ġmene": 3363,
      "Ġpobolj": 3364,
      "Ġura": 3365,
      "IK": 3366,
      "Ġprvog": 3367,
      "nala": 3368,
      "IÄĨ": 3369,
      "Ġanalize": 3370,
      "Ġinicija": 3371,
      "guje": 3372,
      "stribu": 3373,
      "ĠÅła": 3374,
      "Ġzemljama": 3375,
      "ĠMeto": 3376,
      "ĠST": 3377,
      "Ġprivati": 3378,
      "Ġvozila": 3379,
      "tuje": 3380,
      "Ġdeset": 3381,
      "Ġzavisi": 3382,
      "ĠMeksiku": 3383,
      "Ġbiv": 3384,
      "ĠpodrÅ¡ku": 3385,
      "Ġpsiho": 3386,
      "Ġog": 3387,
      "Ġispitanika": 3388,
      "ministra": 3389,
      "Ġperiod": 3390,
      "ĠkaÅ¾u": 3391,
      "ĠomoguÄĩa": 3392,
      "ĠâĪĴ": 3393,
      "----------------": 3394,
      "ĠSad": 3395,
      "mija": 3396,
      "43": 3397,
      "Ġkonkre": 3398,
      "Äįnoj": 3399,
      "njeg": 3400,
      "tija": 3401,
      "tila": 3402,
      "Äįeni": 3403,
      "Å¾bi": 3404,
      "mora": 3405,
      "Ġnov": 3406,
      "Ġtoj": 3407,
      "pom": 3408,
      "Ġsati": 3409,
      "ĠIs": 3410,
      "Ġkoma": 3411,
      "Ġmali": 3412,
      "nosa": 3413,
      "gori": 3414,
      "kciju": 3415,
      "Ġav": 3416,
      "snog": 3417,
      "Äĩenja": 3418,
      "Ġispla": 3419,
      "struktu": 3420,
      "Ne": 3421,
      "fiko": 3422,
      "Ġistorij": 3423,
      "42": 3424,
      "ĠreÅ¡a": 3425,
      "Ġkata": 3426,
      "chi": 3427,
      "volu": 3428,
      "02": 3429,
      "Å¾ena": 3430,
      "Ġtela": 3431,
      "ĠdoÅ¡lo": 3432,
      "Ġkriteri": 3433,
      "ĠÄįine": 3434,
      "Ġugro": 3435,
      "Ġcom": 3436,
      "Ġnajmanje": 3437,
      "Ã©": 3438,
      "ĠmuÅ¡ka": 3439,
      "ĠuÄįestvo": 3440,
      "kedo": 3441,
      "Ġstanja": 3442,
      "Ġoti": 3443,
      "Ġanga": 3444,
      "Ġinstru": 3445,
      "Ġkonstru": 3446,
      "ĠiskljuÄįi": 3447,
      "Ġnovac": 3448,
      "stoje": 3449,
      "stom": 3450,
      "Ġneda": 3451,
      "Ġkapaci": 3452,
      "Ġsamou": 3453,
      "Ġproizvodnje": 3454,
      "59": 3455,
      "kreta": 3456,
      "ĠAleksandar": 3457,
      "ĠoÅ¡te": 3458,
      "Ġstanju": 3459,
      "Na": 3460,
      "Ġtelevi": 3461,
      "ten": 3462,
      "nuti": 3463,
      "Ġsvakom": 3464,
      "ĠrazliÄįite": 3465,
      "Ġznam": 3466,
      "Ġradnika": 3467,
      "gov": 3468,
      "âĢ¦âĢ¦âĢ¦âĢ¦": 3469,
      "pisao": 3470,
      "Ġex": 3471,
      "kida": 3472,
      "Ġopet": 3473,
      "Ġzapravo": 3474,
      "vljeno": 3475,
      "Ġnjegovog": 3476,
      "ĠistraÅ¾iva": 3477,
      "Ġinformacija": 3478,
      "ĠnajÄįeÅ¡Äĩe": 3479,
      "tskog": 3480,
      "njuju": 3481,
      "58": 3482,
      "Ġrado": 3483,
      "mentu": 3484,
      "Ġnekada": 3485,
      "Ġenerge": 3486,
      "ĠVlada": 3487,
      "ĠzakljuÄįi": 3488,
      "ĠreÄĩi": 3489,
      "ĠUniverzi": 3490,
      "bama": 3491,
      "ATO": 3492,
      "Å¾eni": 3493,
      "Ġcrkve": 3494,
      "Äĩim": 3495,
      "ĠveÄįe": 3496,
      "ĠSamo": 3497,
      "Ġformu": 3498,
      "ĠobjaÅ¡nja": 3499,
      "stina": 3500,
      "ĠEvropi": 3501,
      "Ġposledica": 3502,
      "Äĩena": 3503,
      "Ġ48": 3504,
      "Ġintenzi": 3505,
      "Ġsprem": 3506,
      "Ġmoglo": 3507,
      "ÄĲ": 3508,
      "ĠSada": 3509,
      "Ġuradi": 3510,
      "Ġwith": 3511,
      "Ġosni": 3512,
      "Ġsvakog": 3513,
      "Ta": 3514,
      "ĠKad": 3515,
      "Ġugovora": 3516,
      "Ġy": 3517,
      "ĠizvrÅ¡i": 3518,
      "Ġkojom": 3519,
      "reni": 3520,
      "Ġkompone": 3521,
      "Ġgloba": 3522,
      "Ġpogledu": 3523,
      "njom": 3524,
      "ĠRezulta": 3525,
      "rba": 3526,
      "ĠAlba": 3527,
      "Ġopozi": 3528,
      "viÄĩe": 3529,
      "vama": 3530,
      "Ġcelo": 3531,
      "sion": 3532,
      "Ġinteresa": 3533,
      "rme": 3534,
      "kci": 3535,
      "gri": 3536,
      "Ġpokazuje": 3537,
      "ĠomoguÄĩi": 3538,
      "ĠJugoslavije": 3539,
      "Äįari": 3540,
      "JA": 3541,
      "Ġkaza": 3542,
      "Ġobjasni": 3543,
      "ĠKosovu": 3544,
      "siji": 3545,
      "at": 3546,
      "ficije": 3547,
      "Ġ;": 3548,
      "Ġturi": 3549,
      "valo": 3550,
      "SP": 3551,
      "ĠstanovniÅ¡tva": 3552,
      "tes": 3553,
      "78": 3554,
      "ĠTri": 3555,
      "Ġpreporu": 3556,
      "pote": 3557,
      "Ġbazi": 3558,
      "isto": 3559,
      "ljeni": 3560,
      "deo": 3561,
      "Ġgrupi": 3562,
      "Ġpredlo": 3563,
      "ĠParti": 3564,
      "Ġnasle": 3565,
      "ĠSvi": 3566,
      "Ġfabri": 3567,
      "Ġudru": 3568,
      "ïĢ": 3569,
      "Ġosobe": 3570,
      "Ġfotogra": 3571,
      "deset": 3572,
      "vodom": 3573,
      "Ġkontek": 3574,
      "Ġpodaci": 3575,
      "Ġobzira": 3576,
      "jskim": 3577,
      "Ġveze": 3578,
      "sed": 3579,
      "Ġglavni": 3580,
      "uthor": 3581,
      "nsko": 3582,
      "Ġcene": 3583,
      "ĠmoÅ¾ete": 3584,
      "ĠDoktorska": 3585,
      "boj": 3586,
      "Ġsrpski": 3587,
      "Å¡an": 3588,
      "kuju": 3589,
      "puÅ¡ta": 3590,
      "Ġ32": 3591,
      "ĠuÅ¾i": 3592,
      "Ġrazlike": 3593,
      "ljenje": 3594,
      "Ġkli": 3595,
      "ĠNovom": 3596,
      "Ġaspe": 3597,
      "ĠpoÄįetka": 3598,
      "Ġnapre": 3599,
      "nila": 3600,
      "ed": 3601,
      "Å£e": 3602,
      "ĠKri": 3603,
      "roviÄĩ": 3604,
      "Ġpreva": 3605,
      "one": 3606,
      "Ġsusre": 3607,
      "Ġkola": 3608,
      "raka": 3609,
      "ĠVuÄįiÄĩ": 3610,
      "Ġnakna": 3611,
      "Ġ2001": 3612,
      "BA": 3613,
      "Ġkor": 3614,
      "cs": 3615,
      "val": 3616,
      "Ġcilju": 3617,
      "ĠEvropske": 3618,
      "Ġvideo": 3619,
      "sma": 3620,
      "Ġsrpskog": 3621,
      "liji": 3622,
      "Ġkonferen": 3623,
      "ĠÅ¾ene": 3624,
      "Ġfunkcioni": 3625,
      "Å¡tina": 3626,
      "Ġnemaju": 3627,
      "les": 3628,
      "ĠpolitiÄįke": 3629,
      "Ġsnaga": 3630,
      "kad": 3631,
      "Ġumetnosti": 3632,
      "ĠKod": 3633,
      "Ġstrani": 3634,
      "Ġovak": 3635,
      "Ġnovca": 3636,
      "Ġnaba": 3637,
      "Ġnapa": 3638,
      "ĠDanas": 3639,
      "sada": 3640,
      "Ġnova": 3641,
      "ĠnaÄįe": 3642,
      "Ġzahtev": 3643,
      "nov": 3644,
      "ĠGu": 3645,
      "zuju": 3646,
      "fije": 3647,
      "Ġdese": 3648,
      "ĠNaime": 3649,
      "ljiva": 3650,
      "ĠSla": 3651,
      "Ġpostavlje": 3652,
      "Ġprve": 3653,
      "Ġpostupak": 3654,
      "loÅ¡ke": 3655,
      "Ġ?": 3656,
      "raz": 3657,
      "Ġbroju": 3658,
      "jedna": 3659,
      "dnik": 3660,
      "70": 3661,
      "Ġnivoa": 3662,
      "kos": 3663,
      "Ġodo": 3664,
      "Ġuze": 3665,
      "56": 3666,
      "Ġhote": 3667,
      "veli": 3668,
      "Ġpostoja": 3669,
      "Ġnjihov": 3670,
      "Ġpotra": 3671,
      "Ġpada": 3672,
      "Ġobaveza": 3673,
      "Ġdeli": 3674,
      "ljena": 3675,
      "var": 3676,
      "kse": 3677,
      "Ġintegra": 3678,
      "Ġravno": 3679,
      "Ġsedi": 3680,
      "Ġnedelje": 3681,
      "Ġjavnog": 3682,
      "orÄĳe": 3683,
      "vajuÄĩi": 3684,
      "nisti": 3685,
      "vnik": 3686,
      "Ġturisti": 3687,
      "njo": 3688,
      "ĠopÅ¡te": 3689,
      "logy": 3690,
      "Ġ33": 3691,
      "ĠLon": 3692,
      "ĠÄĩelija": 3693,
      "stre": 3694,
      "ĠdoÄĳe": 3695,
      "Ġrazvija": 3696,
      "jedno": 3697,
      "Ġporodice": 3698,
      "tska": 3699,
      "niÄĩ": 3700,
      "Ġjavno": 3701,
      "Ġjezik": 3702,
      "Ġumesto": 3703,
      "veni": 3704,
      "ljen": 3705,
      "vaÅ¾": 3706,
      "rala": 3707,
      "min": 3708,
      "tr": 3709,
      "OS": 3710,
      "vlaÅ¡Äĩe": 3711,
      "IJE": 3712,
      "Ġispod": 3713,
      "Ġprisustvo": 3714,
      "Ġnapada": 3715,
      "Ġneposred": 3716,
      "lata": 3717,
      "ĠStu": 3718,
      "ĠUkraji": 3719,
      "Ġke": 3720,
      "IL": 3721,
      "Ġgrado": 3722,
      "Ġistakao": 3723,
      "Ġprihvati": 3724,
      "Ġsan": 3725,
      "Ã±": 3726,
      "Ġunutar": 3727,
      "jevima": 3728,
      "lozo": 3729,
      "tnik": 3730,
      "Ġodbrane": 3731,
      "ls": 3732,
      "Ġprojekta": 3733,
      "ĠâĢĺ": 3734,
      "misli": 3735,
      "ĠSpo": 3736,
      "Ġavgu": 3737,
      "Ġlogi": 3738,
      "cionih": 3739,
      "Mi": 3740,
      "Ġrazvije": 3741,
      "mbar": 3742,
      "mon": 3743,
      "ĠAnd": 3744,
      "ĠSrba": 3745,
      "ĠpoboljÅ¡a": 3746,
      "Ġage": 3747,
      "ĠNATO": 3748,
      "siju": 3749,
      "âĪĴ": 3750,
      "ĠGru": 3751,
      "pije": 3752,
      "Å¾iti": 3753,
      "Ġarhite": 3754,
      "Ġkak": 3755,
      "sanje": 3756,
      "ĠBer": 3757,
      "Ġviru": 3758,
      "jna": 3759,
      "Ġpravila": 3760,
      "urnal": 3761,
      "Ġradova": 3762,
      "ote": 3763,
      "vidu": 3764,
      "Ġbira": 3765,
      "OL": 3766,
      "jim": 3767,
      "Ġknjige": 3768,
      "ĠÄĲu": 3769,
      "vak": 3770,
      "Äįeno": 3771,
      "han": 3772,
      "ĠZakona": 3773,
      "Ġposlednjih": 3774,
      "Ġtipa": 3775,
      "Ma": 3776,
      "ĠÅ¾u": 3777,
      "ĠstruÄįnja": 3778,
      "Ġregionu": 3779,
      "baci": 3780,
      "ĠDrÅ¾a": 3781,
      "jana": 3782,
      "ljiv": 3783,
      "ĠproÅ¡i": 3784,
      "koviÄĩa": 3785,
      "cionog": 3786,
      "tskih": 3787,
      "lm": 3788,
      "Ġitd": 3789,
      "Ġljudima": 3790,
      "Ġuzima": 3791,
      "Ġprocesu": 3792,
      "Ġfrancu": 3793,
      "Ġuticaja": 3794,
      "ĠQ": 3795,
      "Ġhrvat": 3796,
      "Ġadministra": 3797,
      "vinu": 3798,
      "ziji": 3799,
      "Ġproto": 3800,
      "ĠUz": 3801,
      "Ġcentar": 3802,
      "Ġstudija": 3803,
      "vljen": 3804,
      "nts": 3805,
      "ĠrazliÄįitim": 3806,
      "Ġdodao": 3807,
      "lizacija": 3808,
      "Ġpokreta": 3809,
      "Ġradika": 3810,
      "77": 3811,
      "Ġprocedu": 3812,
      "Ġusled": 3813,
      "Ġdevoj": 3814,
      "gde": 3815,
      "Ġizlo": 3816,
      "ĠOsno": 3817,
      "ĠnaÅ¡eg": 3818,
      "Ġfesti": 3819,
      "Ġplan": 3820,
      "mova": 3821,
      "Ġmetara": 3822,
      "Ġ2015": 3823,
      "Ġamba": 3824,
      "Ġleka": 3825,
      "rup": 3826,
      "Ġrazgovara": 3827,
      "slov": 3828,
      "ĠInstitu": 3829,
      "Ġobele": 3830,
      "Ġrat": 3831,
      "Ġpat": 3832,
      "klu": 3833,
      "Ġdesi": 3834,
      "Î±": 3835,
      "gencije": 3836,
      "gita": 3837,
      "88": 3838,
      "hvat": 3839,
      "snici": 3840,
      "dak": 3841,
      "Ġzabele": 3842,
      "Ġnekih": 3843,
      "Ġukazuje": 3844,
      "vaj": 3845,
      "Ġpolicije": 3846,
      "Ġosvoji": 3847,
      "ljujuÄĩi": 3848,
      "ĠÅ¾rt": 3849,
      "lizo": 3850,
      "Ġmr": 3851,
      "Å¾ne": 3852,
      "teo": 3853,
      "naro": 3854,
      "EM": 3855,
      "jno": 3856,
      "solu": 3857,
      "ĠAleksand": 3858,
      "Ġsvakodne": 3859,
      "Ġnjegovim": 3860,
      "nca": 3861,
      "ĠuÄįenika": 3862,
      "beli": 3863,
      "ĠproizvoÄĳa": 3864,
      "Ġska": 3865,
      "Ġtuma": 3866,
      "Ġpristupa": 3867,
      "Ġter": 3868,
      "53": 3869,
      "ĠCom": 3870,
      "AK": 3871,
      "stavi": 3872,
      "jiÄĩ": 3873,
      "Ġodluku": 3874,
      "ĠÄįoveka": 3875,
      "ĠteÅ¾i": 3876,
      "pija": 3877,
      "Ġprofesional": 3878,
      "ili": 3879,
      "Ġupozna": 3880,
      "ĠPrvi": 3881,
      "Å¡en": 3882,
      "turi": 3883,
      "Ġmedija": 3884,
      "Å¡la": 3885,
      "Ġpubli": 3886,
      "Ġured": 3887,
      "Ġputo": 3888,
      "Ġtema": 3889,
      "Ġ34": 3890,
      "ĠgraÄĳani": 3891,
      "ntno": 3892,
      "ĠvaÅ¾no": 3893,
      "Ġrazmatra": 3894,
      "ÄįeviÄĩ": 3895,
      "Ġmana": 3896,
      "deli": 3897,
      "Ġizaz": 3898,
      "Ġpacijenata": 3899,
      "Ġdonosi": 3900,
      "Ġtranspo": 3901,
      "nili": 3902,
      "Ġnekog": 3903,
      "Å¾ni": 3904,
      "Ġstudi": 3905,
      "79": 3906,
      "Ġostalih": 3907,
      "we": 3908,
      "ffe": 3909,
      "Ġregional": 3910,
      "Ġnama": 3911,
      "Äĳar": 3912,
      "ljive": 3913,
      "Ġtrenutno": 3914,
      "Ġprogla": 3915,
      "Ġostali": 3916,
      "vljena": 3917,
      "her": 3918,
      "ger": 3919,
      "Ġljude": 3920,
      "Ġorgana": 3921,
      "Ġhemi": 3922,
      "Ġsimbo": 3923,
      "kula": 3924,
      "Ġdeca": 3925,
      "ĠRezultati": 3926,
      "ktori": 3927,
      "ljivi": 3928,
      "Ġizuzetno": 3929,
      "ĠJedan": 3930,
      "Ġistovremeno": 3931,
      "Ġresur": 3932,
      "jskom": 3933,
      "lice": 3934,
      "ĠÄįime": 3935,
      "________________________________": 3936,
      "Ġizabra": 3937,
      "Ġsvakako": 3938,
      "rnu": 3939,
      "Ġcrno": 3940,
      "ĠMinistarstvo": 3941,
      "las": 3942,
      "Ġzavisnosti": 3943,
      "Ġpresta": 3944,
      "gova": 3945,
      "Ġjedino": 3946,
      "Äĳenju": 3947,
      "kov": 3948,
      "Ġoku": 3949,
      "Ġdaleko": 3950,
      "laganja": 3951,
      "ĠHu": 3952,
      "Ġemo": 3953,
      "Ġrazvoju": 3954,
      "ĠkuÄĩi": 3955,
      "ĠMila": 3956,
      "Ġfunkcije": 3957,
      "Ġfebru": 3958,
      "Ġparlamenta": 3959,
      "Ġlitera": 3960,
      "Ġrast": 3961,
      "ĠÄįlanova": 3962,
      "Ġengle": 3963,
      "Ġtraja": 3964,
      "Ġbismo": 3965,
      "63": 3966,
      "ĠDakle": 3967,
      "Ġ49": 3968,
      "Ġusluge": 3969,
      "ĠPredsednik": 3970,
      "loÅ¡kih": 3971,
      "Ġaktu": 3972,
      "ning": 3973,
      "Ġcar": 3974,
      "Ġtret": 3975,
      "ĠsledeÄĩe": 3976,
      "xi": 3977,
      "Ġubr": 3978,
      "!!": 3979,
      "Ġmaksima": 3980,
      "gno": 3981,
      "Äĩuje": 3982,
      "Ġvisoko": 3983,
      "Ġukupno": 3984,
      "Ġpuno": 3985,
      "ĠPopo": 3986,
      "Ġprese": 3987,
      "ir": 3988,
      "Ġispra": 3989,
      "ĠMinistarstva": 3990,
      "Ġhiljada": 3991,
      "timi": 3992,
      "Ġodbora": 3993,
      "duje": 3994,
      "ĠpotroÅ¡a": 3995,
      "Ġsnima": 3996,
      "nc": 3997,
      "rona": 3998,
      "gru": 3999,
      "Ġrezultate": 4000,
      "Äĩenje": 4001,
      "64": 4002,
      "ĠvraÄĩa": 4003,
      "ĠKosovo": 4004,
      "Ġzakonom": 4005,
      "Ġdosti": 4006,
      "Ġjedini": 4007,
      "Äįima": 4008,
      "Ġnaravno": 4009,
      "ĠdruÅ¡tvo": 4010,
      "ĠOsim": 4011,
      "Ġzadovolj": 4012,
      "Ġuslove": 4013,
      "OGRAD": 4014,
      "ĠSre": 4015,
      "ĠuÄįestvu": 4016,
      "Ġispred": 4017,
      "ĠpoÄįetku": 4018,
      "Ġsagla": 4019,
      "Ġizrazi": 4020,
      "ĠSer": 4021,
      "kte": 4022,
      "ĠCon": 4023,
      "Ġzvu": 4024,
      "Ġnjihova": 4025,
      "gni": 4026,
      "ID": 4027,
      "ori": 4028,
      "ĠukljuÄįujuÄĩi": 4029,
      "Ġsituacija": 4030,
      "fera": 4031,
      "kove": 4032,
      "vorio": 4033,
      "Ġfaktora": 4034,
      "VO": 4035,
      "Ġservi": 4036,
      "ljeno": 4037,
      "ine": 4038,
      "dÅ¾i": 4039,
      "Ġrizika": 4040,
      "ksida": 4041,
      "ork": 4042,
      "ĠkuÄĩa": 4043,
      "Ġkolek": 4044,
      "Ġtero": 4045,
      "Ġroku": 4046,
      "Ġpodatke": 4047,
      "valu": 4048,
      "Å¾nje": 4049,
      "ĠpoÄįinje": 4050,
      "hra": 4051,
      "Ġdistribu": 4052,
      "Ġuslova": 4053,
      "Ġdostup": 4054,
      "Ġlepo": 4055,
      "Ġkampa": 4056,
      "vide": 4057,
      "Ġgodinama": 4058,
      "dri": 4059,
      "ĠGrad": 4060,
      "snim": 4061,
      "Ġzabora": 4062,
      "vencije": 4063,
      "TA": 4064,
      "tivan": 4065,
      "eficije": 4066,
      "Ġobjekata": 4067,
      "Ġdakle": 4068,
      "Ġakade": 4069,
      "ĠrazmiÅ¡lja": 4070,
      "terna": 4071,
      "Ġdimen": 4072,
      "ĠBEOGRAD": 4073,
      "Ġstari": 4074,
      "pio": 4075,
      "intere": 4076,
      "ĠDS": 4077,
      "ĠJournal": 4078,
      "ĠznaÄįaja": 4079,
      "zno": 4080,
      "ĠDrugi": 4081,
      "Å¡njem": 4082,
      "Ġneprija": 4083,
      "ĠÅ¡an": 4084,
      "Ġputu": 4085,
      "Ġelektri": 4086,
      "Ġ1999": 4087,
      "ĠSrpske": 4088,
      "gram": 4089,
      "pti": 4090,
      "Ġmarta": 4091,
      "Ġjednoj": 4092,
      "Ġpoljoprivred": 4093,
      "Ġdono": 4094,
      "Ġpokazuju": 4095,
      "Ġdopu": 4096,
      "ĠinaÄįe": 4097,
      "vice": 4098,
      "lnik": 4099,
      "Å¾ili": 4100,
      "Ġprimene": 4101,
      "PS": 4102,
      "Ġvoda": 4103,
      "ĠSCG": 4104,
      "ĠuspeÅ¡": 4105,
      "Ġdogodi": 4106,
      "Ġkriteriju": 4107,
      "ĠpolitiÄįki": 4108,
      "Ġjeziku": 4109,
      "Ġcivi": 4110,
      "Ġgeo": 4111,
      "dnim": 4112,
      "lici": 4113,
      "hap": 4114,
      "tho": 4115,
      "Ġmetoda": 4116,
      "kaÅ¾e": 4117,
      "Äĩeno": 4118,
      "Ġsprovo": 4119,
      "Ġdiza": 4120,
      "Ġsmrti": 4121,
      "Ġpredi": 4122,
      "Ġpredmet": 4123,
      "Å¡taj": 4124,
      "Ġobuhvata": 4125,
      "Ġjako": 4126,
      "ĠMilan": 4127,
      "Ġbavi": 4128,
      "Ġnjen": 4129,
      "Ġneophodno": 4130,
      "Ġrasta": 4131,
      "Ġobrazovanja": 4132,
      "tacije": 4133,
      "ĠÅ¡te": 4134,
      "Ġrastvo": 4135,
      "vaÄį": 4136,
      "Ġvodo": 4137,
      "Ġoslobo": 4138,
      "Ġhar": 4139,
      "ĠBrita": 4140,
      "Å¡eg": 4141,
      "mio": 4142,
      "pravda": 4143,
      "velo": 4144,
      "Ġoktobra": 4145,
      "bliote": 4146,
      "Ġpp": 4147,
      "ĠPan": 4148,
      "ĠoruÅ¾": 4149,
      "vela": 4150,
      "Ġdobar": 4151,
      "Ġseptembra": 4152,
      "Ġznatno": 4153,
      "dine": 4154,
      "Ġpostupku": 4155,
      "vene": 4156,
      "Ã¡": 4157,
      "ĠstatistiÄįki": 4158,
      "kor": 4159,
      "ĠMla": 4160,
      "Ġakcija": 4161,
      "Ġimo": 4162,
      "Ko": 4163,
      "potre": 4164,
      "Ġnismo": 4165,
      "Ġmaja": 4166,
      "Ġade": 4167,
      "Ġrevi": 4168,
      "ĠBar": 4169,
      "Ġdej": 4170,
      "ĠÅ¡kola": 4171,
      "ĠMakedo": 4172,
      "Ã°": 4173,
      "IM": 4174,
      "54": 4175,
      "ĠÄįije": 4176,
      "ĠTokom": 4177,
      "SA": 4178,
      "Äĳivanja": 4179,
      "Äĩeni": 4180,
      "zem": 4181,
      "ĠÅ¾ivotu": 4182,
      "prkos": 4183,
      "Ġsmanji": 4184,
      "mje": 4185,
      "ĠnaÅ¡a": 4186,
      "61": 4187,
      "mene": 4188,
      "forman": 4189,
      "ĠdrÅ¾avne": 4190,
      "Ġeksplo": 4191,
      "posle": 4192,
      "52": 4193,
      "Ġizgra": 4194,
      "naca": 4195,
      "Ġautor": 4196,
      "Ġpostaje": 4197,
      "Ġsistemu": 4198,
      "ĠnaÅ¡ih": 4199,
      "DP": 4200,
      "Za": 4201,
      "gro": 4202,
      "ĠÅ¾ivoti": 4203,
      "zmu": 4204,
      "Ġmislim": 4205,
      "Ġeli": 4206,
      "res": 4207,
      "ĠureÄĳa": 4208,
      "ĠBroj": 4209,
      "wa": 4210,
      "Ġkoali": 4211,
      "NE": 4212,
      "62": 4213,
      "Ġtradicional": 4214,
      "voda": 4215,
      "Ġoblika": 4216,
      "Ġpostao": 4217,
      "ĠCen": 4218,
      "Ġdirektno": 4219,
      "dnu": 4220,
      "ĠveÄĩina": 4221,
      "tivnim": 4222,
      "Ġneku": 4223,
      "Ġdokaza": 4224,
      "ljene": 4225,
      "ĠEn": 4226,
      "Ġtelef": 4227,
      "dela": 4228,
      "Ġzastup": 4229,
      "lizaciju": 4230,
      "ĠliÄįnosti": 4231,
      "rov": 4232,
      "Ġuslovi": 4233,
      "Ġdecu": 4234,
      "ĠobeÄĩa": 4235,
      "ĠJovanoviÄĩ": 4236,
      "Ġzasno": 4237,
      "ĠPav": 4238,
      "Ġpoj": 4239,
      "Ġposlove": 4240,
      "siÄĩ": 4241,
      "ĠÄįinjenica": 4242,
      "ĠJer": 4243,
      "Ġkupa": 4244,
      "Ġsamosta": 4245,
      "Ġostale": 4246,
      "Ġstavo": 4247,
      "kada": 4248,
      "Ġlak": 4249,
      "Ġekstra": 4250,
      "Ġmar": 4251,
      "Ġmetode": 4252,
      "wi": 4253,
      "Ġmate": 4254,
      "ĠÄįasova": 4255,
      "Ġautora": 4256,
      "ĠtiÄįe": 4257,
      "med": 4258,
      "Ġindividu": 4259,
      "Ġ42": 4260,
      "ĠTV": 4261,
      "51": 4262,
      "ĠPRE": 4263,
      "Ġprenosi": 4264,
      "Ġstruktura": 4265,
      "Ġvid": 4266,
      "ĠutiÄįe": 4267,
      "Ġmole": 4268,
      "Ġsubjek": 4269,
      "zacija": 4270,
      "ĠKr": 4271,
      "ĠmaÅ¡i": 4272,
      "ĠbivÅ¡i": 4273,
      "Ġpovodom": 4274,
      "ĠÄįija": 4275,
      "njeno": 4276,
      "Ġblago": 4277,
      "lt": 4278,
      "87": 4279,
      "mere": 4280,
      "ĠPRO": 4281,
      "Ġodredi": 4282,
      "Å¡tine": 4283,
      "mos": 4284,
      "njenja": 4285,
      "ganiza": 4286,
      "Ġekonomi": 4287,
      "Ġideja": 4288,
      "Â°": 4289,
      "ĠÅłto": 4290,
      "Ġ47": 4291,
      "ĠzadrÅ¾a": 4292,
      "Ġbilj": 4293,
      "Ġpopula": 4294,
      "Ġzdravlja": 4295,
      "ima": 4296,
      "ĠHerce": 4297,
      "Ġsmatraju": 4298,
      "Ġdirektora": 4299,
      "ker": 4300,
      "Ġdobili": 4301,
      "Ġobaveze": 4302,
      "ruÅ¾a": 4303,
      "publika": 4304,
      "vera": 4305,
      "ok": 4306,
      "Äįenju": 4307,
      "Ġby": 4308,
      "ĠÅ¾ivotne": 4309,
      "Ġnekom": 4310,
      "Ġniz": 4311,
      "don": 4312,
      "Ġtakav": 4313,
      "giju": 4314,
      "ĠEl": 4315,
      "Ġstudije": 4316,
      "ĠobjaÅ¡njava": 4317,
      "Äįene": 4318,
      "pisuje": 4319,
      "NS": 4320,
      "Ġiznena": 4321,
      "mit": 4322,
      "gina": 4323,
      "ĠZoran": 4324,
      "90": 4325,
      "Ġnjihovih": 4326,
      "ramo": 4327,
      "ĠtrÅ¾iÅ¡ta": 4328,
      "Ġvelikog": 4329,
      "ĠiskljuÄįivo": 4330,
      "tvo": 4331,
      "Ġsvake": 4332,
      "star": 4333,
      "Ġpolicija": 4334,
      "Ġpolitika": 4335,
      "stvima": 4336,
      "Ġdovodi": 4337,
      "sov": 4338,
      "ĠTaj": 4339,
      "vanih": 4340,
      "ĠÅ¡iro": 4341,
      "Ġokolnosti": 4342,
      "Ġtur": 4343,
      "lozi": 4344,
      "Ġmehani": 4345,
      "Ã³": 4346,
      "Ġhla": 4347,
      "Ġrepubli": 4348,
      "Ġinostran": 4349,
      "ĠRE": 4350,
      "Ġiznad": 4351,
      "Ġdobiti": 4352,
      "ĠIII": 4353,
      "meti": 4354,
      "Ġ44": 4355,
      "ĠnajvaÅ¾": 4356,
      "Ġdati": 4357,
      "Ġkorisnika": 4358,
      "Ġreda": 4359,
      "ĠsaobraÄĩaj": 4360,
      "Ġoblik": 4361,
      "tum": 4362,
      "ĠSA": 4363,
      "Ġonaj": 4364,
      "Ġnaf": 4365,
      "Ġ!": 4366,
      "ĠmreÅ¾e": 4367,
      "est": 4368,
      "jeviÄĩ": 4369,
      "sk": 4370,
      "nsku": 4371,
      "Ġinstitucija": 4372,
      "Å¡o": 4373,
      "Ġfunkcija": 4374,
      "Ġperioda": 4375,
      "meni": 4376,
      "ĠZakon": 4377,
      "ĠRadi": 4378,
      "hat": 4379,
      "Ġautori": 4380,
      "zv": 4381,
      "ĠÅ¡kol": 4382,
      "ĠÅ¡u": 4383,
      "Ġcentru": 4384,
      "Ġzbi": 4385,
      "Ġnjihovog": 4386,
      "nula": 4387,
      "Ġshvati": 4388,
      "Ġ43": 4389,
      "ĠnaÅ¡oj": 4390,
      "ĠSpe": 4391,
      "Ġvrata": 4392,
      "ĠDragan": 4393,
      "Ġsin": 4394,
      "ĠSara": 4395,
      "lak": 4396,
      "Ġkarije": 4397,
      "ĠgraÄĳevi": 4398,
      "Ġzadu": 4399,
      "ĠreÅ¡i": 4400,
      "ring": 4401,
      "Äįita": 4402,
      "Ġmobi": 4403,
      "Ġpostupka": 4404,
      "leva": 4405,
      "sh": 4406,
      "Ġsmrt": 4407,
      "Ġzla": 4408,
      "Ġpogla": 4409,
      "Ġodi": 4410,
      "ĠIZ": 4411,
      "ĠObra": 4412,
      "talija": 4413,
      "Ġtermi": 4414,
      "Ġgaran": 4415,
      "pova": 4416,
      "Ġ500": 4417,
      "ĠmoÄĩ": 4418,
      "sanja": 4419,
      "ĠNE": 4420,
      "Äĩima": 4421,
      "Ġlokalne": 4422,
      "car": 4423,
      "ĠpaÅ¾nju": 4424,
      "ĠsadrÅ¾aja": 4425,
      "Å¾nja": 4426,
      "Ġinde": 4427,
      "ĠOno": 4428,
      "Ġkup": 4429,
      "Ġnjegovom": 4430,
      "Ġzemlju": 4431,
      "Ġtekstu": 4432,
      "85": 4433,
      "Ġdrugoj": 4434,
      "ĠÅ¡ampi": 4435,
      "Ġ55": 4436,
      "Ġjula": 4437,
      "pove": 4438,
      "Ġinterak": 4439,
      "ĠEuro": 4440,
      "Ġae": 4441,
      "ĠOD": 4442,
      "noviÄĩa": 4443,
      "Ġstatus": 4444,
      "Å¾eno": 4445,
      "Ġ300": 4446,
      "Ġkomplek": 4447,
      "rijski": 4448,
      "Ġprostoru": 4449,
      "Ġjugosloven": 4450,
      "ljno": 4451,
      "lizova": 4452,
      "ĠJan": 4453,
      "Å£i": 4454,
      "Ġpropa": 4455,
      "Ã«": 4456,
      "Äİ": 4457,
      "ĠnaÄįina": 4458,
      "ad": 4459,
      "ĠÄįvr": 4460,
      "Ġ41": 4461,
      "ĠPose": 4462,
      "Ġpotpisa": 4463,
      "Ġfeno": 4464,
      "Ġinfra": 4465,
      "Ġpribli": 4466,
      "Ġkomple": 4467,
      "vaÄįa": 4468,
      "Ġpredlog": 4469,
      "Ġseku": 4470,
      "ĠodrÅ¾i": 4471,
      "Ġregula": 4472,
      "Ġstava": 4473,
      "Å¾na": 4474,
      "ĠKomi": 4475,
      "Ġaktivnost": 4476,
      "njeni": 4477,
      "ĠRusije": 4478,
      "ved": 4479,
      "Ġeksperimenta": 4480,
      "ĠNikola": 4481,
      "ĠobiÄįno": 4482,
      "Äĩoj": 4483,
      "Ġnada": 4484,
      "ĠDÅ¾": 4485,
      "Ġnjoj": 4486,
      "Ġstrukture": 4487,
      "Ġministra": 4488,
      "Da": 4489,
      "ĠtreÄĩi": 4490,
      "Ġbolji": 4491,
      "Ġjanuara": 4492,
      "har": 4493,
      "ĠnaÅ¡em": 4494,
      "vite": 4495,
      "Ġdisku": 4496,
      "ĠovlaÅ¡Äĩe": 4497,
      "ĠodreÄĳene": 4498,
      "roni": 4499,
      "Ġpotpunosti": 4500,
      "ĠÄįaso": 4501,
      "mpe": 4502,
      "ĠkoÅ¡ta": 4503,
      "ĠuÄįeÅ¡Äĩe": 4504,
      "Ġtesti": 4505,
      "nku": 4506,
      "Ġsindi": 4507,
      "Ġnjihovo": 4508,
      "ĠPoÅ¡to": 4509,
      "ĠBran": 4510,
      "cy": 4511,
      "Ġkazao": 4512,
      "ĠGor": 4513,
      "Å¡kom": 4514,
      "ĠpoveÄĩanje": 4515,
      "ĠFu": 4516,
      "vka": 4517,
      "veta": 4518,
      "Ġgovore": 4519,
      "vosti": 4520,
      "Ġusa": 4521,
      "Ġjedinstve": 4522,
      "ntima": 4523,
      "92": 4524,
      "Ġprofesor": 4525,
      "Ġaprila": 4526,
      "Ġmanife": 4527,
      "Ġkole": 4528,
      "Ġodbor": 4529,
      "ĠMetohi": 4530,
      "Ġstranka": 4531,
      "Ġpriprema": 4532,
      "godiÅ¡nji": 4533,
      "uzda": 4534,
      "Å¡tvu": 4535,
      "Ġmulti": 4536,
      "bur": 4537,
      "Ġfazi": 4538,
      "ĠKralje": 4539,
      "jka": 4540,
      "-{": 4541,
      "Ġmilijardi": 4542,
      "ĠangaÅ¾o": 4543,
      "Ġizborima": 4544,
      "ĠomoguÄĩava": 4545,
      "Å¾ene": 4546,
      "dia": 4547,
      "nema": 4548,
      "Ġnaveo": 4549,
      "JU": 4550,
      "Ġhidro": 4551,
      "Ġlan": 4552,
      "Ġdaju": 4553,
      "Ġboje": 4554,
      "Ġmoj": 4555,
      "cem": 4556,
      "laska": 4557,
      "Ġzaintere": 4558,
      "Ġpreuze": 4559,
      "rnim": 4560,
      "Ġpost": 4561,
      "Ġdodaje": 4562,
      "zaciju": 4563,
      "Ġprista": 4564,
      "Ġupravljanja": 4565,
      "Ġteritoriji": 4566,
      "ĠĠĠĠ": 4567,
      "vlada": 4568,
      "Ġovi": 4569,
      "Ġhrane": 4570,
      "Ġdode": 4571,
      "ĠMan": 4572,
      "ĠPor": 4573,
      "ĠpolitiÄįkih": 4574,
      "ĠsuÅ¡ti": 4575,
      "Ġsela": 4576,
      "100": 4577,
      "biÄįa": 4578,
      "ruka": 4579,
      "ĠpoÄįetkom": 4580,
      "Ġprojekat": 4581,
      "ĠBan": 4582,
      "ĠUpra": 4583,
      "ĠFran": 4584,
      "Ġ75": 4585,
      "org": 4586,
      "tona": 4587,
      "Ġagre": 4588,
      "Ġdecembra": 4589,
      "Ġkoeficije": 4590,
      "Äįin": 4591,
      "Ġprene": 4592,
      "Ġporeme": 4593,
      "ĠZagre": 4594,
      "ĠkoriÅ¡Äĩenje": 4595,
      "vci": 4596,
      "ou": 4597,
      "ĠdeÅ¡ava": 4598,
      "ĠopÅ¡tina": 4599,
      "Ġmnoge": 4600,
      "vljuje": 4601,
      "miÄĩ": 4602,
      "Ġznaju": 4603,
      "ĠdomaÄĩin": 4604,
      "ruje": 4605,
      "Ġpogre": 4606,
      "Ġkance": 4607,
      "Ġfirme": 4608,
      "Ġbol": 4609,
      "ograf": 4610,
      "Ġvelikih": 4611,
      "Ġslike": 4612,
      "Ġperforman": 4613,
      "98": 4614,
      "ĠTr": 4615,
      "Ġsudija": 4616,
      "ĠtaÄįno": 4617,
      "Ġpromo": 4618,
      "Ġnavode": 4619,
      "VA": 4620,
      "ĠSkupÅ¡tine": 4621,
      "Ġ2016": 4622,
      "Ġistom": 4623,
      "Ġakcije": 4624,
      "Ġpoklo": 4625,
      "Ġprera": 4626,
      "tac": 4627,
      "Ġprati": 4628,
      "Ġkojeg": 4629,
      "Ġrazlog": 4630,
      "Ġose": 4631,
      "Ġnaru": 4632,
      "Ġvoza": 4633,
      "ĠSt": 4634,
      "Ġinfrastruktu": 4635,
      "metri": 4636,
      "Ġuku": 4637,
      "Ġ65": 4638,
      "ĠAd": 4639,
      "Sa": 4640,
      "Ġseg": 4641,
      "ĠIzvo": 4642,
      "Ġzatvore": 4643,
      "fer": 4644,
      "Ġski": 4645,
      "let": 4646,
      "ĠzapoÄįe": 4647,
      "Ġkapitala": 4648,
      "Ġnesre": 4649,
      "par": 4650,
      "Ġ46": 4651,
      "Ġnepri": 4652,
      "Ġcu": 4653,
      "Ġsama": 4654,
      "Äīe": 4655,
      "Ġkrei": 4656,
      "ĠpomoÄĩu": 4657,
      "Ġkrajem": 4658,
      "Ġopisa": 4659,
      "Ġprodaje": 4660,
      "ĠÄĲorÄĳe": 4661,
      "Ġsposobnosti": 4662,
      "ĠpovrÅ¡ine": 4663,
      "Ġsupru": 4664,
      "ĠponaÅ¡anja": 4665,
      "Ġvideti": 4666,
      "tira": 4667,
      "stoja": 4668,
      "Ġmanda": 4669,
      "Ġsata": 4670,
      "stepe": 4671,
      "ĠpoÄįeo": 4672,
      "ĠCentra": 4673,
      "logiju": 4674,
      "Ġnedavno": 4675,
      "Ġnovim": 4676,
      "Ġoptere": 4677,
      "rine": 4678,
      "Ġobavez": 4679,
      "ĠdoÅ¡ao": 4680,
      "Ġostaje": 4681,
      "Pa": 4682,
      "klanja": 4683,
      "Ġdomina": 4684,
      "Ġkarakteristike": 4685,
      "ĠzemljiÅ¡ta": 4686,
      "Ġtende": 4687,
      "Ġobliku": 4688,
      "Ġsadr": 4689,
      "Ġvero": 4690,
      "ĠporeÄĳe": 4691,
      "fikacija": 4692,
      "rp": 4693,
      "Ġstoji": 4694,
      "rag": 4695,
      "Ġobzir": 4696,
      "loÅ¡ka": 4697,
      "Ġpolitiku": 4698,
      "Ġkratko": 4699,
      "tika": 4700,
      "Ġvu": 4701,
      "Ġkombina": 4702,
      "ĠRT": 4703,
      "Ġpravu": 4704,
      "95": 4705,
      "Ġvole": 4706,
      "Ġ>": 4707,
      "mente": 4708,
      "Ġpredstavlje": 4709,
      "ĠdoÄĩi": 4710,
      "Ġminima": 4711,
      "ĠsaopÅ¡tenju": 4712,
      "gledno": 4713,
      "Ġmanasti": 4714,
      "Ġuspostavlja": 4715,
      "Ġmada": 4716,
      "Ġinspe": 4717,
      "Ġdao": 4718,
      "Ġsuo": 4719,
      "ĠMisli": 4720,
      "Ġpoti": 4721,
      "Ġspek": 4722,
      "ĠDO": 4723,
      "Ġopravda": 4724,
      "ĠMitro": 4725,
      "ĠDok": 4726,
      "Ġsituacije": 4727,
      "Ġpokri": 4728,
      "Ġruke": 4729,
      "Ġpostignu": 4730,
      "ĠoÄįu": 4731,
      "ntu": 4732,
      "CA": 4733,
      "Ġtelo": 4734,
      "Ġnjene": 4735,
      "Ġvelikim": 4736,
      "Ġstalno": 4737,
      "Ġvrati": 4738,
      "Ġbrani": 4739,
      "ol": 4740,
      "Ġkontrole": 4741,
      "ĠGori": 4742,
      "Ġsaradnju": 4743,
      "............": 4744,
      "put": 4745,
      "Ġveliku": 4746,
      "konstru": 4747,
      "dnja": 4748,
      "ĠNacional": 4749,
      "ding": 4750,
      "86": 4751,
      "Ġfilma": 4752,
      "slava": 4753,
      "Ġfilozo": 4754,
      "liÅ¡e": 4755,
      "Ġunije": 4756,
      "Ġnovu": 4757,
      "Ġjavnih": 4758,
      "Ġiskustva": 4759,
      "EK": 4760,
      "Ġmeni": 4761,
      "hemi": 4762,
      "ĠSadu": 4763,
      "Ġurba": 4764,
      "Ġsastav": 4765,
      "Ġpostupa": 4766,
      "ĠGenera": 4767,
      "Ġproizvodnju": 4768,
      "Ġusko": 4769,
      "Ġizvor": 4770,
      "ĠDrugo": 4771,
      "ĠpredviÄĳa": 4772,
      "Ġsezone": 4773,
      "riÅ¡e": 4774,
      "fri": 4775,
      "Ġapsolu": 4776,
      "Ġposlednje": 4777,
      "CI": 4778,
      "Ġfakultet": 4779,
      "land": 4780,
      "Ġstepen": 4781,
      "ĠsadrÅ¾aj": 4782,
      "Ġzaslu": 4783,
      "Ġtki": 4784,
      "Ġshvata": 4785,
      "Ġeg": 4786,
      "Ġmje": 4787,
      "Ġzu": 4788,
      "mula": 4789,
      "Ġ150": 4790,
      "kin": 4791,
      "riÅ¡Äĩa": 4792,
      "Ġdrugu": 4793,
      "Ġborbe": 4794,
      "ziva": 4795,
      "luÅ¾be": 4796,
      "Ġimena": 4797,
      "del": 4798,
      "ĠNaravno": 4799,
      "Ġpremijer": 4800,
      "Ġtakve": 4801,
      "Ġobjekta": 4802,
      "bja": 4803,
      "Ġskup": 4804,
      "Ġmuze": 4805,
      "Å¡ne": 4806,
      "ĠZvez": 4807,
      "ĠnovÄįa": 4808,
      "Ġuniverzi": 4809,
      "Ġprethodno": 4810,
      "Ġpogleda": 4811,
      "rili": 4812,
      "konom": 4813,
      "tike": 4814,
      "Ġogrom": 4815,
      "Ġjedinica": 4816,
      "Ġwe": 4817,
      "ĠProce": 4818,
      "ĠHercego": 4819,
      "97": 4820,
      "govoru": 4821,
      "Ġgranice": 4822,
      "Ã²": 4823,
      "Ġodgovornost": 4824,
      "ĠtrÅ¾iÅ¡te": 4825,
      "ĠdruÅ¡tvu": 4826,
      "Ġdubo": 4827,
      "Ġpartije": 4828,
      "stova": 4829,
      "Ġustav": 4830,
      "Ġizvora": 4831,
      "loÅ¡kog": 4832,
      "Ġrezer": 4833,
      "83": 4834,
      "ĠBog": 4835,
      "Ġbibliote": 4836,
      "Ġpolici": 4837,
      "Ġkonkuren": 4838,
      "Ġpreu": 4839,
      "Ġ57": 4840,
      "Ġizazo": 4841,
      "ĠmreÅ¾a": 4842,
      "Ġprave": 4843,
      "bera": 4844,
      "Ġnikad": 4845,
      "Ġdobra": 4846,
      "Ġinstitucije": 4847,
      "Ġavi": 4848,
      "Ġmle": 4849,
      "ĠdogaÄĳaja": 4850,
      "Ġnju": 4851,
      "Ġcm": 4852,
      "Ġsl": 4853,
      "ĠDÅ¾e": 4854,
      "Ġodigra": 4855,
      "ĠPoliti": 4856,
      "ĠtraÅ¾e": 4857,
      "Ġpokraji": 4858,
      "Ġigre": 4859,
      "Ġimovi": 4860,
      "Äĳenih": 4861,
      "ĠOsta": 4862,
      "Ġnjegovu": 4863,
      "Ġkvadra": 4864,
      "ĠSvet": 4865,
      "Ġkorisni": 4866,
      "mentima": 4867,
      "Ġnastavi": 4868,
      "jsku": 4869,
      "Ġmoje": 4870,
      "Ġodvija": 4871,
      "Ġkorak": 4872,
      "Ġtest": 4873,
      "Ġkoor": 4874,
      "ĠVojvodine": 4875,
      "Ġuhap": 4876,
      "Ġpredmeta": 4877,
      "Ġadvo": 4878,
      "Ġscena": 4879,
      "hom": 4880,
      "Ġelemenata": 4881,
      "Ġsutra": 4882,
      "ÄįiÄĩa": 4883,
      "fikacije": 4884,
      "ĠÅ¡irom": 4885,
      "Ġnado": 4886,
      "Ġbanka": 4887,
      "IZ": 4888,
      "Ġdelatnosti": 4889,
      "Ġgene": 4890,
      "knu": 4891,
      "Ġprirode": 4892,
      "Ġprije": 4893,
      "Ġpremijera": 4894,
      "Ġdinami": 4895,
      "vreda": 4896,
      "ĠIzra": 4897,
      "Ġekonomske": 4898,
      "IH": 4899,
      "Mo": 4900,
      "deÄĩi": 4901,
      "lnika": 4902,
      "Ġhuma": 4903,
      "RU": 4904,
      "Me": 4905,
      "ĠSci": 4906,
      "Ġprobleme": 4907,
      "Ġovako": 4908,
      "teli": 4909,
      "Ġpotreba": 4910,
      "Ġdigita": 4911,
      "Ġdobila": 4912,
      "Ġgori": 4913,
      "Ġupla": 4914,
      "king": 4915,
      "ĠBr": 4916,
      "Ġkama": 4917,
      "ĠFor": 4918,
      "Ġpreki": 4919,
      "Ġlista": 4920,
      "Ġavgusta": 4921,
      "Ġpraksi": 4922,
      "Ġpute": 4923,
      "Re": 4924,
      "Ġgrani": 4925,
      "Ġsaradnji": 4926,
      "ĠÅ¡tampa": 4927,
      "ĠpoÄįetak": 4928,
      "ĠÄįlanovi": 4929,
      "Ġvre": 4930,
      "Ġsvetskog": 4931,
      "njene": 4932,
      "vljeni": 4933,
      "poli": 4934,
      "Ġinfe": 4935,
      "ence": 4936,
      "Ġeven": 4937,
      "ĠpodruÄįju": 4938,
      "Ġtzv": 4939,
      "Ġzad": 4940,
      "Ġsaradnje": 4941,
      "ĠtuÅ¾ila": 4942,
      "like": 4943,
      "Ġfrom": 4944,
      "ĠAm": 4945,
      "ĠpodruÄįja": 4946,
      "jevi": 4947,
      "Ġzdravlje": 4948,
      "laganje": 4949,
      "Äįica": 4950,
      "ntne": 4951,
      "Ġnaselja": 4952,
      "ĠPer": 4953,
      "Ġitalija": 4954,
      "ĠodgovarajuÄĩi": 4955,
      "seda": 4956,
      "Ġsvaku": 4957,
      "nskoj": 4958,
      "ĠnaÄĩi": 4959,
      "Ġmono": 4960,
      "ljivost": 4961,
      "Ġokre": 4962,
      "ksual": 4963,
      "Ġkorup": 4964,
      "nijim": 4965,
      "lizam": 4966,
      "Ġkrea": 4967,
      "ram": 4968,
      "Ġsoli": 4969,
      "ĠukljuÄįi": 4970,
      "Ġsprovede": 4971,
      "Ġprilago": 4972,
      "Ġnepre": 4973,
      "ĠJoÅ¡": 4974,
      "noda": 4975,
      "ĠÅłpa": 4976,
      "ĠSlove": 4977,
      "Ġraspra": 4978,
      "vencija": 4979,
      "Ġbele": 4980,
      "ĠtroÅ¡kova": 4981,
      "Ġori": 4982,
      "zad": 4983,
      "ĠhoÄĩe": 4984,
      "Ġpodu": 4985,
      "socija": 4986,
      "Äįili": 4987,
      "ĠbuduÄĩi": 4988,
      "voljan": 4989,
      "sje": 4990,
      "Ġnapla": 4991,
      "ĠgraÄĳan": 4992,
      "Ġfudbal": 4993,
      "Ġsrpskom": 4994,
      "Ġogla": 4995,
      "ĠpriÄįe": 4996,
      "Ka": 4997,
      "Ra": 4998,
      "Ġnajpo": 4999,
      "Ġvladi": 5000,
      "Ġsnagu": 5001,
      "ĠIli": 5002,
      "Ġmladih": 5003,
      "dÅ¾a": 5004,
      "ĠÄĩete": 5005,
      "ĠMarkoviÄĩ": 5006,
      "Ġac": 5007,
      "Ġreli": 5008,
      "ĠzahvaljujuÄĩi": 5009,
      "Ġrazre": 5010,
      "ĠÅłi": 5011,
      "ĠÄĮu": 5012,
      "Ġsiro": 5013,
      "Ġposlovanja": 5014,
      "Ġvanred": 5015,
      "ĠKoÅ¡tu": 5016,
      "Ġpov": 5017,
      "Ġsed": 5018,
      "Ġselek": 5019,
      "Ġizvede": 5020,
      "lep": 5021,
      "ses": 5022,
      "Ġnavo": 5023,
      "Ġuprave": 5024,
      "Ġmase": 5025,
      "zar": 5026,
      "Ġslici": 5027,
      "Ġlist": 5028,
      "Ġdiploma": 5029,
      "84": 5030,
      "Ġideo": 5031,
      "Ġvremenu": 5032,
      "Ġnemogu": 5033,
      "Äįavanje": 5034,
      "Ġnovembra": 5035,
      "njim": 5036,
      "Ġidu": 5037,
      "ĠHrvatske": 5038,
      "biÄįaje": 5039,
      "Ġom": 5040,
      "neta": 5041,
      "ĠzaÅ¡titi": 5042,
      "Ġube": 5043,
      "ĠAmerika": 5044,
      "Ġnapred": 5045,
      "Ġalterna": 5046,
      "Ġpristu": 5047,
      "Å¾em": 5048,
      "82": 5049,
      "Ġubije": 5050,
      "Ġfar": 5051,
      "Ġpojedinih": 5052,
      "Ġ51": 5053,
      "Å¡ten": 5054,
      "Ġsrpskih": 5055,
      "Ġotvori": 5056,
      "ĠnaÅ¡im": 5057,
      "ĠureÄĳe": 5058,
      "Ġsmanjenje": 5059,
      "Ġostalog": 5060,
      "Ġorije": 5061,
      "Ġatmos": 5062,
      "ĠkoÅ¡a": 5063,
      "ĠsluÄįajeva": 5064,
      "ljivosti": 5065,
      "tic": 5066,
      "stem": 5067,
      "vju": 5068,
      "%,": 5069,
      "BS": 5070,
      "Ġrok": 5071,
      "Ġ95": 5072,
      "lon": 5073,
      "ĠizloÅ¾e": 5074,
      "Ġgor": 5075,
      "bila": 5076,
      "Å¡im": 5077,
      "ĠgodiÅ¡nje": 5078,
      "rum": 5079,
      "Ġsja": 5080,
      "Ġvakci": 5081,
      "ĠUkup": 5082,
      "Äĩom": 5083,
      "dy": 5084,
      "logu": 5085,
      "rene": 5086,
      "Ġproizvodi": 5087,
      "Ġklije": 5088,
      "ĠMedi": 5089,
      "mila": 5090,
      "81": 5091,
      "De": 5092,
      "Ġceo": 5093,
      "Äĩene": 5094,
      "Ġimu": 5095,
      "cho": 5096,
      "Ġisho": 5097,
      "2009": 5098,
      "UL": 5099,
      "Ġkontrolu": 5100,
      "Ġkoncentracije": 5101,
      "vrÅ¡a": 5102,
      "Ġpredstavnici": 5103,
      "zama": 5104,
      "govi": 5105,
      "Ġsinte": 5106,
      "Ġsvemu": 5107,
      "ĠAleksandra": 5108,
      "âĢŀ": 5109,
      "bde": 5110,
      "Ġnaslo": 5111,
      "Ġmm": 5112,
      "ĠKraguje": 5113,
      "Ġkazne": 5114,
      "ĠNew": 5115,
      "ĠInterna": 5116,
      "Ġispitivanja": 5117,
      "Ġ52": 5118,
      "Ġosnovne": 5119,
      "ĠPari": 5120,
      "76": 5121,
      "janoviÄĩ": 5122,
      "Ġdobri": 5123,
      "ĠCrnoj": 5124,
      "Ġaku": 5125,
      "Ġsamog": 5126,
      "Ġzanim": 5127,
      "ĠmiÅ¡ljenje": 5128,
      "ras": 5129,
      "ĠOt": 5130,
      "tivnom": 5131,
      "Ġnaz": 5132,
      "001": 5133,
      "ĠloÅ¡e": 5134,
      "Ġkontinu": 5135,
      "Ġpravosla": 5136,
      "Å¡kih": 5137,
      "blji": 5138,
      "Ġfaktor": 5139,
      "Ġeventual": 5140,
      "Ġprimenom": 5141,
      "Ġlisti": 5142,
      "rava": 5143,
      "Ġfakulteta": 5144,
      "tel": 5145,
      "Ġzgrade": 5146,
      "mino": 5147,
      "Ġprihvata": 5148,
      "Ġbre": 5149,
      "tivnu": 5150,
      "ĠNikoliÄĩ": 5151,
      "ĠseÄĩa": 5152,
      "Ġstopa": 5153,
      "Äįaka": 5154,
      "Ġustanova": 5155,
      "ĠpodseÄĩa": 5156,
      "Ġstavlja": 5157,
      "Ġupravljanje": 5158,
      "NK": 5159,
      "cauthor": 5160,
      "ĠNova": 5161,
      "ES": 5162,
      "Ġ1998": 5163,
      "jsko": 5164,
      "ĠbuduÄĩnosti": 5165,
      "ĠPRI": 5166,
      "fina": 5167,
      "ĠSpa": 5168,
      "Ġgrupu": 5169,
      "Ã¢": 5170,
      "Ġprijatelj": 5171,
      "Ġkontekstu": 5172,
      "Ġkontra": 5173,
      "Ġukaza": 5174,
      "jam": 5175,
      "Ġpodse": 5176,
      "Ġprimenu": 5177,
      "tnost": 5178,
      "................................................": 5179,
      "Ġplanu": 5180,
      "Ġobrazovanje": 5181,
      "ĠDemokra": 5182,
      "zanje": 5183,
      "Äīa": 5184,
      "Ġorganizova": 5185,
      "Ġbezbednost": 5186,
      "Äįini": 5187,
      "vek": 5188,
      "ĠsluÄįajevima": 5189,
      "ĠznaÄįajna": 5190,
      "ĠNajve": 5191,
      "AS": 5192,
      "ĠViÅ¡e": 5193,
      "Ġprvih": 5194,
      "toma": 5195,
      "Ġ53": 5196,
      "Ġtekst": 5197,
      "ï¿½ï¿½ï¿½ï¿½ï¿½ï¿½ï¿½ï¿½": 5198,
      "naj": 5199,
      "nuli": 5200,
      "Ġtraje": 5201,
      "ria": 5202,
      "500": 5203,
      "Ġduho": 5204,
      "Ġposledice": 5205,
      "Ġtoplo": 5206,
      "Ġzajednica": 5207,
      "Ġnastavlja": 5208,
      "snom": 5209,
      "Ġsoft": 5210,
      "lov": 5211,
      "sona": 5212,
      "ĠMiro": 5213,
      "Ġsiroma": 5214,
      "Ġnauka": 5215,
      "Ġ1991": 5216,
      "}-.": 5217,
      "ziste": 5218,
      "cation": 5219,
      "Ġproceni": 5220,
      "Ġnere": 5221,
      "ĠNju": 5222,
      "zana": 5223,
      "ktoru": 5224,
      "Ġodgovornosti": 5225,
      "ĠpoÄįela": 5226,
      "ĠUstav": 5227,
      "ĠVol": 5228,
      "ljak": 5229,
      "Ġmesec": 5230,
      "Ġzaba": 5231,
      "ĠNor": 5232,
      "Ġsamom": 5233,
      "vata": 5234,
      "Ġ59": 5235,
      "ĠponaÅ¡anje": 5236,
      "Ġzapad": 5237,
      "Ġ56": 5238,
      "oca": 5239,
      "71": 5240,
      "Ġrecep": 5241,
      "Ġnaziva": 5242,
      "rol": 5243,
      "ĠRumu": 5244,
      "mar": 5245,
      "TE": 5246,
      "Ġplate": 5247,
      "Ġpartner": 5248,
      "eng": 5249,
      "nomije": 5250,
      "Ġjavne": 5251,
      "ĠBugar": 5252,
      "graf": 5253,
      "Ġslobode": 5254,
      "ĠDan": 5255,
      "ĠAp": 5256,
      "toviÄĩ": 5257,
      "Ġ54": 5258,
      "ĠistraÅ¾ivanje": 5259,
      "Ġtranzi": 5260,
      "Å£a": 5261,
      "Ġaktue": 5262,
      "ĠPove": 5263,
      "73": 5264,
      "veno": 5265,
      ".âĢľ": 5266,
      "Ġzaga": 5267,
      "Ġvrh": 5268,
      "niku": 5269,
      "Ġuloga": 5270,
      "ïģ": 5271,
      "Ġizbore": 5272,
      "Ġjednostavno": 5273,
      "cha": 5274,
      "Ġreferen": 5275,
      "Ġmor": 5276,
      "Ġjedinice": 5277,
      "Ġroditelji": 5278,
      "Å¾ivanja": 5279,
      "Ġpokazala": 5280,
      "Ġporodica": 5281,
      "Ġjavnost": 5282,
      "Ġfunkcional": 5283,
      "72": 5284,
      "ĠmeÅ¡a": 5285,
      "ĠVladimir": 5286,
      "ot": 5287,
      "Ġiskoristi": 5288,
      "Ġparametara": 5289,
      "rila": 5290,
      "ĠIN": 5291,
      "znu": 5292,
      "Ġkrvi": 5293,
      "forme": 5294,
      "ĠTreba": 5295,
      "ĠMir": 5296,
      "Ġraste": 5297,
      "mnji": 5298,
      "ĠPetroviÄĩ": 5299,
      "Ġnes": 5300,
      "vremenu": 5301,
      "Ġkoristiti": 5302,
      "Ġnao": 5303,
      "ĠSE": 5304,
      "gana": 5305,
      "ĠzapoÅ¡lja": 5306,
      "Ġusvoje": 5307,
      "Ġpriliku": 5308,
      "Ġdje": 5309,
      "Ġzele": 5310,
      "Ġnjegovih": 5311,
      "Ġsever": 5312,
      "Ġimovine": 5313,
      "Äįila": 5314,
      "Ġispi": 5315,
      "Ġprou": 5316,
      "Ġrizik": 5317,
      "politi": 5318,
      "cro": 5319,
      "Ġblizi": 5320,
      "zda": 5321,
      "Ġtip": 5322,
      "ĠMiloÅ¡eviÄĩ": 5323,
      "Ġostr": 5324,
      "Ġï£": 5325,
      "ĠznaÄįajan": 5326,
      "Ġ99": 5327,
      "Ġpromeni": 5328,
      "Ġsvima": 5329,
      "No": 5330,
      "zen": 5331,
      "tur": 5332,
      "ĠpoloÅ¾aj": 5333,
      "Ġport": 5334,
      "tle": 5335,
      "ew": 5336,
      "Ġmale": 5337,
      "vile": 5338,
      "Ġhu": 5339,
      "Ġmediji": 5340,
      "ĠSaveta": 5341,
      "nina": 5342,
      "cipli": 5343,
      "Ġzatra": 5344,
      "Ġopo": 5345,
      "74": 5346,
      "ĠIstra": 5347,
      "naka": 5348,
      ".\"": 5349,
      "Ġcenu": 5350,
      "Ġadre": 5351,
      "Ġnjim": 5352,
      "dere": 5353,
      "Ġzadatak": 5354,
      "ĠBez": 5355,
      "Ju": 5356,
      "lic": 5357,
      "ĠKan": 5358,
      "rijske": 5359,
      "Ġruku": 5360,
      "Ġpogi": 5361,
      "rovi": 5362,
      "Ġpojave": 5363,
      "Ġaktivi": 5364,
      "rama": 5365,
      "ĠkonaÄįno": 5366,
      "Ġnapusti": 5367,
      "Å¾enih": 5368,
      "teti": 5369,
      "Ġspi": 5370,
      "tam": 5371,
      "Ġ72": 5372,
      "arch": 5373,
      "Ġnjihovim": 5374,
      "sisti": 5375,
      "ĠKori": 5376,
      "Ġsrednje": 5377,
      "Ġsedni": 5378,
      "ĠKO": 5379,
      "up": 5380,
      "Ġpretpostav": 5381,
      "ĠpreÅ¾i": 5382,
      "Ġukazuju": 5383,
      "tovi": 5384,
      "Ġdiscipli": 5385,
      "STI": 5386,
      "Ñı": 5387,
      "ĠobjaÅ¡nje": 5388,
      "Ġkompozi": 5389,
      "Ġpriori": 5390,
      "Ġnovinar": 5391,
      "Ġindividual": 5392,
      "Ġspome": 5393,
      "ntna": 5394,
      "nosu": 5395,
      "Å¡ena": 5396,
      "Ġregiona": 5397,
      "Ġnjenog": 5398,
      "ĠbudÅ¾eta": 5399,
      "kovima": 5400,
      "Ġfebruara": 5401,
      "manu": 5402,
      "Ġpovu": 5403,
      "ĠÅ¡ef": 5404,
      "koho": 5405,
      "ĠBor": 5406,
      "Ġproiz": 5407,
      "Ġpoza": 5408,
      "loge": 5409,
      "Ġsekre": 5410,
      "Ni": 5411,
      "Ġdalji": 5412,
      "tice": 5413,
      "znaÄįaj": 5414,
      "ĠMaj": 5415,
      "Ġokrugu": 5416,
      "Ġpotrebna": 5417,
      "ĠTada": 5418,
      "Ġstro": 5419,
      "limpi": 5420,
      "Ġprodaju": 5421,
      "Ġboja": 5422,
      "Ġbolesnika": 5423,
      "bran": 5424,
      "Ġkakav": 5425,
      "ĠRusija": 5426,
      "sama": 5427,
      "Ġ@": 5428,
      "2011": 5429,
      "Ġfunkciju": 5430,
      "Ġintelek": 5431,
      "tosti": 5432,
      "Ġkarakteristika": 5433,
      "Å¡tava": 5434,
      "Ġosnovnih": 5435,
      "ĠâĢĻ": 5436,
      "tivu": 5437,
      "Ġprate": 5438,
      "Ġiskustvo": 5439,
      "Ġrekonstru": 5440,
      "Ġred": 5441,
      "ĠIV": 5442,
      "ĠHrvatskoj": 5443,
      "ĠUniver": 5444,
      "sing": 5445,
      "Ġnai": 5446,
      "Ġnepozna": 5447,
      "fikova": 5448,
      "Ġnukle": 5449,
      "ĠkaÅ¾em": 5450,
      "ĠporemeÄĩa": 5451,
      "ĠÄįlanica": 5452,
      "tacija": 5453,
      "Ġisklju": 5454,
      "leta": 5455,
      "ĠkoriÅ¡Äĩenja": 5456,
      "ĠÂ»": 5457,
      "Ġ58": 5458,
      "Ġrelativno": 5459,
      "Ġdevet": 5460,
      "Å¡kim": 5461,
      "dÅ¾": 5462,
      "Ġmg": 5463,
      "Ġpropi": 5464,
      "Äįinu": 5465,
      "Ġtemperature": 5466,
      "Ġ2017": 5467,
      "smi": 5468,
      "Ġ120": 5469,
      "ĠnoÄĩi": 5470,
      "Ġgi": 5471,
      "Ġglago": 5472,
      "96": 5473,
      "Ġostalo": 5474,
      "Ġsamim": 5475,
      "Ġistoriji": 5476,
      "Ġnacionalne": 5477,
      "rijar": 5478,
      "ĠPopoviÄĩ": 5479,
      "nes": 5480,
      "Ġ1996": 5481,
      "ĠKru": 5482,
      "Ġtima": 5483,
      "Ġrevolu": 5484,
      "tki": 5485,
      "cent": 5486,
      "Ġdosada": 5487,
      "ĠðĿĳ": 5488,
      "Ġgeno": 5489,
      "Ġvlasnik": 5490,
      "ĠuspeÅ¡no": 5491,
      "Ġfinansija": 5492,
      "Ġnavi": 5493,
      "Å¾nog": 5494,
      "ĠuÄįini": 5495,
      "ĠPrvo": 5496,
      "dove": 5497,
      "Ġvaspita": 5498,
      "ana": 5499,
      "desetih": 5500,
      "ĠMoÅ¾da": 5501,
      "Ġud": 5502,
      "Ġkompe": 5503,
      "Å¡nju": 5504,
      "rijama": 5505,
      "it": 5506,
      "linu": 5507,
      "sila": 5508,
      "Ġgore": 5509,
      "Ġefekat": 5510,
      "upotre": 5511,
      "ĠraÄįun": 5512,
      "Ġpravde": 5513,
      "ĠMoÅ¾e": 5514,
      "moviÄĩ": 5515,
      "Ġanalizu": 5516,
      "Ġglasnik": 5517,
      "Ġpis": 5518,
      "ĠBilo": 5519,
      "Ġprivrede": 5520,
      ".),": 5521,
      "ljenih": 5522,
      "Ġneiz": 5523,
      "ĠTran": 5524,
      "MS": 5525,
      "ĠsluÅ¡a": 5526,
      "Ġkrize": 5527,
      "Ġprete": 5528,
      "Å¡iÄĩa": 5529,
      "ĠigraÄįa": 5530,
      "Ġzanima": 5531,
      "ĠVoji": 5532,
      "2010": 5533,
      "âĢĶ": 5534,
      "novima": 5535,
      "cide": 5536,
      "Ġpridru": 5537,
      "ĠKara": 5538,
      "tnika": 5539,
      "ĠutiÄįu": 5540,
      ".).": 5541,
      "Ġpredstavnika": 5542,
      "Ġkluba": 5543,
      "KO": 5544,
      "Ġuspeh": 5545,
      "Ġfaze": 5546,
      "ĠreÄįeno": 5547,
      "Ġprekr": 5548,
      "Å¡na": 5549,
      "Ġdelom": 5550,
      "Ġocenio": 5551,
      "Ġ400": 5552,
      "ĠStan": 5553,
      "Ġsudu": 5554,
      "Ġpotpred": 5555,
      "Ġpake": 5556,
      "lizaciji": 5557,
      "Ġnajpre": 5558,
      "biÄĩ": 5559,
      "stiÄĩ": 5560,
      "Ġoptimi": 5561,
      "kako": 5562,
      "znih": 5563,
      "raca": 5564,
      "Ġsvojom": 5565,
      "Ġsvu": 5566,
      "Ġopreme": 5567,
      "Ġdodatno": 5568,
      "ĠDrago": 5569,
      "Ġuza": 5570,
      "Ġkm": 5571,
      "nizam": 5572,
      "ĠMarko": 5573,
      "Ġuskoro": 5574,
      "tero": 5575,
      "ĠmeÄĳunarodne": 5576,
      "ĠsledeÄĩi": 5577,
      "Ġvojske": 5578,
      "ĠduÅ¾e": 5579,
      "lizma": 5580,
      "toj": 5581,
      "Ġmerenja": 5582,
      "ĠveÄĩu": 5583,
      "produ": 5584,
      "Ġistorije": 5585,
      "Ġfrek": 5586,
      "ĠMaÄĳar": 5587,
      "Ġkandidata": 5588,
      "Ġkomisije": 5589,
      "ĠmuÅ¡kar": 5590,
      "ĠRepublici": 5591,
      "Å¾avanje": 5592,
      "ie": 5593,
      "Ġnez": 5594,
      "Ġteksta": 5595,
      "lovi": 5596,
      "Ġupotrebe": 5597,
      "ĠKla": 5598,
      "Ġ1997": 5599,
      "Ġsastoji": 5600,
      "Ġkana": 5601,
      "Ġideje": 5602,
      "izvo": 5603,
      "Ġgranica": 5604,
      "jer": 5605,
      "tal": 5606,
      "Ġponavlja": 5607,
      "Ġekonomski": 5608,
      "Ġpoena": 5609,
      "Ġsy": 5610,
      "Ġobezbedi": 5611,
      "Ġtvrde": 5612,
      "Ġ62": 5613,
      "Ġistog": 5614,
      "kciji": 5615,
      "Ġhipote": 5616,
      "Ġautobu": 5617,
      "ĠÄĲin": 5618,
      "Ġrobe": 5619,
      "ĠAnti": 5620,
      "93": 5621,
      "Ġopse": 5622,
      "vda": 5623,
      "lis": 5624,
      "ĠSin": 5625,
      "Ã¤": 5626,
      "ĠMislim": 5627,
      "Ġpodstica": 5628,
      "Ġupotrebu": 5629,
      "Ġdolaze": 5630,
      "Ġduga": 5631,
      "ĠMos": 5632,
      "Ġisporu": 5633,
      "hibi": 5634,
      "Ġ1995": 5635,
      "sity": 5636,
      "ĠItaliji": 5637,
      "gnosti": 5638,
      "Ġsagovor": 5639,
      "Ġizvan": 5640,
      "Ġintervju": 5641,
      "Ġnjihovu": 5642,
      "rovat": 5643,
      "ĠIvan": 5644,
      "Ġogleda": 5645,
      "Ġpreuzima": 5646,
      "ĠOve": 5647,
      "Ġzatvora": 5648,
      "Ġodgovora": 5649,
      "ĠmenadÅ¾": 5650,
      "reno": 5651,
      "Ġperspe": 5652,
      "kola": 5653,
      "Ġprvoj": 5654,
      "Ġpostala": 5655,
      "jskoj": 5656,
      "Ġnabav": 5657,
      "Ġtransforma": 5658,
      "grama": 5659,
      "vajanje": 5660,
      "Ġreleva": 5661,
      "Ġ85": 5662,
      "feri": 5663,
      "Ġstare": 5664,
      "Ġdobre": 5665,
      "Ġ64": 5666,
      "the": 5667,
      "narodni": 5668,
      "ntni": 5669,
      "zio": 5670,
      "manti": 5671,
      "Ġsubo": 5672,
      "ĠmiÅ¡ljenja": 5673,
      "Ġinformi": 5674,
      "Ġnajavio": 5675,
      "Ġstambe": 5676,
      "sani": 5677,
      "Ġnavija": 5678,
      "Ġuskla": 5679,
      "Ġmanifesta": 5680,
      "ĠNovog": 5681,
      "ĠsaÄįu": 5682,
      "Ġnaglasio": 5683,
      "ĠFon": 5684,
      "ĠgradonaÄįe": 5685,
      "Ġpostane": 5686,
      "Ġnog": 5687,
      "Ġbezbedno": 5688,
      "Ġodusta": 5689,
      "Ġonoga": 5690,
      "ĠdrugaÄįije": 5691,
      "rku": 5692,
      "Ġtakva": 5693,
      "Ġbizni": 5694,
      "ĠÅ¡eÄĩe": 5695,
      "Ġspada": 5696,
      "Ġgovor": 5697,
      "Ġmedijima": 5698,
      "stveno": 5699,
      "Ġpresto": 5700,
      "telje": 5701,
      "ĠSD": 5702,
      "au": 5703,
      "mske": 5704,
      "Ġpreo": 5705,
      "Ġklini": 5706,
      "Ġuzora": 5707,
      "Ġdro": 5708,
      "Ġkorist": 5709,
      "ĠSubo": 5710,
      "Ġodsu": 5711,
      "Ġmatri": 5712,
      "Ġzasni": 5713,
      "Ġupi": 5714,
      "ÐĮ": 5715,
      "ĠFili": 5716,
      "Å¡njoj": 5717,
      "Ġzakonoda": 5718,
      "Ġ61": 5719,
      "Ġpartija": 5720,
      "Ġtemperatura": 5721,
      "ĠDr": 5722,
      "ĠMeÄĳunarod": 5723,
      "Ġarhitektu": 5724,
      "94": 5725,
      "cka": 5726,
      "Ġkretanja": 5727,
      "nis": 5728,
      "Ġprilika": 5729,
      "2008": 5730,
      "ntan": 5731,
      "Ġposloda": 5732,
      "ljava": 5733,
      "ĠtaÄįka": 5734,
      "ĠStefa": 5735,
      "Ġbolni": 5736,
      "Ġsituaciji": 5737,
      "tela": 5738,
      "Å¾uje": 5739,
      "Ġuto": 5740,
      "ĠvaÅ¡e": 5741,
      "Ġradnog": 5742,
      "gura": 5743,
      "Ve": 5744,
      "VI": 5745,
      "Ġpritisak": 5746,
      "Ġqu": 5747,
      "Ġlinija": 5748,
      "Ġratu": 5749,
      "Ġstvori": 5750,
      "Ġinova": 5751,
      "Ġsigur": 5752,
      "ih": 5753,
      "Ġ63": 5754,
      "Ġmatemati": 5755,
      "Å¾iÄĩ": 5756,
      "Ġsituaciju": 5757,
      "tost": 5758,
      "ĠÄįesti": 5759,
      "ĠJugoslavi": 5760,
      "Ġpub": 5761,
      "ĠjaÄįa": 5762,
      "Ġsor": 5763,
      "ĠInternational": 5764,
      "ĠdrÅ¾avni": 5765,
      "Å¾enju": 5766,
      "Ġsame": 5767,
      "kvat": 5768,
      "Å¡njim": 5769,
      "Ġfoku": 5770,
      "TU": 5771,
      "Ġmaso": 5772,
      "ĠDuna": 5773,
      "Ġbave": 5774,
      "ĠïĢŃ": 5775,
      "Ġavio": 5776,
      "ĠdoÅ¾ivlja": 5777,
      "ljaka": 5778,
      "ĠÄī": 5779,
      "ĠEurope": 5780,
      "Ġuprkos": 5781,
      "Ġpovla": 5782,
      "Ġplu": 5783,
      "Ġupa": 5784,
      "Ġkur": 5785,
      "ĠpreduzeÄĩe": 5786,
      "Ġosiguranja": 5787,
      "cts": 5788,
      "Ġrecimo": 5789,
      "Ġsporazuma": 5790,
      "Ġostalim": 5791,
      "ĠnaÅ¡u": 5792,
      "ljka": 5793,
      "Ġspolja": 5794,
      "2012": 5795,
      "ĠÄĲo": 5796,
      "Ġcrnogor": 5797,
      "ĠznaÄįajne": 5798,
      "Ġ,,": 5799,
      "ĠpraktiÄįno": 5800,
      "ĠAust": 5801,
      "ĠÅ¡kolu": 5802,
      "Ġmala": 5803,
      "Ġautomobila": 5804,
      "Å¡ni": 5805,
      "Ġber": 5806,
      "ĠÄĲinÄĳi": 5807,
      "ĠJedna": 5808,
      "Ã¶": 5809,
      "Ġprojekto": 5810,
      "OP": 5811,
      "Ġpokazali": 5812,
      "Ġljudskih": 5813,
      "lati": 5814,
      "Ġrezo": 5815,
      "Ġprosve": 5816,
      "Ġinsta": 5817,
      "ĠTadiÄĩ": 5818,
      "Ġtitu": 5819,
      "Ġimple": 5820,
      "lera": 5821,
      "Ġdeteta": 5822,
      "ĠlakÅ¡e": 5823,
      "Ġnajvi": 5824,
      "ang": 5825,
      "Ġulici": 5826,
      "ĠÅ¡ampiona": 5827,
      "Ġdoprine": 5828,
      "Ġintereso": 5829,
      "Ġplana": 5830,
      "Ġnovom": 5831,
      "Ġporeza": 5832,
      "Ġkupi": 5833,
      "Î½": 5834,
      "ĠdoÄįe": 5835,
      "ĠKoliko": 5836,
      "ĠHr": 5837,
      "zin": 5838,
      "ĠStru": 5839,
      "Ġotac": 5840,
      "Ġkine": 5841,
      "III": 5842,
      "Ġmir": 5843,
      "ĠUdru": 5844,
      "dovolj": 5845,
      "Ġdoktor": 5846,
      "''": 5847,
      "njenje": 5848,
      "Ġneuro": 5849,
      "teh": 5850,
      "Ġolak": 5851,
      "Ġoblast": 5852,
      "tskim": 5853,
      "moÄĩ": 5854,
      "ĠEx": 5855,
      "Ġsimp": 5856,
      "search": 5857,
      "Ġvelikom": 5858,
      "Ġizgradnju": 5859,
      "Ġpravosu": 5860,
      "ĠRA": 5861,
      "ĠSlobodan": 5862,
      "Ġnaju": 5863,
      "Te": 5864,
      "ĠÄĩelije": 5865,
      "Ġsprovodi": 5866,
      "ĠÅ¡uma": 5867,
      "Ġtehnologija": 5868,
      "snoj": 5869,
      "nder": 5870,
      "Ġnjihovom": 5871,
      "Ġpravcu": 5872,
      "Ġsporazum": 5873,
      "ĠOdlu": 5874,
      "Ġzapre": 5875,
      "Ġevropske": 5876,
      "Å¡lo": 5877,
      "con": 5878,
      "ĠWe": 5879,
      "proda": 5880,
      "Ġtona": 5881,
      "Ġprofeso": 5882,
      "Ġbitno": 5883,
      "sobno": 5884,
      "Ġobole": 5885,
      "Ġprimi": 5886,
      "siste": 5887,
      "Ġtala": 5888,
      "Ġaplika": 5889,
      "gore": 5890,
      "ĠMihaj": 5891,
      "UD": 5892,
      "ĠdoÅ¡li": 5893,
      "ĠGrafi": 5894,
      "ral": 5895,
      "Ġkonferenciji": 5896,
      "Ġimam": 5897,
      "ĠGora": 5898,
      "jkoviÄĩ": 5899,
      "Äįavaju": 5900,
      "ncije": 5901,
      "Ġospo": 5902,
      "Ġimate": 5903,
      "ĠMon": 5904,
      "Ġuzoraka": 5905,
      "ĠdrÅ¾avlja": 5906,
      "tite": 5907,
      "ĠÅ¾ivotinja": 5908,
      "Ġborbi": 5909,
      "Ġrazno": 5910,
      "Ġsen": 5911,
      "tanje": 5912,
      "Ġthat": 5913,
      "ide": 5914,
      "Ġproizvode": 5915,
      "Ġkancela": 5916,
      "Ġagencija": 5917,
      "Ġzloupotre": 5918,
      "Ġvita": 5919,
      "Ġosnova": 5920,
      "ak": 5921,
      "njug": 5922,
      "Ġnikak": 5923,
      "Äīi": 5924,
      "njava": 5925,
      "liÄĩa": 5926,
      "Ġekspre": 5927,
      "ida": 5928,
      "Ġobraz": 5929,
      "Ġilu": 5930,
      "grada": 5931,
      "miÄįno": 5932,
      "noma": 5933,
      "ĠBel": 5934,
      "Ġsnabde": 5935,
      "ĠPoruka": 5936,
      "Ġargu": 5937,
      "Ġ66": 5938,
      "hodno": 5939,
      "vljeviÄĩ": 5940,
      "Ġ2020": 5941,
      "Ġblizini": 5942,
      "ĠveliÄįine": 5943,
      "ĠÅ¡koli": 5944,
      "znog": 5945,
      "Ġnjena": 5946,
      "pta": 5947,
      "Ġsektora": 5948,
      "Si": 5949,
      "Ġsocijalne": 5950,
      "Ġmoramo": 5951,
      "tnoj": 5952,
      "ling": 5953,
      "Ġ67": 5954,
      "slika": 5955,
      "ĠmenadÅ¾e": 5956,
      "Ġpak": 5957,
      "Ġnastave": 5958,
      "zanja": 5959,
      "Ġ1990": 5960,
      "ĠTeo": 5961,
      "ĠDSS": 5962,
      "91": 5963,
      "Ġuspeo": 5964,
      "Ġuzra": 5965,
      "Ġmodi": 5966,
      "Ġvazduha": 5967,
      "***": 5968,
      "Ġodgovori": 5969,
      "Ġpostojanje": 5970,
      "krimina": 5971,
      "Å¡koj": 5972,
      "Å¾im": 5973,
      "ĠKine": 5974,
      "Ġoset": 5975,
      "ĠpoÅ¡tu": 5976,
      "ĠsliÄįno": 5977,
      "Ġvezu": 5978,
      "ĠUniverziteta": 5979,
      "Ġsile": 5980,
      "Ġtehnologije": 5981,
      "Ġanaliti": 5982,
      "Ġnasilja": 5983,
      "ï¿½ï¿½ï¿½": 5984,
      "Ġovoga": 5985,
      "Ġostao": 5986,
      "Ġsele": 5987,
      "timo": 5988,
      "ĠpodrÅ¡ke": 5989,
      "jko": 5990,
      "Bo": 5991,
      "Ġizbegli": 5992,
      "Ġreke": 5993,
      "Ġalkoho": 5994,
      "Äįuju": 5995,
      "Ġznak": 5996,
      "ml": 5997,
      "Ġorganizaciji": 5998,
      "Ġodabra": 5999,
      "Ġusvoji": 6000,
      "Ġ68": 6001,
      "vilo": 6002,
      "Ġklub": 6003,
      "2013": 6004,
      "ĠOba": 6005,
      "Ġ{": 6006,
      "Ġkora": 6007,
      "Ġstranih": 6008,
      "Ġtelefon": 6009,
      "nogra": 6010,
      "Ġpregled": 6011,
      "Ġkarti": 6012,
      "vredu": 6013,
      "ĠIde": 6014,
      "noÄĩ": 6015,
      "Ġprijatelji": 6016,
      "Ġ00": 6017,
      "Ġsnim": 6018,
      "Ġpouzda": 6019,
      "kne": 6020,
      "biti": 6021,
      "ranog": 6022,
      "Ġ--": 6023,
      "Ġkontinui": 6024,
      "Ġponi": 6025,
      "ĠMladi": 6026,
      "ĠAs": 6027,
      "ĠVer": 6028,
      "Ġseksual": 6029,
      "vske": 6030,
      "ĠgraÄĳanima": 6031,
      "Ġvrstu": 6032,
      "Ġnastupa": 6033,
      "lla": 6034,
      "Ġnapisa": 6035,
      "Ġpredme": 6036,
      "Ġinvali": 6037,
      "Ġ1992": 6038,
      "ljivih": 6039,
      "Ġpolica": 6040,
      "ctive": 6041,
      "jnih": 6042,
      "Ġkilometara": 6043,
      "Ġpolju": 6044,
      "Ġzavr": 6045,
      "ĠuobiÄįaje": 6046,
      "rur": 6047,
      "Ġnastu": 6048,
      "Ġkonkurent": 6049,
      "Â²": 6050,
      "df": 6051,
      "ĠÄįinjenice": 6052,
      "Ġmoja": 6053,
      "Ġreakcije": 6054,
      "Ġstri": 6055,
      "ii": 6056,
      "Ġdvoji": 6057,
      "Ġtvrd": 6058,
      "ĠSever": 6059,
      "Ġiznos": 6060,
      "ĠHar": 6061,
      "piju": 6062,
      "Pe": 6063,
      "ticaj": 6064,
      "ĠPoÄįe": 6065,
      "ĠSko": 6066,
      "ÄĬe": 6067,
      "Ġrezultatima": 6068,
      "Ba": 6069,
      "TI": 6070,
      "ÑĮ": 6071,
      "Ġulja": 6072,
      "ĠRan": 6073,
      "Ġflu": 6074,
      "ĠCu": 6075,
      "Ġpoznat": 6076,
      "ĠveÅ¡ta": 6077,
      "Ġostane": 6078,
      "Ġzo": 6079,
      "ĠSme": 6080,
      "ĠbuduÄĩnost": 6081,
      "ĠDA": 6082,
      "mum": 6083,
      "Ġevropskih": 6084,
      "Ġsumnje": 6085,
      "ĠPoli": 6086,
      "Ġizbori": 6087,
      "Ġukra": 6088,
      "%.": 6089,
      "Ġobvez": 6090,
      "Ġneod": 6091,
      "Ġstariji": 6092,
      "Ġdug": 6093,
      "ĠPR": 6094,
      "nlm": 6095,
      "Ġkupu": 6096,
      "Pro": 6097,
      "EZ": 6098,
      "EC": 6099,
      "Ġznamo": 6100,
      "],": 6101,
      "Ġposred": 6102,
      "Ġnapad": 6103,
      "ĠdruÅ¡tvene": 6104,
      "ncbi": 6105,
      "Å¾avaju": 6106,
      "ĠpokuÅ¡ava": 6107,
      "Ġseve": 6108,
      "ltra": 6109,
      "Ġpolja": 6110,
      "elek": 6111,
      "Ġdelova": 6112,
      "Ġagencije": 6113,
      "Ġsavet": 6114,
      "ĠvaÅ¾i": 6115,
      "ĠMogu": 6116,
      "ranjem": 6117,
      "ĠdrÅ¾avu": 6118,
      "Ġonima": 6119,
      "Ġroditelja": 6120,
      "koj": 6121,
      "noÅ¡Äĩu": 6122,
      "Å¡ing": 6123,
      "tama": 6124,
      "Ġciljeva": 6125,
      "Ġkredita": 6126,
      "ĠGre": 6127,
      "Ġsobom": 6128,
      "tali": 6129,
      "Ġstepena": 6130,
      "ĠCar": 6131,
      "Ġ(âĢŀ": 6132,
      "ĠJedi": 6133,
      "Ġsni": 6134,
      "Ġostala": 6135,
      "Ġprevazi": 6136,
      "ĠpoÅ¾a": 6137,
      "Å¡eni": 6138,
      "diju": 6139,
      "ĠGro": 6140,
      "Ġindika": 6141,
      "ĠSred": 6142,
      "ĠtaÄįke": 6143,
      "Ġrastu": 6144,
      "Ġdetalj": 6145,
      "laÅ¾u": 6146,
      "ĠâĢ¦": 6147,
      "Ġlegi": 6148,
      "ĠkoliÄįine": 6149,
      "Ġpoznato": 6150,
      "Ġstandarda": 6151,
      "Ġprihoda": 6152,
      "Ġpreosta": 6153,
      "Ġponekad": 6154,
      "Å¾avanja": 6155,
      "Ġjednim": 6156,
      "ĠdrÅ¾avnih": 6157,
      "vljuju": 6158,
      "==": 6159,
      "Äįnika": 6160,
      "ĠÅ¾al": 6161,
      "Ġ000": 6162,
      "ĠAP": 6163,
      "Ġvrije": 6164,
      "Ġcelu": 6165,
      "Ġtabeli": 6166,
      "Ġterenu": 6167,
      "ĠEngle": 6168,
      "vajcar": 6169,
      "Ġlinije": 6170,
      "leksi": 6171,
      "dovima": 6172,
      "Ġsekretar": 6173,
      "ĠproÅ¡lo": 6174,
      "Ġrazgovora": 6175,
      "Ġnudi": 6176,
      "Ġvizu": 6177,
      "ĠZaÅ¡to": 6178,
      "ĠJovan": 6179,
      "Ġturni": 6180,
      "Ġzvezda": 6181,
      "Ġutakmice": 6182,
      "Ġmeda": 6183,
      "ĠNu": 6184,
      "Ġnaciona": 6185,
      "Ġnaziv": 6186,
      "Ġlider": 6187,
      "Ġstvarno": 6188,
      "ljan": 6189,
      "ĠliÄįno": 6190,
      "Ġmno": 6191,
      "hija": 6192,
      "Äįnije": 6193,
      "Ġporek": 6194,
      "rizo": 6195,
      "ĠproÅ¡losti": 6196,
      "ĠMiloÅ¡": 6197,
      "Ġnapisao": 6198,
      "Ġprikuplja": 6199,
      "ĠhriÅ¡Äĩa": 6200,
      "Ġkomer": 6201,
      "Ġveku": 6202,
      "Ġselu": 6203,
      "ĠodreÄĳeni": 6204,
      "Ġsila": 6205,
      "ĠMnog": 6206,
      "Ġprole": 6207,
      "ĠLaza": 6208,
      "ĠÄįelu": 6209,
      "Ġprojekata": 6210,
      "Ġproblemi": 6211,
      "ĠkriviÄįnog": 6212,
      "spi": 6213,
      "Äĩeva": 6214,
      "Ġkoordina": 6215,
      "ĠBrise": 6216,
      "ĠMarija": 6217,
      "Å¾alost": 6218,
      "Ġneposredno": 6219,
      "Ġ2018": 6220,
      "Ġskladi": 6221,
      "Ġmenta": 6222,
      "ĠizveÅ¡taj": 6223,
      "Ġborbu": 6224,
      "Ġdeluje": 6225,
      "Ġuvi": 6226,
      "Ġproteina": 6227,
      "Ġsekreta": 6228,
      "Äĩina": 6229,
      "Ġbespla": 6230,
      "ljana": 6231,
      "Ġ69": 6232,
      "Ġ73": 6233,
      "Ġodnosima": 6234,
      "ĠNOV": 6235,
      "Ġmaterijal": 6236,
      "ĠSy": 6237,
      "pubmed": 6238,
      "Ġteritorija": 6239,
      "Ġsagleda": 6240,
      "Ġgradi": 6241,
      "Ġceni": 6242,
      "miÅ¡lje": 6243,
      "lum": 6244,
      "ĠÄĳa": 6245,
      "ĠSaraje": 6246,
      "Ġaerod": 6247,
      "Å¾nih": 6248,
      "SL": 6249,
      "Ġstudenata": 6250,
      "Ġprogramu": 6251,
      "stoj": 6252,
      "Ġâī": 6253,
      "Ġusme": 6254,
      "loÅ¡kim": 6255,
      "Ġvoli": 6256,
      "ĠEr": 6257,
      "puÅ¡te": 6258,
      "Ġpromen": 6259,
      "Ġhomo": 6260,
      "Ġkorona": 6261,
      "AJ": 6262,
      "sy": 6263,
      "Ġtakoz": 6264,
      "IP": 6265,
      "Ġulaz": 6266,
      "Ġuzorka": 6267,
      "Bi": 6268,
      "Ġgol": 6269,
      "Ġdevi": 6270,
      "Ġokon": 6271,
      "Å¡avanja": 6272,
      "ĠkriviÄįno": 6273,
      "Je": 6274,
      "Ġpojava": 6275,
      "sorp": 6276,
      "fan": 6277,
      "tici": 6278,
      "Ġljubavi": 6279,
      "Ġpapi": 6280,
      "Ġciljem": 6281,
      "Ġmnogim": 6282,
      "Ġpovrede": 6283,
      "ĠzavrÅ¡": 6284,
      "Ġopsta": 6285,
      "ĠZapa": 6286,
      "Ġzra": 6287,
      "Ġulazi": 6288,
      "Ġbiste": 6289,
      "rnom": 6290,
      "Ġpartne": 6291,
      "Ġposlednji": 6292,
      "Å¾bu": 6293,
      "ĠGoran": 6294,
      "2014": 6295,
      "Ġpokazao": 6296,
      "Ġpopisu": 6297,
      "term": 6298,
      "Ġvladaju": 6299,
      "Ġpare": 6300,
      "Ġnepro": 6301,
      "ĠItalija": 6302,
      "peri": 6303,
      "Ġleta": 6304,
      "Â«": 6305,
      "lana": 6306,
      "Ġporodici": 6307,
      "Ġpritiska": 6308,
      "ĠTro": 6309,
      "Ġljubav": 6310,
      "ĠÂµ": 6311,
      "Ġinteresu": 6312,
      "tore": 6313,
      "Ġmodu": 6314,
      "ght": 6315,
      "Ġstrada": 6316,
      "ĠDin": 6317,
      "ĠVeÄĩ": 6318,
      "Ġjavni": 6319,
      "luÅ¾beni": 6320,
      "ĠPara": 6321,
      "Ġenzi": 6322,
      "plici": 6323,
      "ĠpovrÅ¡ina": 6324,
      "Ġkapaciteta": 6325,
      "binu": 6326,
      "Å¡ih": 6327,
      "RS": 6328,
      "ĠKova": 6329,
      "lle": 6330,
      "Äįice": 6331,
      "ĠznaÄįenja": 6332,
      "Ġnei": 6333,
      "Ja": 6334,
      "ĠOrganiza": 6335,
      "ĠMUP": 6336,
      "Ġimalo": 6337,
      "ĠDoda": 6338,
      "ĠRepublika": 6339,
      "dju": 6340,
      "Do": 6341,
      "ĠodrÅ¾avanje": 6342,
      "jor": 6343,
      "Ġperspekti": 6344,
      "Ġobno": 6345,
      "Ġmajka": 6346,
      "US": 6347,
      "Ġintelektual": 6348,
      "Ġsvoja": 6349,
      "dilo": 6350,
      "nulo": 6351,
      "Ġedu": 6352,
      "vljene": 6353,
      "Ġposlanika": 6354,
      "ĠNeki": 6355,
      "Ġplus": 6356,
      "ĠSli": 6357,
      "dora": 6358,
      "Å¡koviÄĩ": 6359,
      "Ġmom": 6360,
      "Å¡io": 6361,
      "ĠNarodne": 6362,
      "can": 6363,
      "Ġtemu": 6364,
      "ctor": 6365,
      "ljom": 6366,
      "nite": 6367,
      "ĠAutor": 6368,
      "Ġonog": 6369,
      "Ġnedelju": 6370,
      "ĠtuÅ¾io": 6371,
      "Ġran": 6372,
      "Ġvidim": 6373,
      "Ġsposobnost": 6374,
      "loÅ¾i": 6375,
      "skop": 6376,
      "ĠpojaÄįa": 6377,
      "ters": 6378,
      "Ġnauke": 6379,
      "Ġnjegovoj": 6380,
      "Ġjeze": 6381,
      "Ġ+/": 6382,
      "Ġmasa": 6383,
      "Ġkoncentracija": 6384,
      "Å¡kol": 6385,
      "Ġ77": 6386,
      "Î¿": 6387,
      "Ġresto": 6388,
      "ĠAN": 6389,
      "Ġbaze": 6390,
      "Ġneve": 6391,
      "Ġakciona": 6392,
      "Ġpobu": 6393,
      "Ġresursa": 6394,
      "ĠNaslov": 6395,
      "Ġ71": 6396,
      "Ġinternet": 6397,
      "Ġpomogne": 6398,
      "Ġklima": 6399,
      "Ġstruje": 6400,
      "Ġvodu": 6401,
      "port": 6402,
      "part": 6403,
      "Ġprocene": 6404,
      "Ãª": 6405,
      "OK": 6406,
      "Ġveruje": 6407,
      "pravi": 6408,
      "Ġpija": 6409,
      "Ġfaza": 6410,
      "Ġrukovod": 6411,
      "Ġvelikoj": 6412,
      "Ġprihva": 6413,
      "Ġglasova": 6414,
      "To": 6415,
      "ĠpoveÄĩava": 6416,
      "AP": 6417,
      "Ġbru": 6418,
      "nse": 6419,
      "ĠzloÄįina": 6420,
      "Å¡eviÄĩ": 6421,
      "doviÄĩ": 6422,
      "oci": 6423,
      "ĠpriliÄįno": 6424,
      "Ġvalu": 6425,
      "ĠPD": 6426,
      "Å¾ivanje": 6427,
      "Ġzasta": 6428,
      "Ġpesme": 6429,
      "Ġobjavio": 6430,
      "ĠtroÅ¡kove": 6431,
      "mica": 6432,
      "ĠizraÄįuna": 6433,
      "ĠSF": 6434,
      "Ġinhibi": 6435,
      "metra": 6436,
      "Ġote": 6437,
      "Ġnezaposle": 6438,
      "Ġredite": 6439,
      "Ġfunkciji": 6440,
      "kinja": 6441,
      "ĠÅ£": 6442,
      "gove": 6443,
      "ĠÎ±": 6444,
      "Ġmorao": 6445,
      "ĠMora": 6446,
      "ĠdÅ¾e": 6447,
      "Ġetni": 6448,
      "Äįenih": 6449,
      "Ġdugoro": 6450,
      "Ġpodnosi": 6451,
      "Äįo": 6452,
      "ĠÅ¡ire": 6453,
      "Ġtribu": 6454,
      "Ġzao": 6455,
      "ntnih": 6456,
      "Å¡enju": 6457,
      "ĠPress": 6458,
      "ĠOvi": 6459,
      "Ġradnici": 6460,
      "Äĩuju": 6461,
      "Ġ74": 6462,
      "Ġkomercija": 6463,
      "Å¡eno": 6464,
      "Ġ''": 6465,
      "Ġosnovni": 6466,
      "Ġprednost": 6467,
      "Ġspra": 6468,
      "ĠTele": 6469,
      "jE": 6470,
      "ĠoÄįigledno": 6471,
      "Ġukupnog": 6472,
      "Ġalbu": 6473,
      "Ġinterpre": 6474,
      "Ġstranu": 6475,
      "Ġï¿½ï¿½ï¿½": 6476,
      "ĠskupÅ¡tine": 6477,
      "Ġporekla": 6478,
      "Ġdeci": 6479,
      "ĠknjiÅ¾evnosti": 6480,
      "Ġminera": 6481,
      "Ġgrafi": 6482,
      "Ġskri": 6483,
      "Ġkategorije": 6484,
      "povi": 6485,
      "Ġkonzu": 6486,
      "Ġtrgovi": 6487,
      "rata": 6488,
      "Ġstrategije": 6489,
      "Ġinsisti": 6490,
      "Ġutisak": 6491,
      "Ġ101": 6492,
      "OT": 6493,
      "Ġkosov": 6494,
      "vanog": 6495,
      "blo": 6496,
      "ĠnadleÅ¾nosti": 6497,
      "Ġlicu": 6498,
      "Ġhap": 6499,
      "Äįnici": 6500,
      "vskog": 6501,
      "ĠKom": 6502,
      "Ġsastavu": 6503,
      "rijskih": 6504,
      "ĠIzvor": 6505,
      "Ġmoze": 6506,
      "kan": 6507,
      "Ġ78": 6508,
      "amp": 6509,
      "ranu": 6510,
      "ĠJedno": 6511,
      "voren": 6512,
      "Ġjesu": 6513,
      "Ġvalja": 6514,
      "bje": 6515,
      "tus": 6516,
      "Ġreago": 6517,
      "Ġsrpska": 6518,
      "Ġkolega": 6519,
      "Ġpoznati": 6520,
      "Ġfirma": 6521,
      "ĠNiÅ¡u": 6522,
      "Ġkultura": 6523,
      "jeve": 6524,
      "ĠOk": 6525,
      "ĠZorana": 6526,
      "Ġnavodno": 6527,
      "ĠDuÅ¡an": 6528,
      "ĠudruÅ¾enja": 6529,
      "Ġdepo": 6530,
      "Ġzove": 6531,
      "INA": 6532,
      "Ġref": 6533,
      "ĠpredloÅ¾e": 6534,
      "ĠMihai": 6535,
      "Ġoprede": 6536,
      "Ġ250": 6537,
      "borato": 6538,
      "Ġ1994": 6539,
      "ĠVreme": 6540,
      "Ġprimena": 6541,
      "ĠduÅ¾nosti": 6542,
      "Ġnovinare": 6543,
      "SO": 6544,
      "his": 6545,
      "liju": 6546,
      "Ġdokaz": 6547,
      "Ġtesta": 6548,
      "mice": 6549,
      "Ġputovanja": 6550,
      "Ġnjihovi": 6551,
      "Ġcelokup": 6552,
      "ĠOvde": 6553,
      "des": 6554,
      "ĠproÅ¡log": 6555,
      "Ġindustrije": 6556,
      "gene": 6557,
      "tove": 6558,
      "ĠsluÅ¾bi": 6559,
      "Ġupozo": 6560,
      "voru": 6561,
      "Ġosiguranje": 6562,
      "ĠbivÅ¡e": 6563,
      "ĠuÄįenja": 6564,
      "ĠameriÄįki": 6565,
      "ĠUme": 6566,
      "Ġjednako": 6567,
      "metar": 6568,
      "Ġ~": 6569,
      "Ġkne": 6570,
      "Ġpregovara": 6571,
      "Ġmestima": 6572,
      "ĠStoga": 6573,
      "stog": 6574,
      "Ġgasa": 6575,
      "Ġvisoke": 6576,
      "Ġlet": 6577,
      "Ġ76": 6578,
      "Ġuvede": 6579,
      "sr": 6580,
      "Ġmin": 6581,
      "ĠpH": 6582,
      "ĠÄĮak": 6583,
      "ljub": 6584,
      "Ġpatrijar": 6585,
      "ĠIliÄĩ": 6586,
      "Ġfirmi": 6587,
      "ĠproÄįita": 6588,
      "ĠNeboj": 6589,
      "Ġgosti": 6590,
      "ht": 6591,
      "Ġrukovodi": 6592,
      "ĠsaobraÄĩaja": 6593,
      "Ġish": 6594,
      "Vi": 6595,
      "ssion": 6596,
      "lista": 6597,
      "sin": 6598,
      "ĠSNS": 6599,
      "Ġupisa": 6600,
      "Ġalgori": 6601,
      "Ġstvaranje": 6602,
      "gani": 6603,
      "Ġmemo": 6604,
      "ĠChe": 6605,
      "ĠMile": 6606,
      "Ġizre": 6607,
      "ĠpovreÄĳe": 6608,
      "Ġnano": 6609,
      "Ġtrgovine": 6610,
      "ĠZaje": 6611,
      "fti": 6612,
      "Ġuma": 6613,
      "Ġjavnom": 6614,
      "riÅ¡u": 6615,
      "ĠVeliko": 6616,
      "Ġsocio": 6617,
      "ĠPot": 6618,
      "stroje": 6619,
      "ĠdruÅ¡tvenih": 6620,
      "Ġmilion": 6621,
      "Ġgluma": 6622,
      "Ġzaposleni": 6623,
      "Ġsmanjuje": 6624,
      "lia": 6625,
      "mr": 6626,
      "imna": 6627,
      "In": 6628,
      "Ġciklu": 6629,
      "ĠReÄį": 6630,
      "MEN": 6631,
      "Ġznanje": 6632,
      "more": 6633,
      "RAN": 6634,
      "ĠUniversity": 6635,
      "Å¡tima": 6636,
      "Ġevide": 6637,
      "zme": 6638,
      "fal": 6639,
      "Ġomladi": 6640,
      "ĠNemaÄįkoj": 6641,
      "ĠmiÅ¡ljenju": 6642,
      "logiji": 6643,
      "ĠunutraÅ¡njih": 6644,
      "MP": 6645,
      "nut": 6646,
      "Ġnjegovi": 6647,
      "ĠÅ¡iri": 6648,
      "Ġdemon": 6649,
      "jk": 6650,
      "taciju": 6651,
      "Ġreferendu": 6652,
      "Ġstana": 6653,
      "nitar": 6654,
      "Ġpoziv": 6655,
      "et": 6656,
      "vimo": 6657,
      "Ġsukoba": 6658,
      "ĠpriÄįu": 6659,
      "Ġhor": 6660,
      "Ġrekli": 6661,
      "Ġ(\"": 6662,
      "Ġpeva": 6663,
      "Ġistori": 6664,
      "Ġhttps": 6665,
      "bova": 6666,
      "Ġpublika": 6667,
      "lizuje": 6668,
      "ges": 6669,
      "Ġprocenat": 6670,
      "OVIÄĨ": 6671,
      "Ġsledi": 6672,
      "Ġdelega": 6673,
      "Ġnikako": 6674,
      "Ġsina": 6675,
      "Ġperi": 6676,
      "Ġsk": 6677,
      "ĠTek": 6678,
      "ĠMili": 6679,
      "ĠEvropska": 6680,
      "ĠnajveÄĩe": 6681,
      "ĠVred": 6682,
      "Ġkomunikacije": 6683,
      "Ġprosla": 6684,
      "govorima": 6685,
      "ĠRusiji": 6686,
      "Ġpogled": 6687,
      "ĠPrva": 6688,
      "ĠCrna": 6689,
      "Ġsuve": 6690,
      "ĠFakul": 6691,
      "Ġekonomije": 6692,
      "ïĤ": 6693,
      "ĠSV": 6694,
      "Ġkakve": 6695,
      "Ġvec": 6696,
      "cionim": 6697,
      "ĠuveÄĩa": 6698,
      "ĠVaÅ¡ing": 6699,
      "ĠpolitiÄįka": 6700,
      "Ġautoma": 6701,
      "Ã¬": 6702,
      "vici": 6703,
      "Ġ84": 6704,
      "Ġopora": 6705,
      "ff": 6706,
      "Ġimi": 6707,
      "ĠnajznaÄįaj": 6708,
      "Ġpremi": 6709,
      "Ġvojne": 6710,
      "Ġpad": 6711,
      "Ġdoprinos": 6712,
      "CE": 6713,
      "ĠdomaÄĩe": 6714,
      "ĠUjedinje": 6715,
      "Ġprakse": 6716,
      "ĠÅ¡tete": 6717,
      "zervi": 6718,
      "GA": 6719,
      "Ġljudska": 6720,
      "Ġnazivom": 6721,
      "Ġmanja": 6722,
      "SKA": 6723,
      "Ġ87": 6724,
      "spa": 6725,
      "tskom": 6726,
      "Ġnarednih": 6727,
      "ĠnaÄĳe": 6728,
      "ĠkreÄĩe": 6729,
      "Ġteorije": 6730,
      "ard": 6731,
      "ĠodreÄĳuje": 6732,
      "Ġnuklear": 6733,
      "Ġambasa": 6734,
      "ĠInaÄįe": 6735,
      "ĠnoÄĩ": 6736,
      "Ġprelazi": 6737,
      "gna": 6738,
      "Ġmalih": 6739,
      "Ġmusli": 6740,
      "Ġslabo": 6741,
      "Ġlokali": 6742,
      "Ġnpr": 6743,
      "ĠodreÄĳenih": 6744,
      "Ġkralje": 6745,
      "leo": 6746,
      "ĠNji": 6747,
      "js": 6748,
      "ruju": 6749,
      "Ġustanove": 6750,
      "ĠBrani": 6751,
      "Ġekipa": 6752,
      "Ġstanovi": 6753,
      "ĠistraÅ¾ivanju": 6754,
      "ĠKne": 6755,
      "Ġobjavlji": 6756,
      "Ġubrza": 6757,
      "mno": 6758,
      "Ġkoncept": 6759,
      "ĠuÄįesnika": 6760,
      "Ġpoziva": 6761,
      "Ġnagrade": 6762,
      "gara": 6763,
      "Ġnacionalnih": 6764,
      "Ġnastavnika": 6765,
      "Ġvesti": 6766,
      "Ġvidimo": 6767,
      "sana": 6768,
      "Ġonim": 6769,
      "Ġlega": 6770,
      "pdf": 6771,
      "ĠTer": 6772,
      "ĠProble": 6773,
      "Ġmagne": 6774,
      "ĠkoliÄįina": 6775,
      "Ġbrojem": 6776,
      "Ġostvare": 6777,
      "ĠistiÄįu": 6778,
      "ĠÅ¡o": 6779,
      "Ġposeduje": 6780,
      "rice": 6781,
      "Äįani": 6782,
      "ĠPartizan": 6783,
      "ĠvaÅ¾an": 6784,
      "Ġdeter": 6785,
      "Ġprvu": 6786,
      "Ġosnovi": 6787,
      "Ġostati": 6788,
      "Ġkomisija": 6789,
      "ĠNovo": 6790,
      "Å¾nom": 6791,
      "Ġoperacije": 6792,
      "Ġzakoni": 6793,
      "Ġblizu": 6794,
      "berg": 6795,
      "Ġnegde": 6796,
      "vaca": 6797,
      "rajuÄĩi": 6798,
      "Ġgovorio": 6799,
      "Ġpovr": 6800,
      "Ġprednosti": 6801,
      "Ġ81": 6802,
      "Ðİ": 6803,
      "Ġradom": 6804,
      "fere": 6805,
      "IO": 6806,
      "Ġmuzike": 6807,
      "Ġvirusa": 6808,
      "Ġgradova": 6809,
      "Ġmotiva": 6810,
      "Ġosla": 6811,
      "Ġbriga": 6812,
      "Ġponude": 6813,
      "ĠAnaliza": 6814,
      "Ġ83": 6815,
      "nijeg": 6816,
      "Ġ79": 6817,
      "ĠSrpska": 6818,
      "ĠPravi": 6819,
      "stance": 6820,
      "Ġretko": 6821,
      "Ġ88": 6822,
      "bert": 6823,
      "Ġfinansijske": 6824,
      "ĠtroÅ¡kovi": 6825,
      "ĠuÄįestvuju": 6826,
      "ĠPolj": 6827,
      "Ġmorati": 6828,
      "ĠDrugog": 6829,
      "pela": 6830,
      "Ġistim": 6831,
      "Ġzadovolja": 6832,
      "Ġvest": 6833,
      "Ġtransport": 6834,
      "Ġradnih": 6835,
      "Ġosigura": 6836,
      "ĠFoto": 6837,
      "Äįem": 6838,
      "Ġnovinara": 6839,
      "km": 6840,
      "mski": 6841,
      "Ġ]": 6842,
      "Ġinostranstvu": 6843,
      "Ġprikazani": 6844,
      "Ġmati": 6845,
      "sati": 6846,
      "Ġredovno": 6847,
      "ĠsluÄįaja": 6848,
      "cia": 6849,
      "Ġiskre": 6850,
      "Ġplat": 6851,
      "Ġkro": 6852,
      "Ġ82": 6853,
      "mani": 6854,
      "Ġvise": 6855,
      "Ġotpor": 6856,
      "Ġoptima": 6857,
      "cke": 6858,
      "Ġnacionalnog": 6859,
      "Ġzadovo": 6860,
      "Ġmnogih": 6861,
      "Ġbrzine": 6862,
      "Ġstatusa": 6863,
      "Ġulaganja": 6864,
      "Ġbrojne": 6865,
      "Ġtrener": 6866,
      "ĠpreviÅ¡e": 6867,
      "Ġpregleda": 6868,
      "Ġprivreme": 6869,
      "Ġistu": 6870,
      "Ġostav": 6871,
      "Ġsliku": 6872,
      "Ġpome": 6873,
      "zak": 6874,
      "Ġradne": 6875,
      "tuju": 6876,
      "Ġada": 6877,
      "Ġvrednostima": 6878,
      "ĠoÅ¡t": 6879,
      "Ġzvezde": 6880,
      "ĠproizvoÄĳaÄįa": 6881,
      "ĠnaglaÅ¡ava": 6882,
      "duju": 6883,
      "ĠViso": 6884,
      "Ġposlovne": 6885,
      "diji": 6886,
      "Ġzabri": 6887,
      "ĠpoÄįeli": 6888,
      "fiju": 6889,
      "Ġinvesticije": 6890,
      "Ġline": 6891,
      "ĠOB": 6892,
      "Ġkompleksa": 6893,
      "vkoviÄĩ": 6894,
      "0000": 6895,
      "ĠkuÄĩu": 6896,
      "gare": 6897,
      "ĠvaÅ¡": 6898,
      "Äĩenih": 6899,
      "ĠizvrÅ¡": 6900,
      "ĠVeliki": 6901,
      "Ġmlade": 6902,
      "ĠograniÄįenja": 6903,
      "zavi": 6904,
      "ĠCD": 6905,
      "kali": 6906,
      "vajanja": 6907,
      "Ġmagi": 6908,
      "ĠmeÄĳuvremenu": 6909,
      ".:": 6910,
      "ĠgraÄĳane": 6911,
      "Ġobjasnio": 6912,
      "ĠleÅ¾i": 6913,
      "ĠuÄįesta": 6914,
      "Ġfinansijskih": 6915,
      "Ġubistva": 6916,
      "Ġteni": 6917,
      "Ġterori": 6918,
      "tovao": 6919,
      "IST": 6920,
      "2007": 6921,
      "ĠpolitiÄįkog": 6922,
      "Ġapara": 6923,
      "ĠMana": 6924,
      "ĠnajveÄĩa": 6925,
      "Ġ98": 6926,
      "ĠpoveÄĩanja": 6927,
      "Ġdoka": 6928,
      "Ġsednici": 6929,
      "ĠmeÄį": 6930,
      "Ġmoderni": 6931,
      "Ġare": 6932,
      "ĠĠĠ": 6933,
      "gena": 6934,
      "Beograd": 6935,
      "cita": 6936,
      "lit": 6937,
      "Ġostavlja": 6938,
      "ĠzvaniÄįno": 6939,
      "ĠSPS": 6940,
      "Ġjavljaju": 6941,
      "Ġlistu": 6942,
      "Ġpripadaju": 6943,
      "Ġsceni": 6944,
      "Ġlokalnih": 6945,
      "gr": 6946,
      "La": 6947,
      "gy": 6948,
      "Ġjavnim": 6949,
      "Ġflo": 6950,
      "Ġpismo": 6951,
      "Äįavanja": 6952,
      "Ġdecenija": 6953,
      "Äįeva": 6954,
      "Ġteku": 6955,
      "Ġkonsu": 6956,
      "Ġformiranje": 6957,
      "ĠNemaÄįke": 6958,
      "mine": 6959,
      "Ġpam": 6960,
      "Ġotpada": 6961,
      "Ġtakvih": 6962,
      "Ġ96": 6963,
      "Ġprivla": 6964,
      "Ġbrita": 6965,
      "ĠKata": 6966,
      "Ġendo": 6967,
      "Ġjedinjenja": 6968,
      "Ġslobodno": 6969,
      "Ġpravni": 6970,
      "jera": 6971,
      "pila": 6972,
      "ĠdrÅ¾i": 6973,
      "Ġdoprinosi": 6974,
      "ĠkoÅ¡arka": 6975,
      "ĠPostoji": 6976,
      "Ġkomanda": 6977,
      "ĠUkupno": 6978,
      "ĠHrvatska": 6979,
      "Ġnosio": 6980,
      "Ġske": 6981,
      "ĠJelena": 6982,
      "GC": 6983,
      "Ġdata": 6984,
      "ĠEk": 6985,
      "Ġzali": 6986,
      "ĠNiÅ¡": 6987,
      "bna": 6988,
      "ljuje": 6989,
      "Ġ01": 6990,
      "ĠÄĮo": 6991,
      "Ġradnje": 6992,
      "Ġknjigu": 6993,
      "âĢ¦âĢ¦âĢ¦âĢ¦âĢ¦âĢ¦âĢ¦âĢ¦": 6994,
      "Ġozbiljno": 6995,
      "Ġprimenjuje": 6996,
      "Ġglas": 6997,
      "ĠGi": 6998,
      "Ġiko": 6999,
      "ĠsaopÅ¡tio": 7000,
      "Îµ": 7001,
      "gement": 7002,
      "Ġnjeno": 7003,
      "Ġglave": 7004,
      "dbe": 7005,
      "Äĳani": 7006,
      "ĠBro": 7007,
      "ĠRegi": 7008,
      "vost": 7009,
      "Ġokri": 7010,
      "Ġane": 7011,
      "ĠïĢ½": 7012,
      "Ġ92": 7013,
      "Äĳenjem": 7014,
      "Ġmetodo": 7015,
      "Ġfonda": 7016,
      "Ġcilja": 7017,
      "niÄįke": 7018,
      "Ġunapred": 7019,
      "Ġdnevno": 7020,
      "UT": 7021,
      "Ġkorek": 7022,
      "Ġalba": 7023,
      "tetom": 7024,
      "ĠOdg": 7025,
      "Ġanke": 7026,
      "hro": 7027,
      "ela": 7028,
      "ĠmeÄĳusob": 7029,
      "bilnost": 7030,
      "dnoj": 7031,
      "Ġdobijaju": 7032,
      "Ġdoneo": 7033,
      "Ġkiselina": 7034,
      "Ġodredbe": 7035,
      "Ġistoriju": 7036,
      "Ġmigra": 7037,
      "Ġturizma": 7038,
      "lat": 7039,
      "ĠRTS": 7040,
      "Ġdiskrimina": 7041,
      "ĠBogo": 7042,
      "Ġliste": 7043,
      "Ġseo": 7044,
      "Ġpravno": 7045,
      "ĠDar": 7046,
      "Å¡nih": 7047,
      "Ġstrategija": 7048,
      "Ġraznih": 7049,
      "siti": 7050,
      "Slika": 7051,
      "Ġsektoru": 7052,
      "ĠgreÅ¡ke": 7053,
      "Ġrije": 7054,
      "Ġglavu": 7055,
      "netar": 7056,
      "Ġkulturu": 7057,
      "Ġtrajanja": 7058,
      "ĠUniverzitet": 7059,
      "Ġparale": 7060,
      "Ġuspeli": 7061,
      "ĠtreÄĩe": 7062,
      "Ġklase": 7063,
      "rove": 7064,
      "ĠXX": 7065,
      "ĠreÅ¾ima": 7066,
      "Ġuslov": 7067,
      "nj": 7068,
      "ĠDire": 7069,
      "Ġizbega": 7070,
      "bne": 7071,
      "ĠLondo": 7072,
      "sigu": 7073,
      "Ġadekvat": 7074,
      "aru": 7075,
      "Ġkog": 7076,
      "valua": 7077,
      "Ġvisok": 7078,
      "Ġnajo": 7079,
      "Ġbankar": 7080,
      "Ġstranaka": 7081,
      "Ġkakva": 7082,
      "ĠSocija": 7083,
      "Ġcari": 7084,
      "Ġ86": 7085,
      "Ġnajma": 7086,
      "ĠpoloÅ¾aja": 7087,
      "Ð¹": 7088,
      "Ġzgrada": 7089,
      "Ġpodatak": 7090,
      "Ġustano": 7091,
      "ĠïĢ©": 7092,
      "Ġmrt": 7093,
      "move": 7094,
      "jt": 7095,
      "zmi": 7096,
      "Ġprocenu": 7097,
      "kati": 7098,
      "Ġglavnog": 7099,
      "ĠmeÄĳusobno": 7100,
      "Ġstica": 7101,
      "ĠmeÄĳunarodnih": 7102,
      "Ġznao": 7103,
      "Ġ1993": 7104,
      "dim": 7105,
      "Ġosloba": 7106,
      "ĠCilj": 7107,
      "ĠobraÄĩa": 7108,
      "Ġuki": 7109,
      "ĠdefiniÅ¡e": 7110,
      "tuda": 7111,
      "Ġbogat": 7112,
      "tenti": 7113,
      "LO": 7114,
      "rit": 7115,
      "Ġprijave": 7116,
      "Ġvrhu": 7117,
      "ĠsveÄįa": 7118,
      "ĠpotroÅ¡aÄįa": 7119,
      "Ġeste": 7120,
      "ranim": 7121,
      "ĠameriÄįke": 7122,
      "ĠBre": 7123,
      "Ġmodeli": 7124,
      "klapa": 7125,
      "Ġuloge": 7126,
      "ĠZapad": 7127,
      "Ñĭ": 7128,
      "ljem": 7129,
      "sc": 7130,
      "DÐĮ": 7131,
      "Ġbombar": 7132,
      "Ġprezi": 7133,
      "Ġsamouprave": 7134,
      "deri": 7135,
      "Ġbanaka": 7136,
      "Ġproizvodnja": 7137,
      "Le": 7138,
      "jke": 7139,
      "Ġsajtu": 7140,
      "Ġspoljnih": 7141,
      "ĠRad": 7142,
      "Ġder": 7143,
      "RED": 7144,
      "ĠUpravo": 7145,
      "Ġcrkva": 7146,
      "Ġrazne": 7147,
      "Ġtelefo": 7148,
      "ĠizveÅ¡taja": 7149,
      "Å¾nim": 7150,
      "Ġprisustvu": 7151,
      "Ġizdvaja": 7152,
      "ÅłT": 7153,
      "Ġnjenom": 7154,
      "Ġmotor": 7155,
      "ĠoÄįekivati": 7156,
      "Ġstudent": 7157,
      "Ġarti": 7158,
      "jali": 7159,
      "ĠsluÅ¾i": 7160,
      "Ġslobodu": 7161,
      "Ġ|": 7162,
      "Ġnafte": 7163,
      "Ġdrugima": 7164,
      "ĠIm": 7165,
      "leme": 7166,
      "ïĥ": 7167,
      "Ġponede": 7168,
      "dimo": 7169,
      "Ġknjizi": 7170,
      "Ġobavesti": 7171,
      "Ġsredini": 7172,
      "vamo": 7173,
      "ĠÅ¾rtve": 7174,
      "ĠinÅ¾enje": 7175,
      "lili": 7176,
      "Ġner": 7177,
      "ANJE": 7178,
      "Ġpovolj": 7179,
      "ĠPredsedni": 7180,
      "ĠUni": 7181,
      "Ġulice": 7182,
      "nuta": 7183,
      "Ġprikaz": 7184,
      "Ġobavezu": 7185,
      "Ġwas": 7186,
      "ĠOpÅ¡ti": 7187,
      "Ġdovolj": 7188,
      "ĠÅ¡tetu": 7189,
      "Ġagen": 7190,
      "ford": 7191,
      "ĠpoÅ¾e": 7192,
      "Ġ2019": 7193,
      "Ġuklo": 7194,
      "Ġ91": 7195,
      "Ġobjekat": 7196,
      "jA": 7197,
      "ĠCrno": 7198,
      "Ġdovede": 7199,
      "Ġpusti": 7200,
      "ĠsprovoÄĳenje": 7201,
      "2015": 7202,
      "ĠMio": 7203,
      "pto": 7204,
      "Ġoca": 7205,
      "ĠtuÅ¾i": 7206,
      "OJ": 7207,
      "Ġnagradu": 7208,
      "turu": 7209,
      "vredi": 7210,
      "vin": 7211,
      "ĠDej": 7212,
      "Ġteritorije": 7213,
      "Ġkontrola": 7214,
      "ĠuÄįestvuje": 7215,
      "Ġnepokre": 7216,
      "pp": 7217,
      "Ġhirur": 7218,
      "ĠoptuÅ¾": 7219,
      "Ġopasnost": 7220,
      "Ġkosti": 7221,
      "Ġraditi": 7222,
      "ĠPrilog": 7223,
      "Â»": 7224,
      "ĠTE": 7225,
      "ĠProse": 7226,
      "ĠKor": 7227,
      "ĠmeÄĳunarodnim": 7228,
      "Ġsaveta": 7229,
      "stovi": 7230,
      "Ġispa": 7231,
      "Ġefikasnosti": 7232,
      "ĠÄįinjenicu": 7233,
      "Ġ97": 7234,
      "ĠEle": 7235,
      "ĠDobro": 7236,
      "ĠNjiho": 7237,
      "Ġlj": 7238,
      "love": 7239,
      "Ġmilijarde": 7240,
      "tara": 7241,
      "2005": 7242,
      "Ġ#": 7243,
      "ĠZdra": 7244,
      "Ġpostojanja": 7245,
      "Ġvojnika": 7246,
      "ĠpovrÅ¡ini": 7247,
      "Ġpozicije": 7248,
      "risto": 7249,
      "Å¡ak": 7250,
      "ĠVrho": 7251,
      "Ġ89": 7252,
      "Ġpitanjima": 7253,
      "Å¡le": 7254,
      "Ġrekor": 7255,
      "Ġ93": 7256,
      "ĠStrate": 7257,
      "ĠvaÅ¾e": 7258,
      "ĠTime": 7259,
      "ĠVuk": 7260,
      "bility": 7261,
      "Ġprolazi": 7262,
      "mak": 7263,
      "ĠzakljuÄįiti": 7264,
      "Ġpojam": 7265,
      "Ġjedina": 7266,
      "Ġmetabo": 7267,
      "Ġstan": 7268,
      "Ġokuplja": 7269,
      "Ġdobijenih": 7270,
      "cki": 7271,
      "Ġtreti": 7272,
      "Ġprethodne": 7273,
      "ĠAge": 7274,
      "ĠUÄįe": 7275,
      "ĠDejan": 7276,
      "Ġzdravstvene": 7277,
      "Ġinvesticija": 7278,
      "cial": 7279,
      "ĠSavez": 7280,
      "ĠdomaÄĩih": 7281,
      "ĠBosni": 7282,
      "Ġlikvi": 7283,
      "Ġsumnja": 7284,
      "ĠÅ¡tra": 7285,
      "ME": 7286,
      "likom": 7287,
      "Ġdepre": 7288,
      "ĠtakmiÄįenja": 7289,
      "Ġprepre": 7290,
      "Ġprijem": 7291,
      "Ġsuper": 7292,
      "Ã§": 7293,
      "Ġprimeni": 7294,
      "Ġzagre": 7295,
      "ĠHan": 7296,
      "RJ": 7297,
      "Ġmlado": 7298,
      "Ġposete": 7299,
      "ĠKore": 7300,
      "Ġistina": 7301,
      "Ġnaredne": 7302,
      "Ġprotek": 7303,
      "ĠNove": 7304,
      "Ġsat": 7305,
      "lski": 7306,
      "Ġdimenzija": 7307,
      "ĠBudu": 7308,
      "Ġspor": 7309,
      "Ġtkiva": 7310,
      "Ġserija": 7311,
      "lori": 7312,
      "Ġvike": 7313,
      "komu": 7314,
      "Ġnedelja": 7315,
      "Ġnapomenu": 7316,
      "Ġepide": 7317,
      "ĠSkupÅ¡tini": 7318,
      "Ġsmanjenja": 7319,
      "ĠJapa": 7320,
      "Ġposlovnih": 7321,
      "Ġorgan": 7322,
      "Ġkomponente": 7323,
      "Ġzate": 7324,
      "ĠuÄįenici": 7325,
      "Ġmal": 7326,
      "Sr": 7327,
      "pen": 7328,
      "ĠpoÄįne": 7329,
      "Ġverujem": 7330,
      "ĠSK": 7331,
      "Ġpromenu": 7332,
      "Ġmakar": 7333,
      "Ġprinu": 7334,
      "Ġaviona": 7335,
      "ĠporeÄĳenju": 7336,
      "ĠElek": 7337,
      "Ġrazd": 7338,
      "ĠodluÄįio": 7339,
      "ĠzajedniÄįki": 7340,
      "ĠreÅ¡avanje": 7341,
      "Ġpopulacije": 7342,
      "tete": 7343,
      "Ġneuspe": 7344,
      "Ġiznosu": 7345,
      "Ġkarakter": 7346,
      "ĠSle": 7347,
      "lli": 7348,
      "Ġsun": 7349,
      "Ġfilmu": 7350,
      "tetima": 7351,
      "ljima": 7352,
      "ĠutvrÄĳeno": 7353,
      "ĠDE": 7354,
      "Ġdesetak": 7355,
      "ĠzavrÅ¡io": 7356,
      "Â¯": 7357,
      "ĠzloÄįine": 7358,
      "piÅ¡e": 7359,
      "Ñķ": 7360,
      "Ġzakonu": 7361,
      "Ġradovi": 7362,
      "tivnost": 7363,
      "Ġdijagnosti": 7364,
      "ĠInte": 7365,
      "dovanja": 7366,
      "Ġincide": 7367,
      "Ġpato": 7368,
      "ĠBosne": 7369,
      "cin": 7370,
      "Ġizdvoji": 7371,
      "Ġzanema": 7372,
      "priÄįa": 7373,
      "Ġnavedenih": 7374,
      "savljeviÄĩ": 7375,
      "bid": 7376,
      "Ġmisle": 7377,
      "kg": 7378,
      "Ġleto": 7379,
      "ĠAustra": 7380,
      "Ġprevoz": 7381,
      "Ġstimu": 7382,
      "Ġdevede": 7383,
      "Ġpokret": 7384,
      "Ġizvoz": 7385,
      "boru": 7386,
      "Ġpredstave": 7387,
      "LI": 7388,
      "ĠJE": 7389,
      "Ġuzbu": 7390,
      "ĠNau": 7391,
      "Ġ2022": 7392,
      "SKI": 7393,
      "Ġnastaje": 7394,
      "ĠLan": 7395,
      "zivanje": 7396,
      "rijska": 7397,
      "Ġsaradnja": 7398,
      "Ġdije": 7399,
      "tvor": 7400,
      "Ġkiseline": 7401,
      "ĠSO": 7402,
      "CR": 7403,
      "ĠRadio": 7404,
      "Ġkonf": 7405,
      "ĠdrÅ¾avnog": 7406,
      "ĠBanja": 7407,
      "Ġkame": 7408,
      "Ġrazgovor": 7409,
      "ziv": 7410,
      "desetak": 7411,
      "ĠNisam": 7412,
      "2006": 7413,
      "Ġsavlada": 7414,
      "ĠobezbeÄĳuje": 7415,
      "ĠTeh": 7416,
      "Ġstigao": 7417,
      "Ġdecenije": 7418,
      "Ġinteres": 7419,
      "Ġpripadnika": 7420,
      "ĠnajveÄĩih": 7421,
      "lik": 7422,
      "--------------------------------": 7423,
      "vaÄįke": 7424,
      "Ġuniver": 7425,
      "Ġvisine": 7426,
      "jde": 7427,
      "Ġsvesti": 7428,
      "Äĳenog": 7429,
      "Ġsrca": 7430,
      "ĠprekrÅ¡a": 7431,
      "Ġpotrebu": 7432,
      "ĠzaÅ¡tita": 7433,
      "promi": 7434,
      "Ġkoman": 7435,
      "Ġkorupcije": 7436,
      "ncima": 7437,
      "Ġeta": 7438,
      "Ġprethodnih": 7439,
      "ĠSti": 7440,
      "Ġfoto": 7441,
      "nicom": 7442,
      "Ġ600": 7443,
      "Ġdona": 7444,
      "ĠGospo": 7445,
      "Ġpromet": 7446,
      "Ġ2021": 7447,
      "Ġuspeha": 7448,
      "Ġnespo": 7449,
      "Ġkorpora": 7450,
      "Ġdelovanja": 7451,
      "ĠOP": 7452,
      "Ġizgradnje": 7453,
      "ferent": 7454,
      "Ġsrednjo": 7455,
      "Å¡tenje": 7456,
      "stavljena": 7457,
      "Ġekipe": 7458,
      "ĠÅ¾elje": 7459,
      "neo": 7460,
      "rske": 7461,
      "ÄĮK": 7462,
      "CH": 7463,
      "liÅ¡u": 7464,
      "Ġdelovima": 7465,
      "Ġgeneracije": 7466,
      "staviti": 7467,
      "ĠsaopÅ¡tila": 7468,
      "mskog": 7469,
      "Ġ94": 7470,
      "Politi": 7471,
      "ps": 7472,
      "Ġstabilnost": 7473,
      "ĠLondon": 7474,
      "Ġlaborato": 7475,
      "Ġvredno": 7476,
      "ĠDimit": 7477,
      "bin": 7478,
      "Ġpartnera": 7479,
      "Ġuklanja": 7480,
      "ĠAc": 7481,
      "Ġvlasnika": 7482,
      "stavljen": 7483,
      "Ġizlazi": 7484,
      "ferencija": 7485,
      "Ġnjenim": 7486,
      "Ġnajnovi": 7487,
      "Ġrukama": 7488,
      "pima": 7489,
      "Ġpoziciju": 7490,
      "Ġ-.": 7491,
      "Ġljubi": 7492,
      "Ġelementa": 7493,
      "ĠÄįeÅ¡Äĩe": 7494,
      "Ġzauze": 7495,
      "ĠudÅ¾be": 7496,
      "ĠDirek": 7497,
      "dor": 7498,
      "ĠUticaj": 7499,
      "Ġposeti": 7500,
      "Ġpozdra": 7501,
      "Ġzarade": 7502,
      "ĠsloÅ¾e": 7503,
      "ys": 7504,
      "ĠSud": 7505,
      "Ġizraz": 7506,
      "ĠokruÅ¾enju": 7507,
      "ĠïĢ¨": 7508,
      "ĠDragana": 7509,
      "ĠÅ¾eleo": 7510,
      "Ġvari": 7511,
      "Ġpravom": 7512,
      "Ġpm": 7513,
      "ĠMed": 7514,
      "Äĳivanju": 7515,
      "Ġkompju": 7516,
      "Ġdemo": 7517,
      "reti": 7518,
      "dara": 7519,
      "Äįeki": 7520,
      "ĠpodrÅ¡ka": 7521,
      "Ġdonese": 7522,
      "ĠPostoje": 7523,
      "Ġdovesti": 7524,
      "Ġkg": 7525,
      "Ġsrpsko": 7526,
      "Ġnjenih": 7527,
      "Ġsuge": 7528,
      "Ġbak": 7529,
      "Se": 7530,
      "Ġtehnike": 7531,
      "Ġgimna": 7532,
      "Ġneobi": 7533,
      "ph": 7534,
      "ĠznaÄįenje": 7535,
      "Ġrake": 7536,
      "Ġnadzor": 7537,
      "ĠdrÅ¾avama": 7538,
      "rovatnije": 7539,
      "Å¡avaju": 7540,
      "Ġdefici": 7541,
      "Ġlep": 7542,
      "Ġtehnika": 7543,
      "Ġdali": 7544,
      "ĠÄįo": 7545,
      "ĠoruÅ¾ja": 7546,
      "Ġimeno": 7547,
      "ĠVuka": 7548,
      "ĠNemaÄįka": 7549,
      "Ġfabrike": 7550,
      "Ġroman": 7551,
      "Ġusle": 7552,
      "ĠÄĲorÄĳeviÄĩ": 7553,
      "ĠukljuÄįuje": 7554,
      "ĠIvana": 7555,
      "Ġubistvo": 7556,
      "velop": 7557,
      "Ġnara": 7558,
      "ĠsadrÅ¾e": 7559,
      "Ġpogotovo": 7560,
      "lazu": 7561,
      "Ġnikakve": 7562,
      "Ġzauzima": 7563,
      "Ġmodelu": 7564,
      "ĠEuropean": 7565,
      "Ġosnovna": 7566,
      "ĠFrancuskoj": 7567,
      "mili": 7568,
      "Â¯Â¯": 7569,
      "Ġonako": 7570,
      "Ġlekara": 7571,
      "joviÄĩ": 7572,
      "ĠAmerici": 7573,
      "Ġrazum": 7574,
      "MF": 7575,
      "Ġserije": 7576,
      "Ġzatvara": 7577,
      "Ġpobede": 7578,
      "IA": 7579,
      "ĠÄĲi": 7580,
      "sman": 7581,
      "logical": 7582,
      "Å¡avanje": 7583,
      "Ġosobine": 7584,
      "Ġpotencijal": 7585,
      "Ġnacija": 7586,
      "Ġlidera": 7587,
      "rami": 7588,
      "Ġnose": 7589,
      "Ġstoga": 7590,
      ".;": 7591,
      "Ġstvarala": 7592,
      "Ġnavedeno": 7593,
      "lf": 7594,
      "Ġpojedinim": 7595,
      "Ġlekar": 7596,
      "ĠAnto": 7597,
      "Ġpolitici": 7598,
      "Ġama": 7599,
      "%),": 7600,
      "ĠokonÄįa": 7601,
      "Ġukida": 7602,
      "Ġpodno": 7603,
      "ĠQu": 7604,
      "Ġsindikata": 7605,
      "deti": 7606,
      "stor": 7607,
      "npr": 7608,
      "cr": 7609,
      "Ġcelog": 7610,
      "ĠSvaki": 7611,
      "ĠdelimiÄįno": 7612,
      "DS": 7613,
      "ĠVan": 7614,
      "ĠveliÄįina": 7615,
      "Ġpripreme": 7616,
      "ĠodgovarajuÄĩe": 7617,
      "ments": 7618,
      "Ġinterna": 7619,
      "Ġpregovora": 7620,
      "ĠpozoriÅ¡ta": 7621,
      "Å¡tena": 7622,
      "Ġrazo": 7623,
      "Ġplasi": 7624,
      "puta": 7625,
      "Ġvrhun": 7626,
      "ĠSmatra": 7627,
      "Ġprivatizacije": 7628,
      "jednako": 7629,
      "Ġotpo": 7630,
      "Ġmoz": 7631,
      "reo": 7632,
      "Ġpoto": 7633,
      "shi": 7634,
      "ÄĬu": 7635,
      "Ġambi": 7636,
      "ĠÄįlanice": 7637,
      "Ã¼": 7638,
      "Ġradili": 7639,
      "Ġkralja": 7640,
      "ĠodrÅ¾ava": 7641,
      "Ġprirodi": 7642,
      "Ġzone": 7643,
      "Ġpredstava": 7644,
      "ĠPetar": 7645,
      "ĠBalkanu": 7646,
      "Ġsudije": 7647,
      "Ġ110": 7648,
      "Ġodstupa": 7649,
      "Ġderi": 7650,
      "ĠMinistarstvu": 7651,
      "Ġsvetske": 7652,
      "Ġpokazalo": 7653,
      "ĠoslobaÄĳa": 7654,
      "Ġprodavni": 7655,
      "sili": 7656,
      "jnog": 7657,
      "ĠNenad": 7658,
      "Ġideal": 7659,
      "que": 7660,
      "Ġimale": 7661,
      "Ġmore": 7662,
      "ĠToma": 7663,
      "Ġtea": 7664,
      "ï¼": 7665,
      "Ġnezadovolj": 7666,
      "Ġnagrada": 7667,
      "Ġstara": 7668,
      "lci": 7669,
      "Ġvolje": 7670,
      "ĠSrbima": 7671,
      "Ġugo": 7672,
      "Ġvje": 7673,
      "vljanje": 7674,
      "Ġopada": 7675,
      "DA": 7676,
      "jao": 7677,
      "Ġskupa": 7678,
      "ell": 7679,
      "Ġimplementa": 7680,
      "nijom": 7681,
      "Ġkaraktera": 7682,
      "Ġprikazan": 7683,
      "Ġiznosila": 7684,
      "rakteri": 7685,
      "Ġplasti": 7686,
      "Ġmogle": 7687,
      "glu": 7688,
      "Î¹": 7689,
      "Ġpotrebne": 7690,
      "ree": 7691,
      "Ġopasnosti": 7692,
      "Ġporta": 7693,
      "Ġotvorena": 7694,
      "ĠMiloÅ¡eviÄĩa": 7695,
      "Ġ09": 7696,
      "Ġgeneral": 7697,
      "Ġorganizuje": 7698,
      "klara": 7699,
      "ĠJugoslaviji": 7700,
      "wn": 7701,
      "OVA": 7702,
      "Ġizjave": 7703,
      "ĠodreÄĳenim": 7704,
      "ĠPotre": 7705,
      "Ġuru": 7706,
      "Ġporuka": 7707,
      "ĠÅ¾elja": 7708,
      "Ġvideli": 7709,
      "Å¾uju": 7710,
      "Ġorijenta": 7711,
      "Ġsimboli": 7712,
      "Ġbla": 7713,
      "PA": 7714,
      "ĠodreÄĳena": 7715,
      "godiÅ¡njeg": 7716,
      "spira": 7717,
      "Ġizu": 7718,
      "Ġposeban": 7719,
      "Ġizvori": 7720,
      "Ġprvenstveno": 7721,
      "Ġdogodilo": 7722,
      "Ġstope": 7723,
      "dago": 7724,
      "Ġidentiteta": 7725,
      "BC": 7726,
      "Ġskra": 7727,
      "jev": 7728,
      "kretni": 7729,
      "ĠÅłu": 7730,
      "Ġpotreban": 7731,
      "Ġglasi": 7732,
      "ya": 7733,
      "ĠAra": 7734,
      "ĠCR": 7735,
      "Ġupozora": 7736,
      "Äįun": 7737,
      "fikaciju": 7738,
      "Ġfaktori": 7739,
      "Ġnarodu": 7740,
      "und": 7741,
      "Ġevropskim": 7742,
      "sijom": 7743,
      "Ġukupne": 7744,
      "Ġprimera": 7745,
      "prema": 7746,
      "minje": 7747,
      "Ġuva": 7748,
      "Ġute": 7749,
      "Ġravnote": 7750,
      "Ġapo": 7751,
      "Cl": 7752,
      "ĠporuÄįio": 7753,
      "Ġdozvole": 7754,
      "ljko": 7755,
      "Ġvratio": 7756,
      "Ġgeograf": 7757,
      "Ġstarosti": 7758,
      "ĠÐ": 7759,
      "Ġhteo": 7760,
      "ĠÅ¾elezni": 7761,
      "zorak": 7762,
      "ĠZemu": 7763,
      "Ġbolest": 7764,
      "tini": 7765,
      "The": 7766,
      "ĠFrancuske": 7767,
      "Ġnekoj": 7768,
      "Ġspremni": 7769,
      "Ġzaintereso": 7770,
      "ĠkoÅ¾e": 7771,
      "Ġupotrebi": 7772,
      "Ġispitivanje": 7773,
      "stavljanje": 7774,
      "Ġuzme": 7775,
      "Ġmarketin": 7776,
      "ljenosti": 7777,
      "Ġodvoje": 7778,
      "Ġjedni": 7779,
      "Ġfla": 7780,
      "Ġeksploa": 7781,
      "bilnosti": 7782,
      "mol": 7783,
      "Ġtretmana": 7784,
      "Ġposetio": 7785,
      "Ġtakvim": 7786,
      "ĠplaÄĩanja": 7787,
      "cena": 7788,
      "Ġkonver": 7789,
      "Ġrazlikuju": 7790,
      "Ġmetala": 7791,
      "Ġcele": 7792,
      "torima": 7793,
      "pne": 7794,
      "ĠKre": 7795,
      "Ġprihvat": 7796,
      "ĠotiÅ¡ao": 7797,
      "Ġsvakoj": 7798,
      "ciono": 7799,
      "Ġdvostru": 7800,
      "Ġmesa": 7801,
      "Ġdesilo": 7802,
      "ĠoseÄĩaj": 7803,
      "ĠVuÄįi": 7804,
      "ĠDruga": 7805,
      "Ġoksida": 7806,
      "Ġpotvrdio": 7807,
      "rijskog": 7808,
      "ĠbrÅ¾e": 7809,
      "wer": 7810,
      "ĠpolitiÄįkim": 7811,
      "tana": 7812,
      "Ġmakro": 7813,
      "ĠAnÄĳe": 7814,
      "rko": 7815,
      "dnicima": 7816,
      "Ġzainteresova": 7817,
      "ĠUÅ¾i": 7818,
      "Ġprof": 7819,
      "Ġkvanti": 7820,
      "Ġorigina": 7821,
      "Ġforme": 7822,
      "stiÄįke": 7823,
      "mla": 7824,
      "zde": 7825,
      "Ġrazlikuje": 7826,
      "BAuthor": 7827,
      "Ġgrupama": 7828,
      "Ġugra": 7829,
      "Ġosvojio": 7830,
      "ĠteÅ¾e": 7831,
      "Ġpamet": 7832,
      "Ġneutra": 7833,
      "Å¡teni": 7834,
      "ĠzakljuÄįuje": 7835,
      "ĠPA": 7836,
      "laciju": 7837,
      "ĠÄįlanu": 7838,
      "Äįnik": 7839,
      "ĠodrÅ¾avanja": 7840,
      "ĠFedera": 7841,
      "Ġnovinarima": 7842,
      "Ġpozvao": 7843,
      "Ġfra": 7844,
      "ĠDoma": 7845,
      "Ġigraju": 7846,
      "Ġregulisa": 7847,
      "ĠveÄĩim": 7848,
      "igra": 7849,
      "znati": 7850,
      "ĠZatim": 7851,
      "laganju": 7852,
      "ĠureÄĳaja": 7853,
      "view": 7854,
      "Ġujedno": 7855,
      "Ġdvadeset": 7856,
      "ĠbivÅ¡eg": 7857,
      "ĠsteÄįaj": 7858,
      "Ġkombi": 7859,
      "sp": 7860,
      "mato": 7861,
      "ĠMilu": 7862,
      "Ġreakcija": 7863,
      "njenih": 7864,
      "Ġogra": 7865,
      "Ġosve": 7866,
      "ĠLjubi": 7867,
      "Ġkategorija": 7868,
      "ĠAfri": 7869,
      "ĠpomaÅ¾e": 7870,
      "ĠSRB": 7871,
      "ljda": 7872,
      "kultu": 7873,
      "lovanje": 7874,
      "Ġprimenjuju": 7875,
      "stero": 7876,
      "Ġpriva": 7877,
      "Ġpodzem": 7878,
      "Ġfestivala": 7879,
      "Ġrezu": 7880,
      "ĠTomi": 7881,
      "ÎĿ": 7882,
      "tsku": 7883,
      "Ġokvir": 7884,
      "Ġreformi": 7885,
      "ĠnaÄįinu": 7886,
      "Ġraspode": 7887,
      "ĠAuto": 7888,
      "Ġpostroje": 7889,
      "ĠHolan": 7890,
      "ĠMnogi": 7891,
      "malo": 7892,
      "Di": 7893,
      "ĠYork": 7894,
      "Ġpraz": 7895,
      "dovanje": 7896,
      "Ġkatastro": 7897,
      "Ġpropisima": 7898,
      "ĠBru": 7899,
      "ĠodreÄĳivanje": 7900,
      "Äĩete": 7901,
      "Ġkapi": 7902,
      "ena": 7903,
      "mm": 7904,
      "phy": 7905,
      "tis": 7906,
      "Ġkorpu": 7907,
      "tsko": 7908,
      "Ġostvaruje": 7909,
      "Ġmorala": 7910,
      "Ġfer": 7911,
      "Ġodlazi": 7912,
      "Ġrezervi": 7913,
      "ljenost": 7914,
      "IÅł": 7915,
      "Ġgovora": 7916,
      "Ġromana": 7917,
      "Ġprav": 7918,
      "Ġoka": 7919,
      "tov": 7920,
      "Ġreforme": 7921,
      "ĠSlu": 7922,
      "Ġtok": 7923,
      "ĠWor": 7924,
      "gama": 7925,
      "Ġsne": 7926,
      "Ġvremenom": 7927,
      "ĠUsta": 7928,
      "Ġdogovor": 7929,
      "Ġizvu": 7930,
      "ĠkoriÅ¡Äĩenjem": 7931,
      "ĠsavrÅ¡e": 7932,
      "fiji": 7933,
      "Ġefikasnost": 7934,
      "Ġtrenutka": 7935,
      "Ġinteli": 7936,
      "Ġodavno": 7937,
      "Ġprijatelja": 7938,
      "Ġregistra": 7939,
      "Ġpretpostavlja": 7940,
      "Ġtop": 7941,
      "ĠjuÄįera": 7942,
      "2004": 7943,
      "Ġteorija": 7944,
      "Ġrealizo": 7945,
      "Ġsigna": 7946,
      "juma": 7947,
      "Ġnajboljih": 7948,
      "ĠAt": 7949,
      "nete": 7950,
      "Ġvojska": 7951,
      "ĠVelika": 7952,
      "Ġuse": 7953,
      "Ġsredstvo": 7954,
      "strova": 7955,
      "ĠnaoruÅ¾a": 7956,
      "Ġvisokog": 7957,
      "stine": 7958,
      "Ġsvakodnevno": 7959,
      "ĠpokuÅ¡aj": 7960,
      "Ġdevedese": 7961,
      "Ġproblemati": 7962,
      "ĠuÄįenje": 7963,
      "ing": 7964,
      "vanu": 7965,
      "ĠPravo": 7966,
      "Â·": 7967,
      "Ġzave": 7968,
      "ATI": 7969,
      "EÐİ": 7970,
      "mbru": 7971,
      "ĠÂ«": 7972,
      "Ġpraksa": 7973,
      "Ġsmr": 7974,
      "Ġcito": 7975,
      "gona": 7976,
      "ĠSl": 7977,
      "Ġproblemima": 7978,
      "Ġleve": 7979,
      "Ġdel": 7980,
      "Ġotvoreno": 7981,
      "ĠveÄĩinu": 7982,
      "ĠkomÅ¡i": 7983,
      "ĠNajveÄĩi": 7984,
      "stao": 7985,
      "jaÄįa": 7986,
      "cionalne": 7987,
      "listiÄįke": 7988,
      "ĠOli": 7989,
      "vladi": 7990,
      "Ġpreven": 7991,
      "ĠMari": 7992,
      "Ġtrenutak": 7993,
      "ĠStojanoviÄĩ": 7994,
      "Ġika": 7995,
      "Ġoblastima": 7996,
      "Ġintegri": 7997,
      "Ġpopular": 7998,
      "Ġsvetski": 7999,
      "Ġuticajem": 8000,
      "Ġofici": 8001,
      "Ġupotreba": 8002,
      "Ġlibera": 8003,
      "sador": 8004,
      "ĠSU": 8005,
      "ĠdogaÄĳaj": 8006,
      "kana": 8007,
      "ĠRea": 8008,
      "Ïģ": 8009,
      "Ġizvodi": 8010,
      "KT": 8011,
      "âĢĺ": 8012,
      "ĠZem": 8013,
      "lor": 8014,
      "Ġprora": 8015,
      "Ġteroristi": 8016,
      "ĠPartizana": 8017,
      "movima": 8018,
      "ĠSur": 8019,
      "FA": 8020,
      "ĠSjedinje": 8021,
      "Ġprilog": 8022,
      "Ġodob": 8023,
      "ĠduÅ¾ine": 8024,
      "Ġspisa": 8025,
      "ĠPosled": 8026,
      "godiÅ¡nje": 8027,
      "rela": 8028,
      "ĠSmedere": 8029,
      "Ġutvrdi": 8030,
      "novo": 8031,
      "venog": 8032,
      "Ġrezolu": 8033,
      "Ġnijedan": 8034,
      "Ġnastavak": 8035,
      "Ġset": 8036,
      "Ġiskaza": 8037,
      "Ġnekako": 8038,
      "ĠGrafikon": 8039,
      "á½": 8040,
      "ĠFer": 8041,
      "ĠuÄįinio": 8042,
      "ĠKarad": 8043,
      "Ġeduka": 8044,
      "Ġzahteve": 8045,
      "ĠelektriÄįne": 8046,
      "ĠÄįl": 8047,
      "pili": 8048,
      "Ġpli": 8049,
      "Ġkarci": 8050,
      "Ġnezavisnost": 8051,
      "ura": 8052,
      "Ġzajednici": 8053,
      "Ġsuprot": 8054,
      "Ġbrzina": 8055,
      "ĠstruÄįnjaka": 8056,
      "ĠoÅ¡teÄĩenja": 8057,
      "ĠsluÅ¾ba": 8058,
      "Ġgena": 8059,
      "Ġpoznata": 8060,
      "Ġzona": 8061,
      "Ġsredstvima": 8062,
      "Ġzamisli": 8063,
      "Ġsituacijama": 8064,
      "ĠKana": 8065,
      "Fo": 8066,
      "vot": 8067,
      "Ġlinear": 8068,
      "krip": 8069,
      "Ġposebne": 8070,
      "Ġpostati": 8071,
      "Ġobim": 8072,
      "Ġdes": 8073,
      "Ġruski": 8074,
      "ĠmeÄĳunarodnog": 8075,
      "kvu": 8076,
      "Ġstvore": 8077,
      "Ġsek": 8078,
      "ul": 8079,
      "TP": 8080,
      "ekonom": 8081,
      "Ġreprezentacije": 8082,
      "Ġiskori": 8083,
      "ndo": 8084,
      "ktom": 8085,
      "Ġjos": 8086,
      "ĠDani": 8087,
      "Ġdestina": 8088,
      "ĠEvropa": 8089,
      "Ġpobedu": 8090,
      "ĠmoÅ£e": 8091,
      "Ġstupa": 8092,
      "reviÄĩ": 8093,
      "ĠmuÅ¡karaca": 8094,
      "ĠpokaÅ¾e": 8095,
      "Ġ08": 8096,
      "lona": 8097,
      "rci": 8098,
      "Å¾enog": 8099,
      "Ġpoljoprivrede": 8100,
      "niÄįki": 8101,
      "Äĳenim": 8102,
      "Å¡tenja": 8103,
      "Å¡njo": 8104,
      "ia": 8105,
      "Ġpostepe": 8106,
      "Ġproizvodnji": 8107,
      "Ġhiper": 8108,
      "Ġnaknade": 8109,
      "ĠuÄĳe": 8110,
      "Ġfakto": 8111,
      "Ġustanovi": 8112,
      "tao": 8113,
      "ĠOpÅ¡tina": 8114,
      "Ġfakultetu": 8115,
      "pg": 8116,
      "ï£": 8117,
      "Äįije": 8118,
      "kala": 8119,
      "tent": 8120,
      "dini": 8121,
      "Ġ1989": 8122,
      "tivnosti": 8123,
      "mpu": 8124,
      "ĠModel": 8125,
      "heo": 8126,
      "ĠSavet": 8127,
      "ĠduÅ¾an": 8128,
      "sniji": 8129,
      "ĠzakljuÄįak": 8130,
      "Ġstrah": 8131,
      "loÅ¡kom": 8132,
      "ktivno": 8133,
      "Ġglavnih": 8134,
      "Ġnastaviti": 8135,
      "ĠDragi": 8136,
      "ĠkuÄĩ": 8137,
      "Ġrazumevanje": 8138,
      "Ġformira": 8139,
      "Ġplata": 8140,
      "RAV": 8141,
      "Ġkomuna": 8142,
      "ĠVasi": 8143,
      "Å¡ene": 8144,
      "Ġotk": 8145,
      "Ġodba": 8146,
      "Ġstvaranja": 8147,
      "demokra": 8148,
      "ĠoznaÄįava": 8149,
      "Ġkriterijuma": 8150,
      "Ġsaslu": 8151,
      "Ġodakle": 8152,
      "Ġsrpskim": 8153,
      "rge": 8154,
      "ĠTadi": 8155,
      "Ġpravne": 8156,
      "znom": 8157,
      "ĠOne": 8158,
      "Ġpetak": 8159,
      "Ġpretra": 8160,
      "ĠLuka": 8161,
      "Ġputnika": 8162,
      "ĠstruÄįnjaci": 8163,
      "Ġkazna": 8164,
      "Ġruske": 8165,
      "Ġanaly": 8166,
      "Ġmajke": 8167,
      "ĠNeka": 8168,
      "ĠVas": 8169,
      "Ġsignala": 8170,
      "ĠVeÄĩina": 8171,
      "Ġstrukturi": 8172,
      "cture": 8173,
      "daci": 8174,
      "ĠpredviÄĳeno": 8175,
      "Ġstandardi": 8176,
      "Ġnedostatak": 8177,
      "broj": 8178,
      "Ġsubje": 8179,
      "Ġinformacijama": 8180,
      "Ġnemo": 8181,
      "Ġstoje": 8182,
      "Ġdoneti": 8183,
      "ĠBalkana": 8184,
      "Ġ................................................................................": 8185,
      "vljenje": 8186,
      "Ġselo": 8187,
      "Ġprincipa": 8188,
      "Ġprekida": 8189,
      "ĠChi": 8190,
      "Ġsvrhe": 8191,
      "Ġnadokna": 8192,
      "Ġmorali": 8193,
      "NOG": 8194,
      "Ġdvori": 8195,
      "Ġzasniva": 8196,
      "Ġaktivnostima": 8197,
      "Ġovakve": 8198,
      "Ġmetodom": 8199,
      "ĠOnda": 8200,
      "ĠnemoguÄĩe": 8201,
      "ĠKoÅ¡tunica": 8202,
      "vska": 8203,
      "Ġfiska": 8204,
      "crta": 8205,
      "ĠveÄĩini": 8206,
      "ĠÄįitav": 8207,
      "fora": 8208,
      "ÏĦ": 8209,
      "ĠÄĩeli": 8210,
      "Ġeti": 8211,
      "Ġlekova": 8212,
      "ĠZahva": 8213,
      "ĠJevre": 8214,
      "kol": 8215,
      "ĠNapo": 8216,
      "ĠnaÄįine": 8217,
      "ĠvaÅ¾na": 8218,
      "Å¡taja": 8219,
      "Ġbici": 8220,
      "Ġposlovanje": 8221,
      "ANJA": 8222,
      "leti": 8223,
      "Ġasocija": 8224,
      "ĠMuze": 8225,
      "ĠBoÅ¾i": 8226,
      "tvoro": 8227,
      "zmom": 8228,
      "true": 8229,
      "Ġzakaza": 8230,
      "ĠKA": 8231,
      "Ġpisac": 8232,
      "ĠpodrÅ¾ava": 8233,
      "ĠPet": 8234,
      "Ġsaglasnost": 8235,
      "Ġfarma": 8236,
      "ĠobeleÅ¾": 8237,
      "Ġhorizo": 8238,
      "Ġizmene": 8239,
      "Ġbiznis": 8240,
      "Ġbrat": 8241,
      "Ġigru": 8242,
      "Ġutakmica": 8243,
      "ĠveÄĩine": 8244,
      "Ġfedera": 8245,
      "Ġtipi": 8246,
      "tovima": 8247,
      "Ġhroni": 8248,
      "Ġsusret": 8249,
      "MO": 8250,
      "mba": 8251,
      "Ġnajverovatnije": 8252,
      "ĠKnji": 8253,
      "Ġelementi": 8254,
      "meÄĳu": 8255,
      "centra": 8256,
      "2000": 8257,
      "ĠMS": 8258,
      "Ġzastupa": 8259,
      "Ġukraji": 8260,
      "CC": 8261,
      "ĠgodiÅ¡nji": 8262,
      "Ġposlednja": 8263,
      "Ġsimu": 8264,
      "Ġreprodu": 8265,
      "ntri": 8266,
      "Ġkrista": 8267,
      "mes": 8268,
      "Ġsredinu": 8269,
      "Ġpripadnici": 8270,
      "ĠnaÅ¡ao": 8271,
      "Ġfilmova": 8272,
      "ĠpodruÄįje": 8273,
      "Ġatra": 8274,
      "ĠpotvrÄĳuje": 8275,
      "ĠniÅ¾e": 8276,
      "Ġumetnost": 8277,
      "Ġnormalno": 8278,
      "Ġdobijeni": 8279,
      "Ġobavezno": 8280,
      "Tabela": 8281,
      "Ġposebnim": 8282,
      "Ġsvojstva": 8283,
      "Ġvodom": 8284,
      "njama": 8285,
      "Ġmalim": 8286,
      "Ġmleka": 8287,
      "ovek": 8288,
      "Å¡ana": 8289,
      "ĠSun": 8290,
      "Ġbudemo": 8291,
      "ĠEvo": 8292,
      "Ġreligi": 8293,
      "ĠGodine": 8294,
      "ele": 8295,
      "nol": 8296,
      "tomi": 8297,
      "Ġosumnji": 8298,
      "ĠsreÄĩu": 8299,
      "ĠbudÅ¾et": 8300,
      "ĠRoma": 8301,
      "ĠPrilikom": 8302,
      "zaciji": 8303,
      "Ġnapravi": 8304,
      "ziti": 8305,
      "Ġekonomskih": 8306,
      "Ġprilike": 8307,
      "Ġnezavisnosti": 8308,
      "wo": 8309,
      "mci": 8310,
      "ĠSpecija": 8311,
      "Ġgubitak": 8312,
      "Ġmotivi": 8313,
      "Ġgeneralni": 8314,
      "ĠpolitiÄįku": 8315,
      "Ġmateri": 8316,
      "novac": 8317,
      "mskih": 8318,
      "Ġglavi": 8319,
      "Ġdrago": 8320,
      "Ġprocedura": 8321,
      "Ġpande": 8322,
      "ĠIza": 8323,
      "ĠMali": 8324,
      "lovanja": 8325,
      "Ġbiljaka": 8326,
      "ljkoviÄĩ": 8327,
      "ĠSrem": 8328,
      "Ġprovo": 8329,
      "Li": 8330,
      "Ġmorfo": 8331,
      "uzme": 8332,
      "ĠÅ¡anse": 8333,
      "Ġkandidat": 8334,
      "Ġjest": 8335,
      "Ġplanira": 8336,
      "ĠovlaÅ¡Äĩenja": 8337,
      "ĠBoris": 8338,
      "Ġpredstavnik": 8339,
      "ĠIstovremeno": 8340,
      "ljivim": 8341,
      "Ã£": 8342,
      "Ġratne": 8343,
      "Ġfanta": 8344,
      "tip": 8345,
      "ERA": 8346,
      "\")": 8347,
      "2003": 8348,
      "ĠunapreÄĳenje": 8349,
      "Ġsektor": 8350,
      "samo": 8351,
      "Ġdvoje": 8352,
      "Ġnajsta": 8353,
      "ĠÅłvajcar": 8354,
      "Ġdobru": 8355,
      "ĠveÄįeras": 8356,
      "NIH": 8357,
      "evro": 8358,
      "Ġuticati": 8359,
      "uid": 8360,
      "ĠÄįasa": 8361,
      "Ġprotein": 8362,
      "fra": 8363,
      "Ġlop": 8364,
      "Ġpolje": 8365,
      "Pre": 8366,
      "Ġovakav": 8367,
      "pisuju": 8368,
      "mental": 8369,
      "Ġubrzo": 8370,
      "Ġuzrok": 8371,
      "Ġcelini": 8372,
      "Ġlige": 8373,
      "Ġpominje": 8374,
      "Ġizradu": 8375,
      "rhi": 8376,
      "Ġbori": 8377,
      "Ġmiro": 8378,
      "Ġumi": 8379,
      "Ro": 8380,
      "rsa": 8381,
      "Ġpisme": 8382,
      "Ġdelatnost": 8383,
      "Ġdiplomati": 8384,
      "Ġisla": 8385,
      "ĠKona": 8386,
      "fil": 8387,
      "Ġpreduzetni": 8388,
      "bjavljeno": 8389,
      "Ġodgovorio": 8390,
      "ĠOko": 8391,
      "Ġnastala": 8392,
      "ĠveÄĩeg": 8393,
      "phi": 8394,
      "ĠÎ²": 8395,
      "Ġpromenama": 8396,
      "Ġobuhva": 8397,
      "Ġregistro": 8398,
      "Ġideju": 8399,
      "ĠFina": 8400,
      "Ġfestival": 8401,
      "Ġkontakt": 8402,
      "Ġpriklju": 8403,
      "Ġmaksi": 8404,
      "ĠpreduzeÄĩima": 8405,
      "Ġtrudno": 8406,
      "ws": 8407,
      "Ġgoriva": 8408,
      "Ġrazgovoru": 8409,
      "toli": 8410,
      "nic": 8411,
      "ness": 8412,
      "ĠSerbi": 8413,
      "zanti": 8414,
      "Ġprirodnih": 8415,
      "Ġnjenu": 8416,
      "Ġemisije": 8417,
      "ĠSvetog": 8418,
      "ĠIL": 8419,
      "ĠodreÄĳen": 8420,
      "Ġdaljem": 8421,
      "dnica": 8422,
      "grisa": 8423,
      "Ġnaime": 8424,
      "Ġhotela": 8425,
      "hn": 8426,
      "ĠÄįuva": 8427,
      "Ġpostaju": 8428,
      "bus": 8429,
      "Ġokolnostima": 8430,
      "Ġpotrebama": 8431,
      "ĠMilana": 8432,
      "ĠBranko": 8433,
      "raku": 8434,
      "ĠMor": 8435,
      "ĠðĿ": 8436,
      "Ġsuse": 8437,
      "ĠAv": 8438,
      "Ġstanice": 8439,
      "cionom": 8440,
      "Ġgvo": 8441,
      "ĠÅ¡pa": 8442,
      "feru": 8443,
      "Ġgrob": 8444,
      "Ġbloka": 8445,
      "Ġusagla": 8446,
      "njavanje": 8447,
      "Ġkal": 8448,
      "ĠPore": 8449,
      "Ġdobiju": 8450,
      "Ġkontrolisa": 8451,
      "Ġparlamentu": 8452,
      "ĠdoÅ¡la": 8453,
      "Ġautomobil": 8454,
      "Ġvek": 8455,
      "Ġq": 8456,
      "ĠPoslo": 8457,
      "Ġdala": 8458,
      "seli": 8459,
      "SD": 8460,
      "Ġsaradnici": 8461,
      "ĠSkupÅ¡tina": 8462,
      "Ġmetod": 8463,
      "Ġrezi": 8464,
      "Ġstrukturu": 8465,
      "ĠoÄįekuju": 8466,
      "ĠZagreb": 8467,
      "stojan": 8468,
      "Ġmira": 8469,
      "Ġistoj": 8470,
      "Ġokupa": 8471,
      "Ġnjihovoj": 8472,
      "Ġvama": 8473,
      "Ġser": 8474,
      "ĠUmesto": 8475,
      "parol": 8476,
      "sane": 8477,
      "ĠÎ¼": 8478,
      "jica": 8479,
      "ĠVojvodini": 8480,
      "Ġsporta": 8481,
      "Ġnapredak": 8482,
      "velopment": 8483,
      "Ġdele": 8484,
      "Ġsistemi": 8485,
      "Ġpati": 8486,
      "Ġtretman": 8487,
      "nus": 8488,
      "ĠGlavni": 8489,
      "ĠEvropu": 8490,
      "ĠoruÅ¾je": 8491,
      "Ġdokazi": 8492,
      "Ġdokumenata": 8493,
      "ĠreÅ¾im": 8494,
      "ĠIzve": 8495,
      "Ġpole": 8496,
      "Ġteren": 8497,
      "mbri": 8498,
      "ĠdruÅ¡tvenim": 8499,
      "Ġlim": 8500,
      "Ġcve": 8501,
      "Ġpodignu": 8502,
      "gma": 8503,
      "ĠdonoÅ¡enja": 8504,
      "Ġvisokim": 8505,
      "ĠRAD": 8506,
      "ĠNebojÅ¡a": 8507,
      "Ġpredo": 8508,
      "Ġinterne": 8509,
      "Ġkontine": 8510,
      "rski": 8511,
      "Ġfinansijski": 8512,
      "ĠWi": 8513,
      "INE": 8514,
      "krea": 8515,
      "godiÅ¡nja": 8516,
      "ĠPhy": 8517,
      "ĠOde": 8518,
      "Ġudeo": 8519,
      "sce": 8520,
      "ĠValje": 8521,
      "Ġpredstoje": 8522,
      "cionalni": 8523,
      "Ġstil": 8524,
      "ĠpraÄĩenje": 8525,
      "Ġidentitet": 8526,
      "ĠElektro": 8527,
      "cionalno": 8528,
      "nzija": 8529,
      "Ġsloboda": 8530,
      "reva": 8531,
      "Ġciklusa": 8532,
      "Ġsastanak": 8533,
      "Ġ180": 8534,
      "Ġtelefona": 8535,
      "vic": 8536,
      "Ġmonetar": 8537,
      "Ġporuke": 8538,
      "Ġulazak": 8539,
      "Ġpravnog": 8540,
      "Î»": 8541,
      "Ġproba": 8542,
      "ĠItalije": 8543,
      "AG": 8544,
      "ĠleÄįenje": 8545,
      "ĠVelike": 8546,
      "Ġodbranu": 8547,
      "Ġavan": 8548,
      "Ġorganima": 8549,
      "Ġbaca": 8550,
      "ini": 8551,
      "blu": 8552,
      "ĠEkonom": 8553,
      "gn": 8554,
      "zina": 8555,
      "Ġela": 8556,
      "Å¡aka": 8557,
      "redio": 8558,
      "loviÄĩa": 8559,
      "pola": 8560,
      "vanim": 8561,
      "ĠStankoviÄĩ": 8562,
      "Ġsoftver": 8563,
      "Ġaspekta": 8564,
      "Ġdre": 8565,
      "Ġprvobi": 8566,
      "Ġpeto": 8567,
      "Ġkompromi": 8568,
      "ĠraspoloÅ¾e": 8569,
      "Ġ130": 8570,
      "Ġsrpskoj": 8571,
      "Ġhero": 8572,
      "Ġregre": 8573,
      "ĠPredrag": 8574,
      "Ġobrade": 8575,
      "Äįim": 8576,
      "Ġaran": 8577,
      "ĠZrenja": 8578,
      "ĠMiodra": 8579,
      "Ġindustrija": 8580,
      "Ġprogrami": 8581,
      "Ġmandata": 8582,
      "Äİe": 8583,
      "ĠKonsta": 8584,
      "Ġharmo": 8585,
      "tiÄĩa": 8586,
      "Ġwhi": 8587,
      "njak": 8588,
      "nk": 8589,
      "Ġkonsulta": 8590,
      "Ġfal": 8591,
      "Ġponudi": 8592,
      "Ġhro": 8593,
      "koni": 8594,
      "koji": 8595,
      "Å¡om": 8596,
      "Ġizaziva": 8597,
      "ĠuÄįiniti": 8598,
      "Ġosobi": 8599,
      "Ġpravima": 8600,
      "Ġosobina": 8601,
      "ĠameriÄįkog": 8602,
      "ĠprilagoÄĳa": 8603,
      "Ġraznim": 8604,
      "ĠPavloviÄĩ": 8605,
      "Ġodbija": 8606,
      "ĠProizvo": 8607,
      "Ġprocedure": 8608,
      "ĠDimitrije": 8609,
      "vljenih": 8610,
      "Ġumetnika": 8611,
      "ĠdruÅ¡tveno": 8612,
      "Ġstabilnosti": 8613,
      ")-": 8614,
      "ĠBoga": 8615,
      "Å¡nog": 8616,
      "tala": 8617,
      "Ġadvokat": 8618,
      "limo": 8619,
      "ĠpoÅ¡tovanje": 8620,
      "Ġenergiju": 8621,
      "dr": 8622,
      "Ġproizvede": 8623,
      "Ġnasilje": 8624,
      "ĠÅłved": 8625,
      "una": 8626,
      "Ġune": 8627,
      "Ġimovinu": 8628,
      "ĠLesko": 8629,
      "SI": 8630,
      "ĠZla": 8631,
      "njaka": 8632,
      "Ġdelovi": 8633,
      "Ġzase": 8634,
      "ĠSch": 8635,
      ".âĢĿ": 8636,
      "Ġupotreblja": 8637,
      "Ġizvr": 8638,
      "ĠDÅ¾on": 8639,
      "ĠmaÄĳar": 8640,
      "ĠÂ°": 8641,
      "Ġprenos": 8642,
      "Ġprste": 8643,
      "Ġzoni": 8644,
      "Ġvladu": 8645,
      "Ġkupovinu": 8646,
      "Ġtermina": 8647,
      "voja": 8648,
      "Ġspreman": 8649,
      "Ġposlovni": 8650,
      "Ġ................................................": 8651,
      "cle": 8652,
      "Ġ1000": 8653,
      "ĠOdno": 8654,
      "Pri": 8655,
      "tribu": 8656,
      "ĠkriviÄįnih": 8657,
      "Ġkonzer": 8658,
      "Ġimenom": 8659,
      "Ġevo": 8660,
      "viron": 8661,
      "Ġodrasli": 8662,
      "Ġuput": 8663,
      "ĠOb": 8664,
      "ĠsinoÄĩ": 8665,
      "Ġ140": 8666,
      "ĠSrpski": 8667,
      "Ġkonstitu": 8668,
      "Ġgri": 8669,
      "Ġvizue": 8670,
      "Ġizgradnji": 8671,
      "Ġuvid": 8672,
      "ĠuvoÄĳenje": 8673,
      "Ġravni": 8674,
      "ĠtraÅ¾io": 8675,
      "Ġbarem": 8676,
      "Ġtraga": 8677,
      "Ġsastava": 8678,
      "Ġdokument": 8679,
      "Ġenti": 8680,
      "Ġsiguran": 8681,
      "ĠÅ¾elim": 8682,
      "Ġproseku": 8683,
      "ĠdruÅ¡tvenog": 8684,
      "cela": 8685,
      "Ġprimje": 8686,
      "Ġuju": 8687,
      "loÅ¡ko": 8688,
      "ĠProblem": 8689,
      "Ġzaro": 8690,
      "Ġliteraturi": 8691,
      "ĠJankoviÄĩ": 8692,
      "Ġkanala": 8693,
      "tiju": 8694,
      "Ġprikazana": 8695,
      "Ġsudova": 8696,
      "ĠSFRJ": 8697,
      "Ġjez": 8698,
      "ĠTodo": 8699,
      "speri": 8700,
      "Ġdospe": 8701,
      "Ġpretvara": 8702,
      "EG": 8703,
      "Ġnjom": 8704,
      "Ġmanipu": 8705,
      "ĠKovaÄįeviÄĩ": 8706,
      "Ġhekta": 8707,
      "Ġradimo": 8708,
      "Ġpodsta": 8709,
      "tanja": 8710,
      "Ġvojni": 8711,
      "tnici": 8712,
      "Ġsaznanja": 8713,
      "Ġglavne": 8714,
      "Ġsporti": 8715,
      "ĠAD": 8716,
      "Äįare": 8717,
      "Ġponuda": 8718,
      "ĠJovana": 8719,
      "ĠInforma": 8720,
      "Ġkriminala": 8721,
      "ĠveÅ¾ba": 8722,
      "ĠBrazi": 8723,
      "ĠÄįas": 8724,
      "ĠduÅ¡e": 8725,
      "ĠzemljiÅ¡te": 8726,
      "ĠmlaÄĳi": 8727,
      "Ġsrce": 8728,
      "esto": 8729,
      "Ġlege": 8730,
      "ranom": 8731,
      "Ġnastavku": 8732,
      "Ġneizve": 8733,
      "llo": 8734,
      "ĠodrÅ¾an": 8735,
      "Ġdevedesetih": 8736,
      "vaÄįi": 8737,
      "Ġnastanka": 8738,
      "Ġdomini": 8739,
      "Ġpopla": 8740,
      "ĠuoÄįi": 8741,
      "ĠPosebno": 8742,
      "ATA": 8743,
      "stiÄįki": 8744,
      "os": 8745,
      "Ġformiranja": 8746,
      "ĠsaÄįi": 8747,
      "Ġpreduzima": 8748,
      "ĠIT": 8749,
      "Ġnemamo": 8750,
      "govorom": 8751,
      "Ġsamoupra": 8752,
      "Ġistorija": 8753,
      "Ġkapital": 8754,
      "ĠsediÅ¡te": 8755,
      "Ġpotpredsednik": 8756,
      "Ġ1941": 8757,
      "ĠAmerike": 8758,
      "Ġadekva": 8759,
      "Ġdisertacije": 8760,
      "lka": 8761,
      "bovi": 8762,
      "Ġfro": 8763,
      "Äĩan": 8764,
      "Ġsvetskom": 8765,
      "ĠobrazloÅ¾e": 8766,
      "Ġjedva": 8767,
      "ĠizveÅ¡taju": 8768,
      "ĠDva": 8769,
      "ĠÅ¡tet": 8770,
      "Ġsaveza": 8771,
      "Ġinterese": 8772,
      "Ġfami": 8773,
      "ENT": 8774,
      "Ġpojma": 8775,
      "Ġfotografija": 8776,
      "Ġreferent": 8777,
      "ĠunutraÅ¡nje": 8778,
      "Å¡Äĩenje": 8779,
      "ĠÂ·": 8780,
      "ĠUpo": 8781,
      "ĠVene": 8782,
      "Ġ07": 8783,
      "Ġsastanku": 8784,
      "lila": 8785,
      "dge": 8786,
      "ĠKompa": 8787,
      "Ġpoko": 8788,
      "ĠokruÅ¾enja": 8789,
      "ĠpotroÅ¡nje": 8790,
      "Ġ105": 8791,
      "tari": 8792,
      "Ġsprema": 8793,
      "ĠMlade": 8794,
      "Ġznate": 8795,
      "Ġstepeni": 8796,
      "Ġprincip": 8797,
      "Ti": 8798,
      "ĠÅ¾elimo": 8799,
      "Ġkazni": 8800,
      "Å¾ak": 8801,
      "Ġfond": 8802,
      "ktivnosti": 8803,
      "Ġfotografije": 8804,
      "tivnoj": 8805,
      "Ġopozicije": 8806,
      "ĠNiÅ¡a": 8807,
      "mese": 8808,
      "Ġplati": 8809,
      "Go": 8810,
      "Ġroka": 8811,
      "Ġprecizi": 8812,
      "rtika": 8813,
      "Ġdatu": 8814,
      "Ġzida": 8815,
      "ĠEco": 8816,
      "ĠResearch": 8817,
      "SluÅ¾beni": 8818,
      "Ġzadovoljstvo": 8819,
      "Ġnacionalni": 8820,
      "Ġporez": 8821,
      "Ġrazliko": 8822,
      "Ġpozitivno": 8823,
      "Ġkriza": 8824,
      "Ġkuhi": 8825,
      "ĠuÄįeÅ¡Äĩa": 8826,
      "bac": 8827,
      "ĠraÄįunar": 8828,
      "Ġizdvoje": 8829,
      "Ġtrend": 8830,
      "Ġglavna": 8831,
      "OH": 8832,
      "mona": 8833,
      "Ġjugoisto": 8834,
      "ktima": 8835,
      "ĠStani": 8836,
      "ktivne": 8837,
      "ĠmeÄįa": 8838,
      "ĠÅ¡kolama": 8839,
      "Ġinfrastrukture": 8840,
      "ĠZakonom": 8841,
      "Ġprvenstvu": 8842,
      "Ġzadataka": 8843,
      "ĠobraÄįuna": 8844,
      "âĢ¡": 8845,
      "ĠCentar": 8846,
      "ced": 8847,
      "Ġizabran": 8848,
      "Ġhiljade": 8849,
      "Ġpoliciji": 8850,
      "Ġpun": 8851,
      "znost": 8852,
      "Ġpozicija": 8853,
      "ĠsliÄįne": 8854,
      "Ġprvim": 8855,
      "Ġniste": 8856,
      "Ġpolako": 8857,
      "TT": 8858,
      "Ġnovine": 8859,
      "Ġprosvete": 8860,
      "hal": 8861,
      "ĠÄįestica": 8862,
      "pul": 8863,
      "Ġizlaz": 8864,
      "tter": 8865,
      "Ġpojedine": 8866,
      "2002": 8867,
      "cm": 8868,
      "Å¡teno": 8869,
      "Ġprivatizaciju": 8870,
      "kl": 8871,
      "Ġambije": 8872,
      "Ġkulturi": 8873,
      "Ġbalka": 8874,
      "viden": 8875,
      "Ġbrojnih": 8876,
      "tovanje": 8877,
      "Ġradno": 8878,
      "ĠNIS": 8879,
      "Ġterapije": 8880,
      "ĠOF": 8881,
      "Ġmol": 8882,
      "biju": 8883,
      "ĠSRS": 8884,
      "ĠGar": 8885,
      "ĠliÄįne": 8886,
      "Ġsopstvene": 8887,
      "Ġprogno": 8888,
      "Ġoslanja": 8889,
      "Ġpreba": 8890,
      "Ġsvetlo": 8891,
      "Ġape": 8892,
      "Ġstudiji": 8893,
      "ANA": 8894,
      "Ġzaosta": 8895,
      "Ġigrao": 8896,
      ".-": 8897,
      "Ġprezenta": 8898,
      "MI": 8899,
      "site": 8900,
      "Ġalu": 8901,
      "Ġnapu": 8902,
      "Ġopis": 8903,
      "ĠPubli": 8904,
      "âĢķ": 8905,
      "ĠHercegovine": 8906,
      "Ġkolu": 8907,
      "int": 8908,
      "Ġpripremi": 8909,
      "Ġbloki": 8910,
      "OB": 8911,
      "ĠArhi": 8912,
      "Ġpoverenje": 8913,
      "Ġumr": 8914,
      "Ġfunkcio": 8915,
      "ĠSmi": 8916,
      "??": 8917,
      "Ġenergija": 8918,
      "Ġdopi": 8919,
      "ĠdonoÅ¡enje": 8920,
      "uri": 8921,
      "uzro": 8922,
      "Ġpolovine": 8923,
      "Ġpostali": 8924,
      "Ġponedeljak": 8925,
      "davno": 8926,
      "am": 8927,
      "ĠNaÅ¡": 8928,
      "stiÄįe": 8929,
      "Ġpotpisi": 8930,
      "ĠDija": 8931,
      "ĠInstituta": 8932,
      "ĠSvaka": 8933,
      "Ġpuca": 8934,
      "Ġ800": 8935,
      "ĠDrÅ¾ava": 8936,
      "Ġtermo": 8937,
      "ĠDemokratske": 8938,
      "Ġcell": 8939,
      "Ġprotesta": 8940,
      "ĠGrupa": 8941,
      "Ġoduze": 8942,
      "ĠBDP": 8943,
      "Ġdat": 8944,
      "Ġprosti": 8945,
      "Ġtakvu": 8946,
      "ĠProfe": 8947,
      "Ġtakvog": 8948,
      "Ġnapravio": 8949,
      "ssi": 8950,
      "cer": 8951,
      "Ġizrade": 8952,
      "Ġkampanje": 8953,
      "Co": 8954,
      "Ġliko": 8955,
      "ĠDNK": 8956,
      "strem": 8957,
      "Ġterena": 8958,
      "EV": 8959,
      "Ġab": 8960,
      "Ġocene": 8961,
      "Ġ06": 8962,
      "Ġocenu": 8963,
      "Ġsocijalni": 8964,
      "Ġuzeti": 8965,
      "ljuju": 8966,
      "UK": 8967,
      "Ġizboru": 8968,
      "plje": 8969,
      "ĠMedici": 8970,
      "Äĩnost": 8971,
      "ĠLin": 8972,
      "Ġradim": 8973,
      "ĠÄįvrsto": 8974,
      "Ġstudenti": 8975,
      "Ġfir": 8976,
      "Ġnajte": 8977,
      "Ġjefti": 8978,
      "ĠOkruÅ¾": 8979,
      "Ġdejstvo": 8980,
      "Ġraznovr": 8981,
      "Ġ________________________________": 8982,
      "Ġdeblji": 8983,
      "Ġese": 8984,
      "Ġkomunisti": 8985,
      "ĠVar": 8986,
      "Ġprovi": 8987,
      "mber": 8988,
      "Ġstandardima": 8989,
      "ĠÃ±": 8990,
      "ĠfunkcioniÅ¡e": 8991,
      "Ġkretanje": 8992,
      "udo": 8993,
      "Ġtor": 8994,
      "Ġponudu": 8995,
      "njavaju": 8996,
      "nel": 8997,
      "use": 8998,
      "Ġfinansiranja": 8999,
      "Ġmerenje": 9000,
      "duÅ¡e": 9001,
      "Ġkrug": 9002,
      "Ġfrak": 9003,
      "Ġdnevni": 9004,
      "ĠÄĩi": 9005,
      "Ġrepublika": 9006,
      "Ġkogni": 9007,
      "Ġekonomskog": 9008,
      "Ġneophodna": 9009,
      "Ġsaradnika": 9010,
      "ĠProgram": 9011,
      "Ġate": 9012,
      "Ġzakonodav": 9013,
      "Ġsubotu": 9014,
      "ĠAlek": 9015,
      "rtava": 9016,
      "Ġporo": 9017,
      "Ġkarte": 9018,
      "Ġmost": 9019,
      "Ġinsu": 9020,
      "Ġosvet": 9021,
      "sena": 9022,
      "ĠLjudi": 9023,
      "ziÄĩ": 9024,
      "ĠviÅ¡i": 9025,
      "Ġusmere": 9026,
      "ĠodrÅ¾ana": 9027,
      "Ġizgled": 9028,
      "ktura": 9029,
      "ĠïĢ«": 9030,
      "rd": 9031,
      "tonu": 9032,
      "Ġapsolutno": 9033,
      "Ġprimenji": 9034,
      "ĠPriÅ¡ti": 9035,
      "ĠÄįisto": 9036,
      "ĠEvropskoj": 9037,
      "juÄĩih": 9038,
      "Ġotpad": 9039,
      "ĠStatisti": 9040,
      "ĠzavrÅ¡ava": 9041,
      "Ġdelove": 9042,
      "ĠUkrajini": 9043,
      "sse": 9044,
      "gula": 9045,
      "Äĳana": 9046,
      "Ġtam": 9047,
      "znosti": 9048,
      "ĠPrepo": 9049,
      "ULT": 9050,
      "hen": 9051,
      "Äįenjem": 9052,
      "ĠZi": 9053,
      "Ġmog": 9054,
      "Ġbilan": 9055,
      "Ġevalua": 9056,
      "ĠameriÄįkih": 9057,
      "PP": 9058,
      "ĠpaÅ¾nje": 9059,
      "Ġpesni": 9060,
      "Ġpomisli": 9061,
      "Ġzatvor": 9062,
      "Ġmolekula": 9063,
      "EÑķ": 9064,
      "Ġpredstavnicima": 9065,
      "Ġidentifiko": 9066,
      "Ġposu": 9067,
      "Äįenog": 9068,
      "ĠdoÄĳu": 9069,
      "Ġmaga": 9070,
      "Ġnezna": 9071,
      "Å¡enjem": 9072,
      "UN": 9073,
      "Ġprofesora": 9074,
      "ĠÅ¡teta": 9075,
      "ae": 9076,
      "pati": 9077,
      "ley": 9078,
      "Ġdijalog": 9079,
      "ĠigraÄį": 9080,
      "Ġopisuje": 9081,
      "ÄĩeviÄĩ": 9082,
      "ĠistraÅ¾ivanjima": 9083,
      "Ġuniverza": 9084,
      "Ġznati": 9085,
      "ĠVuÄįiÄĩa": 9086,
      "Ġslikar": 9087,
      "Ġnoge": 9088,
      "java": 9089,
      "Ġkami": 9090,
      "Å¾noj": 9091,
      "ĠdrÅ¾avnim": 9092,
      "ĠsreÄĩ": 9093,
      "Ġkul": 9094,
      "Ġnamet": 9095,
      "Ġantio": 9096,
      "Ġpercep": 9097,
      "Ġgovoriti": 9098,
      "Äįje": 9099,
      "nistara": 9100,
      "Äįlan": 9101,
      "Ġstarih": 9102,
      "Ġkulturne": 9103,
      "Ġomi": 9104,
      "hte": 9105,
      "Ġopro": 9106,
      "ICA": 9107,
      "Ġtelevizi": 9108,
      "organiza": 9109,
      "Ġpromovi": 9110,
      "ĠMc": 9111,
      "Ġsumnji": 9112,
      "vanjima": 9113,
      "Ġsamostalno": 9114,
      "cus": 9115,
      "ENA": 9116,
      "Ġinstitucijama": 9117,
      "veti": 9118,
      "Ġsistemima": 9119,
      "EE": 9120,
      "Ġtransa": 9121,
      "mori": 9122,
      "Ġosvaja": 9123,
      "Ġsavremene": 9124,
      "Ġorganizaciju": 9125,
      "Ġugovore": 9126,
      "Ġnezavisno": 9127,
      "ĠDÅ¾o": 9128,
      "ĠÃ¯": 9129,
      "bl": 9130,
      "ĠOsnovni": 9131,
      "ĠDinkiÄĩ": 9132,
      "alth": 9133,
      "chno": 9134,
      "Ġsvije": 9135,
      "Ġanalizom": 9136,
      "ktivnost": 9137,
      "ĠtreÄĩeg": 9138,
      "ĠMoj": 9139,
      "Ġ**": 9140,
      "Ġ02": 9141,
      "zove": 9142,
      "stike": 9143,
      "ĠSporazu": 9144,
      "ĠnapuÅ¡ta": 9145,
      "Ġpedago": 9146,
      "Ġpovratak": 9147,
      "ĠÄįitao": 9148,
      "Ġpriznanje": 9149,
      "Ġintegracije": 9150,
      "Ġfun": 9151,
      "Ġnastao": 9152,
      "tpu": 9153,
      "vate": 9154,
      "siona": 9155,
      "Ġministarstva": 9156,
      "Al": 9157,
      "ĠNada": 9158,
      "Ġruskog": 9159,
      "Ġano": 9160,
      "ĠÄĲe": 9161,
      "ĠÄįast": 9162,
      "Ġsru": 9163,
      "Ġdostavlja": 9164,
      "Ġporast": 9165,
      "ĠMr": 9166,
      "Å¡nim": 9167,
      "Ġosvr": 9168,
      "Å¾nu": 9169,
      "pao": 9170,
      "ĠNaro": 9171,
      "Ġdodi": 9172,
      "Ġpredloga": 9173,
      "Ġformula": 9174,
      "ĠtuÅ¾ioca": 9175,
      "Ġposlovima": 9176,
      "rap": 9177,
      "Tanjug": 9178,
      "Ġpisao": 9179,
      "obu": 9180,
      "Ġgradovima": 9181,
      "gda": 9182,
      "Ġelement": 9183,
      "vanoviÄĩa": 9184,
      "Ġobavljanje": 9185,
      "giji": 9186,
      "Ġnajbli": 9187,
      "Ġzarada": 9188,
      "Ġministara": 9189,
      "Ġzamenik": 9190,
      "ĠispriÄįa": 9191,
      "ĠleÄįenja": 9192,
      "ĠCrvene": 9193,
      "ĠPL": 9194,
      "ents": 9195,
      "Ġultra": 9196,
      "ĠNarodna": 9197,
      "ĠpostojeÄĩih": 9198,
      "Ġtakvo": 9199,
      "Ġpravnih": 9200,
      "ĠteÅ¡ke": 9201,
      "ĠFonda": 9202,
      "Ġlogo": 9203,
      "ĠÄįim": 9204,
      "Ġtole": 9205,
      "ĠInstitut": 9206,
      "Ġepizo": 9207,
      "ĠÅ¡efa": 9208,
      "Ġcrta": 9209,
      "toru": 9210,
      "KP": 9211,
      "Ġzahtevima": 9212,
      "ĠPremije": 9213,
      "ncu": 9214,
      "Ġroda": 9215,
      "kiÄĩa": 9216,
      "Ġpala": 9217,
      "Ġraski": 9218,
      "Ġroditelj": 9219,
      "Ġravnopra": 9220,
      "Ġpesma": 9221,
      "ĠtuÅ¾ilac": 9222,
      "gine": 9223,
      "prot": 9224,
      "Ġstanova": 9225,
      "ĠCor": 9226,
      "ĠPOD": 9227,
      "Ġotvaranje": 9228,
      "ORA": 9229,
      "Ġkomentar": 9230,
      "Ġregistrova": 9231,
      "ĠodreÄĳenog": 9232,
      "ĠPret": 9233,
      "Î²": 9234,
      "Ġborba": 9235,
      "Ġizgubi": 9236,
      "Ġdio": 9237,
      "verzi": 9238,
      "Ġrobu": 9239,
      "nÄįa": 9240,
      "Ġsupruga": 9241,
      "ĠSam": 9242,
      "Ġprouzro": 9243,
      "ĠnajvaÅ¾nije": 9244,
      "ĠFrancuska": 9245,
      "Ġsvojevr": 9246,
      "habili": 9247,
      "Ġrealizaciju": 9248,
      "cid": 9249,
      "stin": 9250,
      "ĠKragujevcu": 9251,
      "sfa": 9252,
      "Ġbudem": 9253,
      "ĠSrbe": 9254,
      "ctro": 9255,
      "vam": 9256,
      "Ġotku": 9257,
      "ntnog": 9258,
      "Ġhranu": 9259,
      "ĠGri": 9260,
      "Ġulica": 9261,
      "cje": 9262,
      "ĠviÅ¡estru": 9263,
      "Ġpilo": 9264,
      "Ġobezbediti": 9265,
      "Ġwww": 9266,
      "rska": 9267,
      "vari": 9268,
      "Ġekspo": 9269,
      "Ġprostorima": 9270,
      "Ġliga": 9271,
      "ĠMalo": 9272,
      "Ġpozitivan": 9273,
      "ĠoÄįekivanja": 9274,
      "SKE": 9275,
      "âĢĶâĢĶ": 9276,
      "tnije": 9277,
      "Ġparametri": 9278,
      "Äįilo": 9279,
      "Ġpostav": 9280,
      "nical": 9281,
      "ĠParizu": 9282,
      "Ġ102": 9283,
      "ĠgreÅ¡ka": 9284,
      "âĢĻ,": 9285,
      "Ġtermin": 9286,
      "Ġhrani": 9287,
      "Ġevolu": 9288,
      "ĠizvoÄĳa": 9289,
      "ĠrazliÄįiti": 9290,
      "lej": 9291,
      "vaÄįka": 9292,
      "Ġhumanitar": 9293,
      "sali": 9294,
      "Ġizjava": 9295,
[...]
